#version: 0.2
i e
Ġ p
Ġ w
Å Ĥ
Ġ s
n a
Ġ z
o w
c z
Ä Ļ
n i
Ä ħ
n ie
c h
r z
s t
Ġ d
r a
Å ¼
Ã ³
Ġ o
Ġ t
Ġ m
Ġ k
Å Ľ
r o
s z
Ġ i
Ġ na
n e
Ġp o
j e
d z
n y
i a
l e
g o
l i
rz e
i ÄĻ
Ä ĩ
Ġ b
k a
Ġz a
Ġd o
r e
ow a
Ã³ w
ni a
ÅĤ a
a r
k i
c i
l a
k o
t a
j a
w a
Ġ je
Ġw y
Ġ u
Ġ nie
Ġ a
c e
rz y
d a
t y
Ġ P
t e
Ġs iÄĻ
n o
Å¼ e
m i
j Äħ
r y
Ġp rze
cz e
c y
ÅĤ o
k u
cz y
p o
Ġk o
k ie
st a
â Ģ
t o
c ie
Ġ W
w o
m a
Ġt e
ÅĽ ci
m y
ny ch
d y
Ġ g
Ġ S
t u
Ġo d
Ġm o
Ġ ro
Å Ħ
ow e
Ġt o
r u
ow y
w i
dz ie
c j
l u
l o
Ġ ja
Ġje st
e n
Ġ M
e r
Ġm a
sz y
w ie
c a
t Ã³
ÅĤ y
. .
e m
Ġp rzy
Ġ K
Å¼ y
Ġ f
Ġt a
z a
Ġk tÃ³
Ġt y
o r
sz e
Ġ 1
ra z
Ġ N
Ġ âĢ
b y
cz a
Ġp ro
dz i
g a
Ġ Å¼e
Ġ (
z y
cj i
Ġ T
Ġ 2
p a
Ġ C
Ġ D
Ġi n
Ġd z
d u
m o
Ġb y
c o
Ġ B
m ie
Ġpo d
o b
ÅĤ u
ÅĽ Äĩ
Ġ A
Ġ Z
ne j
ne go
n Äħ
ĠP o
w ia
Ġ -
Ġs p
Ġ O
ow ie
Ġ ÅĽ
Ġ ch
Ġ e
Ġ J
m u
p i
r Ã³
Ġo b
s i
s a
d e
Ġp ra
ow i
Ġ R
Ġs z
ny m
g i
w y
c ja
c ia
s ki
Ġ re
Ġro z
Ġw ie
b i
p ie
Ġp a
ow o
s kie
Ġd la
Ġk a
s u
Ġm ie
Ġja k
Ġ G
Ġ czy
Ġ co
ni u
ĠâĢ ĵ
k Ã³w
Ġ I
Ġ lu
e z
s y
d o
w e
p e
Ġs ta
sz a
Ġs t
Ġ ni
Ġs po
Ġo raz
0 0
b a
Ġ r
owy ch
b ie
Å º
nie j
Ġta k
Ġm i
n u
Ġprze z
j ÄĻ
s ka
Ġje d
Ġz e
Ġna j
Ġs a
j u
st y
p ra
no ÅĽci
dz e
te r
ch o
Ġ cz
k t
i l
Ġko n
ÅĤ e
Ġ go
Ġ h
st o
Ġ L
k ÅĤa
0 1
Ġs Äħ
p u
dz o
Ġd a
ĠN a
ĠktÃ³ re
Ġz na
Ġdz ie
i n
d ni
r owa
o n
s ie
Ġ n
g ra
.. .
m ia
Ġ U
m en
f i
Ġty m
a l
ĠktÃ³ ry
âĢ Ŀ
Ġa le
Ġw i
Ġ li
b o
Ġ le
o sta
Ġb ÄĻ
u n
owe j
jÄħ cy
Ã³ ÅĤ
ty cz
szy st
Ġb ar
cy j
st ÄĻ
a n
dz ia
g u
ie r
s o
t Ã³w
Ġ F
m e
Ġ E
Ġ ce
z na
Ġ ra
Ġ 3
ĠZ a
rz Äħ
t owa
ĠâĢ ŀ
Ġ la
Ġlu b
l ko
Ġprze d
Å¼ a
z u
cz o
ÅĤ Äħ
s po
Ġmo Å¼e
k re
Ġw iÄĻ
ĠJ e
i o
rz a
dz a
Ġ cza
t k
nie m
Ġmo Å¼
Ġb ez
Ġf i
Â Ń
Ġw szyst
Ġb o
Ġw o
b u
owe go
ÅĤ em
jÄħ c
e k
Ġs wo
s p
Ġ Å
Ġm u
ni ka
Ġte go
c je
j s
ÅĽ cie
jÄħ ce
c u
ĠN ie
Ġpo z
owa nia
Ġ ju
ia ÅĤa
Ġp e
sz cze
Ġsp ra
Ġk u
n ÄĻ
k Äħ
ch a
Ġ2 01
owa Äĩ
Ġs y
ra n
Ġm e
ko na
ÅĽ li
Ġw ÅĤa
stÄĻ p
ĠM a
Ġz osta
Ġo s
f or
wi Äħ
ro d
Ġd e
Ġ H
a k
Ġ Å¼y
owa nie
Ġty lko
r Ã³w
cz ne
ni o
Ġs ie
Ġ ca
ĠbÄĻ dzie
r ÄĻ
Ġb u
kie m
st e
te m
b li
k ÄĻ
l Äħ
Ġbar dzo
w Ã³
Ġ "
ĠK o
ra k
ĠW y
Ġju Å¼
f e
Ġw ar
no ÅĽÄĩ
cz Äħ
ni k
Ġw z
ĠP a
Ġs to
o na
Ġw e
Ġmie js
Ġro ku
Ġb a
Ġo g
ki ch
Ġr Ã³w
skie go
) .
ÅĤa m
z e
w iÄĻ
s ia
Ġja ko
Ġw a
Ġs k
d nie
Ã³ b
s ÅĤu
Ã³ l
le j
Ġdo b
Ġ 4
si Äħ
cz nie
l ÄĻ
Ġd u
p owie
rÃ³ Å¼
to r
ÅĽ my
Ġ 5
Ġp i
) ,
ĠD o
ÅĤ Ã³w
k tu
cj ÄĻ
owy m
ci Äħ
Ġst ro
ÅĦ st
n t
Ġpo t
d Äħ
Ġ cie
Ġs ob
dz y
na k
Ġt u
n d
Ġpro du
Ġp ier
szy ch
Ġm ia
Å¼ o
pa d
Ġdz iaÅĤa
Ġ no
ĠPo l
skie j
Ġi ch
cze nia
Ġ cze
Ġ raz
Ġka Å¼
nie Å¼
Ġtak Å¼e
Ġte Å¼
Ġby Äĩ
ki m
w ar
s e
Ġch o
Ġcz ÄĻ
Ġmo g
cz nych
Ġs u
ĠmoÅ¼ na
k ty
ni ÄĻ
ny mi
cz ÄĻ
Ġp ow
i i
Ġko m
ĠK a
j i
c Ã³w
ĠrÃ³w nieÅ¼
p rze
t ka
s iÄĻ
ow Äħ
ĠM o
ĠÅĽ wia
Ġje go
i m
ÅĽ nie
ce j
te go
Ġ lo
Ġo p
ĠT o
r Äħ
p y
t rzy
Ġsa mo
ĠJ a
pra w
i u
Ġp la
sz Äħ
dze nia
ĠC h
Ġw sp
Ġk ie
Ġp owie
sz ka
k owa
l ne
kÅĤa d
g ie
rz ÄĻ
ar t
b ra
Ġu Å¼y
for ma
je my
Ġz d
cza s
Ã³ r
jÄħcy ch
Ġp re
Ġ1 9
ga ni
Ġ ry
Ġpier w
Ġjed nak
sze j
s ko
ĠR o
Ġd y
Ġfi r
cz ny
m Ã³w
b le
Ġ ,
Ġo r
Ġwy da
Ġa u
Ġsob ie
Ġ rze
dzie j
Ġ 6
P o
s owa
d owa
a li
li wo
Ġ ÅĤa
Ġs er
szy m
s k
Ġ c
ĠD z
Ġm nie
c t
Ġje j
Ġzna j
re m
Ġd ru
st u
ĠM i
c Äħ
Ġg dy
Ġo f
d ÄĻ
cze nie
Ġby ÅĤo
Ġe le
Ġt ra
ski ch
t nie
kie go
Ġdo da
we t
Ġk il
n ku
sta w
Ġod powie
Ġte n
ow ni
ĠI n
Ġg ra
ĠÅ ļ
cz nej
wiÄħ za
l ar
dz Äħ
Ġsz ko
Ġp ie
t ni
li ÅĽmy
Ġwy ko
Ġte j
Ġna d
Ġg ru
ĠP rze
Ġ rÃ³Å¼
n owi
te k
ne k
s ku
r t
Ġsp e
e j
Ġswo je
Ġa by
g e
kie j
Ġpra w
rzy sta
p rowa
Ġ :
m iÄĻ
Ġp u
st em
Ġla t
s ÅĤa
âĢ ¦
Ä ¹
Ġos ob
Ġje szcze
Ġpe w
Ġf a
ĠS z
ie n
cz u
d Ã³w
s Ã³w
Ġo kre
d en
.. ..
p ro
ĠP ro
Ġspo s
Ġd ro
Ġ ar
e c
t ro
ĠktÃ³ ra
t ra
czy Äĩ
Ġspra w
Ġi m
wa Äĩ
Ġna s
wa nia
t ki
Ġp owi
ka ch
iÄĻ k
ow ia
ma ga
Ġm y
n owa
le p
ci u
N a
Ġd nia
re k
ĠB o
g lÄħ
Ġna wet
Ġpo l
Ġ 7
rz u
Ġpra cy
Ġsz cze
ne r
Ġpra c
Ġpo mo
un k
Ġin forma
ĠR a
Ġcza s
iÄĻ ki
Ġf or
lo gi
rÃ³ d
l nie
Ġ V
le Å¼y
Ġro dzi
ta ch
Ġs zy
ĠÅĽ wie
Å¼ Äħ
p re
l nych
Ġpro je
l ny
sz u
Ġg a
ĠW ar
Ġby ÅĤ
Ġ2 00
Ġ 8
Ġt rze
ĠR e
sia da
ty w
sz ta
u ro
je m
sze go
Ġu sta
Ġin ter
Ġb i
st ra
Ġwy kona
Ġdz i
Ġd ÅĤu
z owa
p l
pe ÅĤ
lo g
Ġk ra
ne t
Ġko lej
Ġ [
pi sa
Ġjed no
Ġor gani
t wo
e l
trzy ma
dzia ÅĤ
Ġm ar
Ġm iÄĻ
n g
sz o
Ġprzy pad
Ġwy so
za cji
d Åº
Ġz ro
ÅĽ wia
2 01
Ã Ħ
z en
a m
Ġa l
g Ã³l
ski m
ĠwiÄĻ c
ch ni
wa Å¼
g ro
Ġp rowa
Ġh i
Ġ1 0
Ġs ko
n s
Ġni Å¼
Ġpo da
cz nego
dze nie
Ġna u
kÅĤa da
n k
Ġpot rze
sz cza
d ar
Ġmie szka
r i
t i
Ġo ka
w u
dzi Äĩ
ĠÅĽ rod
ĠT e
Ġos Ã³b
b ez
Ġof er
ĠwiÄĻ cej
Ġk la
t ÄĻ
Ġwar to
Ġo n
czy wi
ty ch
Ġty ch
ÅĤ ÄĻ
ĠbÄĻ dÄħ
Ġpro ble
Ġdzie ci
z d
Ġg dzie
Ġ 9
p ÅĤy
Ġp owo
Ġs za
h a
ta j
st rze
t rz
re n
ob a
d ow
Ġu wa
Ġpo sta
cz na
Ġo k
wie r
Ġnie z
tu ra
l ni
Ġte ma
ar y
Ġspos Ã³b
ka r
u r
cz ni
Ġ ru
Ġf o
ĠW ie
t Äħ
le k
l nego
ÅĤo ÅĽci
ĠktÃ³ry ch
Ġ .
mi na
ter ia
Ġo sta
pe w
Ġs e
l noÅĽci
bez pie
n ki
te re
t r
ĠC o
st ru
Ġz ÅĤ
Ġprzy go
Z a
Ġko ÅĦ
ĠwiÄĻ k
cze j
Ġpo siada
ka mi
Ġsp rze
Å¼e j
ĠO d
Ġko lo
c jÄħ
ch u
Ġa k
t ru
Ġwie le
t ku
ĠwÅĤa s
Ġkie dy
Ġma jÄħ
s ji
Ã³ j
wiÄĻ k
f a
Ġs o
p ÅĤa
Ġpe ÅĤ
d em
ĠS ta
w sze
kt Ã³w
b ÄĻ
Ġmog Äħ
Ġpo ja
Ġin nych
Ġta m
ĠPo d
Ġk to
Ġ 0
Ġs i
k ry
Ġm Ã³w
Ġz ÅĤo
ĠmoÅ¼ liwo
âĢĿ .
Ġni ch
Ġwsp Ã³ÅĤ
ÅĦst wa
g ÄĻ
Ġe k
J e
st ar
Ġo ko
bi or
l nej
ĠkaÅ¼ dy
Ġza ch
ÅĽwia d
Ġkil ka
cy ch
m owa
rze nia
st Äħ
ma ch
wa nie
Ġt wo
ĠW o
ni i
ĠT a
ÅĤ owie
ĠL i
Ġma m
jÄĻ cia
Ġk ar
Ġna m
Ġb ra
da w
Ġsz e
na d
Ġszy b
s em
Ġsta nowi
h o
le nia
st wa
Ġs ku
Ġf il
n Ã³w
Ġz mia
Ġsy stem
rz o
Ġs ÅĤu
Ġ cy
n ow
go d
Ġspe cja
Ġna leÅ¼y
t ar
Ġz mie
i ch
Ġby ÅĤa
Ġpro gra
Ġb ie
Ġu sÅĤu
owi Äħ
Ġpod czas
Ġta kie
t p
ĠktÃ³ry m
ni Äħ
l ien
mi o
le m
Ġpo li
da nia
Ġmiejs ce
ÅĽ cia
ta mi
ĠktÃ³ rzy
mia st
ĠL e
te n
b ar
ĠmÃ³w i
bie ra
d i
Ġz w
Ġspo tka
Ġf unk
ÅĤy ch
cze s
to ra
Ġ X
Ġwszyst ko
Ġza wo
k ro
I E
ĠP rzy
Ġprzypad ku
Ġpro ce
wÃ³ j
Ġja kie
du je
Ġre ali
m niej
Ġbar dziej
Ġ1 2
Ġpo le
ĠW a
Ġ1 5
z ji
Ġwszyst kich
Ġg ÅĤÃ³w
ni Äĩ
cz ki
g lÄĻ
Å¼e nia
Ġpowi n
ĠM ar
ĠÅ ģ
s ce
ne m
wie t
wy k
ĠmiÄĻ dzy
zu je
Ġroz po
pe ra
Ġzro bi
Ġk siÄħ
Ġp y
Ġ ciÄħ
ĠC zy
ch ro
Ġ Â
f o
Ġm ÅĤo
cyj ne
de k
re dni
le Å¼
sz ko
h e
Ġz da
ĠwÅĤa ÅĽci
Ġpo prze
Ġza pew
cz nym
Ġza kre
Ġk re
ĠkaÅ¼ de
so by
Ġje ÅĽli
Ġdzie c
gra ni
st or
s er
Ġ /
z ie
p li
Ġco ÅĽ
le g
ÅĤy m
I I
Ġte le
spo dar
tu ry
ni kÃ³w
ÅĽci Äħ
sze nia
Ġh o
ce n
men t
t wa
Ġwie lu
mi n
Ġgo dzi
Ġw ia
t ry
ka za
d ia
szta ÅĤ
p er
z o
cho dzi
Ġcza su
ca ch
na ch
sz ÄĻ
ĠW i
ĠWar sza
ci w
Ġau to
Ġpu bli
stÄĻ pu
ĠS a
Ġst ra
Ġdz iÄĻki
ĠktÃ³re j
Ġa d
do mo
Ġu cze
Ġdo stÄĻp
l na
Ġpo zy
ĠT y
ÅĤe go
Ġmu si
tu a
Å¼e nie
Ġpoz osta
N ie
Ġsprze da
s ÅĤ
rzÄħ d
Ġja ki
t ne
ĠG o
Å¼e li
cze go
ĠB a
Ġp ar
t rze
Ġ2 0
Ġ Å¼a
Ã³ d
Ġt ru
te ra
ÅĽ la
st ro
c ÄĻ
ch y
ĠÅ¼e by
u m
s cy
in g
Ġza wsze
wie ra
glÄħ da
nÄħ Äĩ
l nym
po r
wa ne
ĠP ra
Ġt ro
Ġprzed sta
! !
1 0
Ġko bie
Ġma teria
k la
ĠE uro
b e
cz nÄħ
Ġt re
Ġa n
Ġinter net
Ġp ÅĤy
wa ÅĤ
wa la
Ġwy maga
Ġ1 8
Ġwszyst kie
Ġspo ÅĤe
Ġdob rze
Ġch wi
pra sza
Ġfi na
st wo
ni ki
k e
Ġch ce
Ġr ÄĻ
ÅĤe j
Ġ ci
Ġstro ny
Ġczy li
Ġo pi
Ġzd r
Ġele kt
Å¼ u
w en
Ġu mie
ï ¿
ĠK u
ï¿ ½
ĠK on
Ġs ty
te ry
ĠL u
ĠwÅĤa ÅĽnie
cyj nych
Ġwi do
ĠÅ »
Ġz ie
Ġ jÄħ
Ġko sz
Ġwszyst kim
d nia
Ġro bi
Ġar ty
jÄħ ca
nie nia
ÅĽ rÃ³d
Ġpoz io
d ÅĤu
o m
Ġob ec
ĠC z
w em
Ġfir my
le nie
mu je
Ġmo je
Ġroz wiÄħza
Ġs tu
Ġza po
ĠD la
Ã³ Åº
Ġko nie
Ġte r
g en
st er
z i
Ġsie bie
ci Äĩ
d no
wa li
Ġprzygo towa
pie j
jÄħce go
Ġal bo
Ġwie l
Ġu rzÄħ
Ġpo czÄħ
Ġnaj lep
czywi ÅĽcie
ru m
Ġ cia
Ġpow sta
r wa
pa da
ĠJe st
ĠÅ¼y cia
men ta
ĠD a
Ġz wiÄħza
Ġn p
Ġ ...
Ġk rÃ³
âĢĿ ,
Ġtrze ba
Ġz go
Ġza sa
ĠPol sce
Ġlo ka
Ġdo mu
Ġby ÅĤy
ĠJ ak
Â Ĥ
ch ÄĻ
Ġd ni
o d
Ġch a
Ġn r
Ġpo nad
fi ka
Ġni m
ĠczÄĻ ÅĽci
o k
Ġsy tua
te l
Ġw s
Ġp ÅĤa
Ġsk Ã³
Ġlu dzi
Ġsamo cho
Ġte mu
ÅĤ owa
Ġpo nie
Ġn owo
by wa
Ġcza sie
da ÅĦ
Ġk lien
Ġob ie
ĠÅĽwia t
Ġwa Å¼
b ia
ĠczÄĻ sto
k cji
d ne
Ġna z
Ġ |
Ġu ro
s kona
ko ÅĦ
Ġspra wie
ch i
Ġprze ciw
Ġcze r
n ta
czy na
noÅĽci Äħ
Ġszcze gÃ³l
w w
c ki
Å¼ li
Ġt ran
sta wie
Ġbez pie
Ġje dy
Ġz do
n ka
d ÅĤ
Ġ nu
Ġpy ta
ĠuÅ¼y tk
Ġwy po
bar dziej
c k
ĠT wo
l noÅĽÄĩ
wiÄħ z
Ġog ro
Ġda nych
Ġu da
Ġh a
ÅĤo ÅĽÄĩ
czo ne
Ġbu d
ku r
st Ã³w
ch e
mie r
W y
v e
Ġ #
ÅĦst wo
Ġsa m
Ġce lu
Ġt rzy
ĠksiÄħ Å¼
o s
Ġg ÅĤo
Å¼y Äĩ
Ġte raz
Ġm niej
ĠNa j
Ġw ÅĤo
ce nia
Ġw ska
Ġg e
m owy
Ġ: )
Ġwy bra
Ġm ÄĻ
ĠM ie
Ġi de
w er
Ġcie ka
Ġzosta ÅĤ
ĠA le
Ġza ku
Ġdoda tk
nÄĻ trz
Ġza pa
Ġro dza
o ne
st nie
kty w
Ġw pÅĤy
re s
Ġwz glÄĻ
Ġdo ÅĽwiad
wi Äĩ
Ġtema t
p le
Ġwar un
Ġp iÄĻk
f ek
Ġa t
Ġna szej
Ġ1 00
ry wa
ne ra
na li
na j
sze nie
tycz Äħ
l owa
k owi
Ġs pa
Ġ3 0
Ġob owiÄħ
Ġre gu
ÅĦ ski
g ÅĤo
Ġu l
Ġ jÄĻ
po d
ÅĽ niej
Ġdo tyczÄħ
Ġ1 4
owia da
Ġni c
Ġpre zen
Ġd wa
y ba
Ġo soby
iu m
Ġu zy
Ġz de
Ġza in
tycz ne
Ġza mie
Ġpo my
wÃ³ r
Ġucze st
" .
za cja
Ġta kich
ĠJe ÅĽli
Ġt owa
2 0
ĠC i
ĠB y
no si
Ġde cy
ĠktÃ³re go
Ġin ne
Ġhi stor
Ġkil ku
Ġ1 1
k tÃ³
ra ch
s ja
cj ona
ĠM e
czy ch
Ġdo ku
Ġna da
Ġna praw
Ġ1 6
Ġ cu
Ġmo de
ĠRo z
Ġb e
Ġnaj bardziej
te dy
Ġpo ko
Ġo t
ĠM u
d er
cz ka
Ġko rzysta
z m
ĠP i
Ġc iÄĻ
Ġcha rak
s pe
Ġra mach
st i
Ġta ki
i r
cze ÅĽniej
Ġcz ÅĤowie
ĠO b
Ġ201 8
jÄħcy m
Ġmu zy
ra ca
Ġa ni
p ia
Ġpa miÄĻ
owa nych
ste ty
- -
ro ni
Ġte re
Ã³ g
cze ÅĦ
Ġw spo
ĠjÄĻ zy
k ra
dzie Äĩ
Ġko mu
k ow
A N
tu je
g na
m ar
Ġmo c
Ġs ÅĤo
D o
u ka
1 9
Ġgo spodar
n ne
Ġi lo
Ġdz ia
3 0
Ġczy m
Ġcz u
Ġk li
jÄħce j
by t
z ja
Ġmiejs c
Ġku l
rÃ³ b
Ġma my
g Äħ
Ġa Å¼
Ġw al
ĠdÅĤu go
Ġdru gie
s kÄħ
Ġjed en
Ġraz em
Ġpoz wala
Ġele men
c iÄĻ
te j
cze niu
ty ka
Ġw sze
ma wia
Ġk ry
mÃ³w ie
pi s
ĠÅ¼y cie
w Äħ
Ġwsp Ã³l
fe ru
nu je
Ġkon ta
ĠPol ski
ĠB u
Ġza j
sty tu
5 0
Ġsta nie
Ġt ÅĤu
lu b
Ġstro nie
Ġfir m
Å ģ
Ġo trzyma
Ġpod ob
tycz nie
by m
Ġp Ã³ÅĤ
Ġz wie
mi ny
cho dzÄħ
Ġdo sta
Ġpod staw
Ġe ner
. ,
co m
O W
Ġo chro
j ona
Ġp Ã³Åº
ĠD e
w nÄĻtrz
Ġza ba
Ġdob re
ko m
Ġn owe
le r
Ġle k
Ġnie go
Ġjako ÅĽci
Ġza le
mie nia
Ġpo ÅĽ
s ek
po l
rÃ³w no
Ġs il
ĠA r
wy Å¼
ct wa
1 2
rze nie
po zy
da Äĩ
Ġswo ich
Ġdla tego
.... ....
Ġku r
Ġsa me
k owe
Ġdo skona
d li
Ġch cia
to miast
Ġdo m
ĠA u
ÅĤ Ã³
ni cy
Ġinforma cji
ĠwspÃ³ÅĤ pra
Ġsz tu
Ġw prowa
mi ni
ÅĤe k
ĠG a
h i
la cji
Ġmie Äĩ
Ġna tura
s or
Ġna stÄĻp
owni kÃ³w
Ġpotrze b
Ġdzie ÅĦ
Ġza wiera
Ġcze go
cz noÅĽci
Ġza rÃ³wno
o ny
mo Å¼li
Ġ ÅĤÄħ
d nych
ko l
ko ÅĽci
Ġ1 7
Ġw er
ku je
ru cho
Ġkla sy
Ġz wiÄħz
Ġg ro
Ġpot ra
Ġin we
Ġpo ÅĤÄħ
Ġb li
ĠJe d
Ġpa ra
1 1
Ġjest e
ĠI I
Ġ1 3
owy mi
Ġna szych
Ġnie j
Ġjest em
Ġp er
ĠB ar
Ġprzed siÄĻ
gi i
ĠS po
Ġli cz
l nÄħ
Ġte ch
czo ny
Ġo zna
n kÃ³w
Ġnapraw dÄĻ
Â Ļ
cyj ny
Ġz u
Ġmiejs ca
p la
ĠN i
ĠZ e
Ġodpowie dni
niej sze
na mi
da nie
ÅĤ ka
ĠC a
Ġry nku
b or
ar d
Ġw raz
ĠC ie
Ġch yba
Ġty pu
Ġsk le
Ġp un
Ġob sÅĤu
Ġbu dy
w ÄĻ
Ġuzy ska
Ġdu Å¼o
t h
Ġmia ÅĤ
dz ÄĻ
ta cji
Ġczy n
pe j
Ġzna le
ta m
jÄħc Äħ
Ġsa my
Ġswo jÄħ
Ġzakre sie
Ġk i
Ġmi nu
Ġdob ry
li ne
Ġwy glÄħda
pi ta
s s
stÄħ pi
g dy
Ġo pie
s jona
Ġpod ej
re w
wÃ³ ch
Ġkon ce
ÅĽ wiet
Ġoko li
Ġcho dzi
ĠmoÅ¼liwo ÅĽÄĩ
ĠmoÅ¼e my
Ġw czeÅĽniej
owa ne
Ġz oba
t noÅĽci
Ġsto su
ĠJ u
p ar
Ġpo zna
P rze
v i
Ġmia sta
l y
Ġst wo
g le
ÅĽ nia
Ġca ÅĤ
ĠDz ie
Ġsto p
ĠN o
Ġb an
to ry
Ġokre ÅĽ
Ġw tedy
Ġd wÃ³ch
Ġk ro
Ġprzy sz
A R
pu lar
ĠrÃ³Å¼ nych
Ġpo za
t ny
wy cza
Ġpo r
Ġprze prowa
Ġte chni
Ġwyko rzysta
pre zen
Ġponie waÅ¼
ĠÅĽwia d
Å ļ
ÅĦ skiego
Ġzosta ÅĤa
Ġw nio
mia r
wa ran
Ġide al
Ġt rwa
ĠS y
Ġ Å¼
sta n
ĠÂ »
Ġwie ku
M a
Ġro k
Ġst ar
Ġkie ru
j o
Ġpoprze z
wyk le
wie k
sz czy
Ġwy jÄħ
Ġmiejs cu
ĠH o
Ġi Å¼
Ġcho Äĩ
Ġ Åº
ry ka
Ġza sto
rzy Äĩ
A T
ra j
Ġo ne
Ġtu taj
wy ch
Ġmy ÅĽ
Ġs kÅĤada
Ġwie m
Ġs ma
k Ã³ÅĤ
w ki
K o
ty ki
Ġwy ÅĤÄħ
Ġb ia
nie nie
czÄĻ ÅĽcie
Ġprze wo
cze ÅĽnie
cie m
Ġi stnie
le n
ĠusÅĤu g
ĠW e
wÃ³ dz
Ġosta tni
le ga
Ġ em
t nych
ÅĽ ni
c kiego
Ġswoje j
p owiada
Ġ ne
Ġmie siÄħ
sp Ã³ÅĤ
S T
Ġod by
Ġszyb ko
ĠP u
Ġna szym
Ġmi ni
Ġm iaÅĤa
an d
t owy
c ka
" ,
ĠS o
Ġs kÅĤa
Ġb iu
Ġb lo
Ġpro stu
logi i
Ġza war
czy ÅĤ
Ġkon kur
Ġla ta
Ġch ÅĤo
Ġw Äħ
Ġza m
Ġnie za
Ġpra wa
dzi ÅĤ
Ġfina ns
kol wiek
nia ch
Ġmieszka ÅĦ
ka cji
Ġtro chÄĻ
Ġprze de
Ġswo im
Ġo grani
je wÃ³dz
d io
cja ch
ĠD u
Ġwz ro
l ia
ĠT ak
Ġob raz
Ġk sztaÅĤ
E R
Ġob ej
ry sty
to gra
d niej
Â ³
Ġzde cy
j cie
Ġt ÄĻ
tycz nych
ĠL a
towa Äĩ
Ġser wi
00 0
Ġcz ÅĤo
Åº dzie
Ġ201 7
bu dowa
ĠS u
P ro
âĢ ĵ
cie Å¼
Ġprzez na
ĠP e
Ġo na
Ġs ka
Ġpro fe
Ġproble m
Ġpierw szy
Ġna szego
Ġu st
Ġme to
ĠDz iÄĻki
Ġu bezpie
Ġjed nym
Ġnaj wiÄĻk
s ÅĤo
Ġ2 5
Ġo siÄħ
ĠS Äħ
wie l
z ne
rzÄħ dza
Ġwy ja
Ġkon tro
ĠkaÅ¼de go
Ġsp rzÄĻ
Ġco raz
Ġpowie rz
pa nia
Ġuwa gÄĻ
Ġu dziaÅĤ
Ġza pro
m er
ĠB i
Ġ5 0
/ /
Ġzain tere
Ġsze ro
czy cie
Ġza mÃ³wie
d ro
bi o
ĠMo Å¼e
Ġdu Å¼y
Ġkom pu
owo ÅĽci
tego r
g nie
pra c
ĠktÃ³ rÄħ
Ġda lej
Ġre kla
Ġpo ra
Ġwie lo
d ra
Ġte m
Ġf ak
ta Äĩ
Ġwypo sa
Ġprze strze
Ġza koÅĦ
w ca
Ġ Ð
ÅĤ ki
ĠpoczÄħ tku
pie ro
s owanie
Ġp sy
ce go
ĠS p
Ġza ÅĤo
f er
g Ã³w
ce nie
men tu
fe ren
ĠmoÅ¼liwo ÅĽci
Ġo pa
Ġ ;
Ġpra wo
ktu al
Ġa ktyw
ĠSz ko
sa ch
Ġ art
Ġpo m
Ġroz wo
ĠCh o
ÅĤa t
Ġg ry
Ġw ÄĻ
ty m
Ġwia domo
Ġe fek
Ġ2 4
Ġze spo
la n
Ġwy bo
Ġza u
ĠS e
Ġprzy ja
Åº Äĩ
t tp
Ġla tach
la z
twa rza
Ġrze czy
Ġte k
Ġtech no
s owania
Ġk lu
Ġoko ÅĤo
m ÄĻ
I A
Ġ19 9
j ny
Ġpo ka
ĠÅĽwie cie
Ġpi sa
ĠdziaÅĤa nia
Ġkto ÅĽ
Ġda w
t owe
ĠP re
ĠA n
Ġzapew nia
wi du
w czy
ĠW szyst
: //
Ġc m
Ġca ÅĤy
W i
ob ie
ĠprzedsiÄĻ bior
ct wo
Ġprzedsta wi
cze k
Ġproje kt
w z
ĠF i
ĠpÃ³Åº niej
Ġz re
1 5
dÅĤu g
Ġarty ku
prasza my
Ġcz ar
Ġwy ra
we go
we j
Ġp iÄĻ
ra cji
Ġspecja li
ra mi
Ġznaj duje
Ġzd jÄĻ
ĠO r
Ġty tu
Ġce nt
ma n
Ġko s
J a
Ġs ek
pi sy
owa ÅĤ
tu r
da ch
Ġna sze
m nia
Ġcze ka
Ġzrobi Äĩ
E N
Ġsz uka
ni c
Ġpew no
p ÄĻ
ĠB e
O N
dzie n
ĠkaÅ¼dy m
ĠciÄĻ Å¼
Ġwsze l
ow u
ĠA l
ĠczÄĻ ÅĽÄĩ
dzia ÅĤu
Ġproje ktu
Å¼ czy
c ÅĤa
Ġznaj dzie
Ġsie ci
sz cz
ĠN r
Ġwyko ny
b er
Ġtere nie
ko ÅĽÄĩ
ĠwiÄĻk szo
k owych
Ġot war
Ġku pi
Ġ201 6
Ġnie ktÃ³
Ġe g
ga n
p iÄĻ
cyj nego
Ġkra j
to m
Ġbu dow
Ġle p
Ġd wu
na r
Ġwarto ÅĽci
f ia
s ÅĤy
s en
Ġsku te
Ġno r
gra m
1 8
Ġprzy kÅĤad
Ġty le
mo ÅĽci
ĠC en
Ġwido czny
ĠF a
Ġwo dy
M o
z mu
Ġza d
âĢ Ļ
Ä¹ Åº
siÄĻ cy
Ġkra ju
Ġin dy
Ġp art
Ġog ÅĤo
Ġpomo c
Ġznaj du
Ġu zna
Ġt rak
Ġdzi ÅĽ
Ġwy mia
Ġtra dy
Ġna tomiast
Ġob ro
Ġjedy nie
tk owo
z dy
owie m
Ġbezpie cze
ĠÅĽwia ta
Ġprze j
Ġu li
Ġza log
szy scy
ta l
Ġz wiÄĻk
Ġd owo
Ġg Ã³
Å¼o ne
ĠM ia
ĠobowiÄħ z
O R
T o
Ġrze cz
ĠT u
li nk
Ġsamy m
ĠPo la
Ġwy star
ce p
ĠÅĽrod owi
ni wer
zy den
Ġna pisa
t na
sz czÄĻ
sa mi
l d
stru k
Ġw ra
Ġwyko rzy
j nie
Ġw rze
Ġd ie
sÅĤa w
Ġin tere
Ġi sto
czo nych
ow nika
gi na
dzo ne
ĠmoÅ¼ li
cyj nej
c kie
Ġkre dy
Ġzosta ÅĤy
Ġspe ÅĤ
P a
Ġg ÅĤ
ĠdziaÅĤa lnoÅĽci
czo na
li Äĩ
Ġim pre
Ġprzy j
Ġi le
Ġpod stawie
D z
ĠG dy
to rÃ³w
Ġroz wi
su je
pa ra
Ġwy nika
Ġo feru
pie r
g ar
li ka
Ġat rak
Ġrodza ju
lo ny
Ġu moÅ¼li
Å¼o ny
d owy
ĠC e
Ġ +
nÄħ ÅĤ
ni ku
Ġpo pular
g niÄĻ
Ġpomo cÄħ
Ġd niu
Ġinforma cje
liwo ÅĽci
Ġle piej
ĠÅĽ wiÄĻ
wa n
s h
Ġu czni
Ġn owych
r tu
Ġog Ã³l
Ġo ce
ĠK ie
po ÅĽ
widu al
ĠL o
sia j
Ġk ier
K a
Ġza ÅĽ
la ch
Ġspo rt
j ne
ow nik
Ġpomo cy
mini stra
Ġpo ÅĤo
Ġin nymi
owa ny
cj on
ĠwzglÄĻ du
Ġprodu ktÃ³w
no mi
Ġdo ÅĽÄĩ
Ġzd jÄĻcia
ca mi
lo ne
Å¼ na
men tÃ³w
we st
men ty
Ġinwe sty
ĠPrze d
Ġogro m
ĠJed nak
rÃ³ j
ca m
bie ga
Ġob u
nie n
Ġpotra fi
Ġzalog owanych
mo c
Ġg waran
t rza
ð Ł
wia jÄħ
Ġcho ro
ow ski
la mi
Ġon line
le t
Ġu dzie
Ġko le
k owy
szu ki
Ġin te
Ġusta wy
O d
Ġe ko
d r
Ġo czy
2 00
gie l
n dy
Ġzosta nie
Ġsytua cji
Ġprodu k
bie g
Ġni gdy
Ġma sz
ch wa
p rzy
Ġprofe sjona
wa ny
Ġprzed mio
ĠmoÅ¼e sz
n tÃ³w
Ġzmia ny
ĠâĢ Ķ
Ġz byt
Ġzdo by
ĠIn ter
Ġna dzie
Ġpowo du
Ġfi zy
Ã³g ÅĤ
ÅĦ skiej
Ġpraw dzi
Ġs wÃ³j
Ġpoz wo
Ġu su
Ġodpowie dzia
k sy
d owanie
Ġo cze
Ġnowo czes
k ce
Ġzgo dnie
ma t
C Z
nie sie
Åºdzie r
Ġ x
Ġ201 5
ĠTwo je
Ġli sto
Ġszcze g
Ġs en
Ġd rew
ry ch
Ġprzy jem
2 4
s owaÄĩ
I N
Ġ ?
ĠSz cze
ro cÅĤa
Ġswoje go
n ny
nio ne
l ka
ĠusÅĤu gi
Ġprzy zna
Ġdru gi
i Äħ
Â ħ
Ġter mi
Ġjedno st
Ġindy widual
Ġdo kona
Ġz im
Ġ201 4
1 6
Ġpo stÄĻp
Ġorgani za
Ġd wie
Ġo pera
1 4
ĠU S
ĠzwiÄħz ku
na rod
Ð ¾
n nych
Ġpo tem
dze ÅĦ
ĠR y
ob ec
Ġza czyna
Ġle cz
d na
v a
ĠP R
wia m
Ġprzy czy
wie nia
Ġka tegor
un da
je cha
ti on
Ġjed nej
Ġwy j
Ġznale ÅºÄĩ
cia Å¼
ĠmÄĻ Å¼czy
ĠDo da
dzia ÅĤa
Ġpo pra
Ġuwa Å¼a
t kÃ³w
ce m
owa niu
z w
Ġsob Äħ
Ġw ÅĽrÃ³d
Ġgo dz
Ġp rÃ³
ĠR ze
ĠS er
go dnie
sy w
Ġraz ie
Ġh ttp
Ġs ez
Ġt wa
C H
Ġz y
szy Äĩ
Ġb rak
Ġlu dzie
ĠkoÅĦ cu
Ġek sp
v er
Ġce l
Ġch ÄĻ
Ġuczest ni
ÅĦ ska
g no
g ry
ĠH i
Ġ2 2
Ġoka za
Ġraz y
ĠN e
ĠPo zna
Ġozna cza
Ġpo Å¼y
Ġno c
Ġta kiego
Ġbez poÅĽ
Ġprze my
Ġwe j
wa l
ĠF ran
âĢ ŀ
Ġpa Åºdzier
ma l
Ġje Å¼eli
k rÄĻ
Ġco dzien
ĠâĢ ľ
ĠskÃ³ ry
J ak
ĠcaÅĤ kowi
Ġe ta
Ġin sta
Äħ dÅº
ĠÅĽ mier
dzie Å¼
ÅĽ mie
Ġtowa rzy
wy m
Ġdzie n
Ġo czywiÅĽcie
Ġdo star
Ġpierw sze
peÅĤ nie
Ġkolo r
li n
tycz ny
Ġa pli
pie ra
Ġd ar
Ġwy mie
Ġda ne
Ġ owo
Ġnaj wyÅ¼
m pa
ko n
Ġle ka
cy m
Ġk siÄĻ
Ġreali zacji
da mi
le piej
Ġod wie
Ġprogra m
Ġpot wier
Ġfo togra
ĠD y
Ġu mowy
Ġme dy
ĠA nd
Ġposta ci
1 3
un du
rÃ³ ci
Ġroz u
ĠszczegÃ³l nie
c kiej
gie m
ĠF o
Ġsta ra
ĠciÄħ gu
Ġa nali
Ġnaj waÅ¼
Ġau tor
ĠRa dy
je kt
q u
Ã³ z
Ġszko ÅĤy
Ġgdy Å¼
no s
t rÃ³w
men cie
Ġpra wie
ry gina
Ġdob ra
Po d
Ġjed nego
ĠM y
Ġe uro
Ġnie rucho
Ġwy na
Ġdo piero
si ÅĤ
ĠP la
Ġna le
Ġpra k
sto ÅĽci
Ġdziec ka
cze niem
Ġm Ã³gÅĤ
ĠG miny
wycza j
st w
Ġkomu nika
z er
Ġsta nd
Ġsprzeda Å¼y
Ġb owiem
Ġfir ma
Ġkos me
ĠKa Å¼
a d
Ġst wier
Ġd ia
mu la
ĠP O
Ġszko le
ĠR u
Ġfor ma
Ġosob i
Ð °
to n
Ġbi zne
Ġpow ia
ĠkaÅ¼de j
Ġma ja
Ġczas em
czy m
rze j
ĠP an
sze ch
towa nia
Ġna sz
Ġprac ÄĻ
t owi
Ġprzy po
Ã ª
ĠÅĤa t
ĠPo li
Ġjaki ÅĽ
pu szcza
R o
Ġdo ty
Ġkon su
mo n
rze ÅĦ
Ġczy ta
Ġza bezpie
Ġdrugie j
Ġnie co
Ġpowi nien
1 7
ĠPol ska
ÅĤe ÅĽ
z jÄĻ
Ġklien tÃ³w
r wi
f on
Ġra czej
Ġja kim
Ġofer ty
Ġ4 0
Ġ ðŁ
s pi
Ġ Äĩ
ĠÅĽ redni
Ġsystem u
b Ã³r
Ġ Y
Å¼ d
Ġstro n
Ġro bo
Ġgru py
Ġwy ro
kÅĤa du
Ġpo mie
li k
ÅĦst w
st ry
Ġp rywa
z io
Ġrozwo ju
ĠkrÃ³ t
ĠÅĽ cia
Ġpra cu
Ġda je
Ġb ran
Ġtran spo
zy wa
Ġta ka
cz noÅĽÄĩ
szcze nia
n ce
ÅĽci o
Ġs ÅĤy
k sztaÅĤ
pu bli
ĠEuro pej
Å »
or gani
Ġminu t
li zacji
Ġk wo
Ġprodu cen
kowa ne
Ġchwi li
ĠâĢ ¢
Ġta kim
Ġe du
ĠMi ni
ĠÅ¼y ciu
Ġkonie c
ĠDla tego
u t
ĠJ o
ĠK ra
Ġpowierz chni
Ġnau czycie
cyj na
Ġbo ga
Ġs ier
Ġtem pera
Ġp owy
2 5
sty czne
Ġk wa
Ġzawo d
Ġoka zji
Ġpo rÃ³w
d ny
z ÄĻ
ÅĤa szcza
Ġsk lep
Ġt ry
ĠJe Å¼eli
k niÄĻ
Ã ĵ
Ġza jÄĻ
w szy
rzÄħ du
Ġumie jÄĻ
l no
ĠÅļ wiÄĻ
Ġpro mo
Ġhistor ii
Ġniez bÄĻ
A M
Ġfil m
fi i
ĠG e
Ġ2 3
o nu
miÄĻ dzy
ma ty
Ð µ
ni j
u l
Ġp le
Ġro ÅĽli
Ġzmie nia
Ã³ Å¼
Ġ >
Ġpoja wi
i s
Ġsp Ã³ÅĤ
Ġm m
Ġod da
Ġs ÅĤowa
k owej
ni ca
rÃ³ t
Ġa b
ÅĽcia ch
niej szych
kÅĤa dnie
cz nik
Ġdu Å¼e
d owaÄĩ
Ġdzie dzi
ĠÅĽrod kÃ³w
la m
Ġjak Äħ
Ġ6 0
Ġwrze ÅĽnia
ĠG ra
Ġop ar
Ġspos ob
ciÄħ ga
sz ki
w nÄħ
cie l
cie li
Ġs ÅĤa
Ġre gi
li i
Ġjed nÄħ
ĠkoÅĦ ca
ĠÅ» y
Ġnie po
Ġtele fo
Ġza rzÄħdza
Ġsk rzy
owe r
Ġsie dzi
C o
i Äĩ
ĠP ar
mi sji
Ġw ww
Ġb ÄħdÅº
tru m
C zy
b r
ĠP io
sowa ne
ĠH a
Ġprodu kty
Ġma ÅĤo
ĠK rak
Ġw szyscy
Ġan ty
b ro
t nej
do stÄĻp
Ġosob a
dni kÃ³w
la nd
Ġsu b
Ġwy pad
dze niu
Ġokre s
ĠczÅĤowie ka
Ġelekt roni
rÃ³ cz
Ä Ĥ
Ġmog ÄĻ
Ġwyso koÅĽci
Ġk m
ĠuÅ¼y wa
tro na
Ġkon kre
g ÅĤa
S Z
Ġelekt ry
ĠWarsza wie
m or
Ġsu kce
lko ho
zu jÄħ
me ryka
Ġh and
b Äħ
Ġtrak cie
Ġsp ÄĻ
re sz
Ġspo ko
cha ni
Ġda l
Ġop ÅĤa
Ġm l
Ġs tycz
Ġna rzÄĻ
szcze gÃ³l
Ġosta t
Ġprodu kcji
A L
Ġna stÄĻpu
Ġmar ki
Ġu two
Ġb io
Ġnaj mniej
Ġstro nÄĻ
lo na
ĠurzÄħ dzenia
9 9
Ġnie u
Ġk west
Ġdziec ko
Ġjedno czeÅĽnie
wi dÅĤ
Ġt ar
Ġe fe
Ġni Äħ
l ta
Ġsko rzysta
Ġma szy
Ġba dania
ch owa
pie nia
ĠzwiÄħza ne
t owych
ĠP ier
wie nie
Ġst ru
Ġp owa
ro m
Ġre je
o te
Ġmo im
Ġpa cje
Ġwsp ar
tycz nej
Ġznaj o
Ġ201 3
Ġlisto pada
Ġobec nie
Ġk wiet
zowa ne
P rzy
Ġokre sie
Ġzna laz
Ġca ÅĤej
Ġrozpo czÄĻ
Ġprogra mu
ĠWarsza wa
zu mie
u s
Ġws pania
Ġg ÅĤÄĻ
ĠrÃ³Å¼ ne
Ġrze czywi
ĠS to
Ġli p
pa ch
T e
Ġta kiej
tk ÄĻ
Ġk Äħ
201 8
Ġ2 1
ob ra
re a
n owie
ĠÅĽ w
I n
lo r
A C
Ġcharak tery
Je ÅĽli
ĠB ia
Ġar chi
peÅĤ nia
Ġwy Å¼
ĠpoÅĽ wiÄĻ
ĠW rocÅĤa
l ie
? ?
ĠpaÅºdzier nika
l ki
to rem
Ġod powiada
Ġo rygina
Ġce ny
ro bi
cja mi
cie j
, ,
Ġpo miÄĻdzy
Ġ â
ĠÅ¼a d
Ġprowa dzi
Ġza sta
g h
we k
Ġg u
Ġczer wca
Ġi tp
za cjÄĻ
ow ÄĻ
Ġja s
ĠJe go
czÄĻÅĽcie j
Ġt wÃ³r
Ġn owy
Ġza tru
Ġd rz
ÄĤ ÅĤ
Ġocze ki
wy ciÄĻ
sz ar
je sz
ĠwaÅ¼ ne
Ġzna cznie
ĠS k
c kich
do pod
ro n
ro s
Ġs kÅĤad
Ġg rze
Ġsa ma
ĠG ru
Ġtra fi
mo s
d noÅĽci
ĠK ar
ĠB ie
Ġpo maga
Ġprze kona
ĠwyÅĤÄħ cznie
Ġpra kty
ĠJ ez
ĠZ ie
Ġwska za
ĠksiÄħÅ¼ ki
ĠnastÄĻp nie
Ġpotrze bu
Ġnie stety
Ġst re
Ġd rze
Ġt zw
Ġ2 7
Ġbo ha
ĠPro du
4 0
6 0
Ġgra ni
Ġbudow la
Â ±
Ġwar szta
Ġwy stÄĻpu
Ġz gÅĤo
st rzy
Ġpole ga
dze niem
Ġprac ownikÃ³w
t nego
wi o
t kiem
Ġu trzyma
Ġpyta nie
ĠWar to
O D
Â Ľ
Ġcia ÅĤa
sy te
Ġjed na
Ġk rzy
ta k
Ġprze cieÅ¼
ĠC za
ĠSa mo
n na
Ġrozwi ja
Ġo to
Ġk wia
niwer syte
Ġproje k
ĠumoÅ¼li wia
T a
Ġ v
Ġre la
Ġwe dÅĤug
Ġpierw szej
Ġwy sy
czy ÅĤa
Ġa ktual
Ġza czÄĻ
Ġsier p
Ġf e
ni n
ktu ry
Ġmy ÅĽli
ĠCen trum
ĠCz ÄĻ
Ġpo ni
z owaÄĩ
Ġmi mo
Ġwi zy
Ġrodzi ny
ĠÄĩ wi
Ġre prezen
Ġpro pozy
r ty
Ġty p
Ġde lika
ĠB ez
Ġlu bi
Ġza leÅ¼
Ġh u
Ġwy sta
ĠÅº rÃ³d
Ġs ce
Ġjakie ÅĽ
ĠF e
Ġlu dz
ĠwspÃ³ÅĤpra cy
Ġgo ÅĽci
Ġem o
st r
s Äħ
2 2
Ġ201 2
ÅĽ le
Ġa lkoho
le w
ni kiem
nio ny
ĠbezpoÅĽ redni
m m
Ġnie mie
Ġg Ã³r
ĠgÅĤÃ³w nie
Ġpozio m
Ġt Äħ
Ġ l
ĠpeÅĤ ni
Ġ2 8
Ġpo czu
z je
ta li
Ġjeste ÅĽmy
mi i
b ry
ciÄħ g
Ġpol skich
ga ch
ĠCie bie
Ġry zy
Ġty s
Ġe dy
dzo ny
cyj nym
Ġp li
Ġd r
ĠÅĤa two
j Ã³w
Ġwe wnÄĻtrz
wnÄħ trz
ĠI II
s owe
ru sza
ĠdotyczÄħ ce
lu s
R e
ĠzamÃ³wie nia
Ġdo kÅĤadnie
Ġch cÄħ
Ð ¸
Ġt he
ch Ã³d
. )
Ġin nego
Ġpod kre
Ġf an
da m
Ġm Äħ
sto ry
glÄħ d
ÅĽ rod
ĠwyjÄħ tk
ciÄħ Å¼
Ġzau wa
ni m
g rze
ĠK rzy
Ġza b
Ġpozio mie
Ġad res
Ġfor mie
ĠtÅĤu ma
Ġz ob
Ġzu peÅĤnie
Ġkolej ne
Ġnaj lepiej
wo ÅĤa
bi li
ĠS t
Ġrozu mie
E D
Ġkonta kt
ro z
_ _
Ġty god
ĠP K
Ġnierucho moÅĽci
S K
Ġze wnÄĻtrz
Ã³ le
ĠÅļ wia
Ġpo dzie
sie j
no c
ĠbÄĻdzie my
Ġin stytu
Ġpowin na
Ġwy nosi
Ġz ni
Ġpsy cho
Ġnada l
Ġa ku
Ġdzi siaj
Ġn owego
ĠmieszkaÅĦ cÃ³w
Ġb ÅĤÄĻ
Ġz organi
ĠA d
Ġcho ciaÅ¼
Ġd Åº
Ġwy zna
ĠDz i
Ġzaintere sowa
Ġod kry
z du
l owe
fi na
Ġpozy tyw
Ġ2 6
ĠP ie
Ġcze mu
Ġw obec
sz ÅĤo
Ġko rzy
ĠW ÅĤa
owni cy
Ġdru Å¼y
ĠokreÅĽ lo
Ġener gii
ke t
pi su
Å¼ ona
Ġmi li
ĠTy m
na czej
szcze nie
Ġo prac
na wia
Ġilo ÅĽÄĩ
Ġs ÅĤ
Ġwie lko
wa ch
Ġw ÅĤÄħ
ĠsÅĤu cha
dzie Å¼y
Ġwo jewÃ³dz
ow nie
Ġce n
t nym
Ġkobie t
Ġby li
j skiej
Ġdzie wczy
ce r
M i
k owania
Ġka na
Ġni mi
ce nt
Ġkwiet nia
Ġd owie
Ġz le
ja w
cho dy
Ġtele wi
Ġilo ÅĽci
Ġwy biera
Ġpie niÄĻ
ob nie
Ġwy gra
t nÄħ
pi sÃ³w
b el
Ġin nym
Ġniez wykle
Ġzosta ÅĤo
Ġog lÄħ
Ġprze ka
me k
ÅĦ czy
Ġpo szczegÃ³l
Ġra do
tu al
Ġ rzu
ci n
li cza
Ġkompu ter
k owaÄĩ
Ġ ÅĤÃ³
Ġza o
Äħ c
ĠBar dzo
Ġjako ÅĽÄĩ
Ġcie p
lo n
Ġspotka nia
Ġin ten
Ġtrze ch
Ġmateria ÅĤÃ³w
Ġ2 9
wi cz
Ġzaku p
ch Ã³w
owa na
ĠPa ÅĦstwa
Ġkategor ii
Ġza bu
k lu
t owej
Ġca ÅĤego
ga Å¼
rÃ³ ciÄĩ
Ġpew noÅĽciÄħ
z ien
wa niu
m p
Ġmoje j
Ġpie niÄħ
Ġnie wiel
Ġpotrze by
Ġistnie je
b Ã³w
Ġpowin no
log ia
Ġpo ten
Ġdro dze
ja zd
Ġza gro
k owego
Å¼y ÅĤ
Ġspra wia
Ġzmia n
Ġmog li
Ġza tem
Ġzw ÅĤaszcza
Ġnor ma
Ġm Ã³j
sze dÅĤ
w ÅĤa
ÅĦ skie
Ġprodu ktu
Ġuda ÅĤo
Ġpo go
Ġnaj bli
Ġu za
Ġbezpiecze ÅĦstwa
........ ........
Ġczer wo
kie rowa
Ġwy cie
Ġw nÄĻ
Ġchcia ÅĤ
Ġk rwi
Ġkom ple
z n
Ġob ser
Ġgodzi n
ĠÅĽ mie
Ġuczni Ã³w
Ã³w czas
tycz nego
Ġp ia
Ġbud Å¼e
Ġku ch
ow skiego
8 0
ta n
Ġmar ca
Ġkom for
dzia ÅĤem
Ġak cji
Ġko lek
Ġod bÄĻ
Ġgru dnia
Ġwyso kiej
Ġz mniej
ka Äĩ
ÅĦ skich
ĠS i
Ġpod mio
naj mniej
towa nie
Ġwie dzy
s jÄĻ
t le
Na j
Ġza k
Ġstanowi Äħ
ĠMa m
iÄĻ ku
Ä ĺ
Ġdodatk owo
Ġorgani zacji
Ġwi daÄĩ
Ġnie o
ch owy
ĠMo Å¼na
Ġdro gi
si la
Ġprowa dzÄħ
Ġbudy nku
Å¼e k
la cja
Ġcent rum
kro tnie
wz glÄĻ
Ġsp owo
Ġubezpie czenia
-- --
bli ote
Ġp r
ĠKie dy
f ie
fika cji
Ġan giel
Ġpie lÄĻ
ĠrozwiÄħza nia
liwo ÅĽÄĩ
Ġpierw szym
Ġmie siÄĻcy
Ġpo kaza
Ã³ c
cz kÄĻ
m nie
Ġf ar
Ġochro ny
towa ne
ĠbÄĻ dÄĻ
Ġwyda je
Ġkolej ny
Ġtwo rzy
ĠC ze
2 3
Ġpi Äħ
l l
Ġwykorzy sty
ĠmoÅ¼li we
Ġnie do
ĠP L
Ġtak Äħ
Ġodpowie dnie
dzo nych
ĠG ÅĤÃ³w
Ġad ministra
Ġs kar
ch em
Ġdy sku
Ġw rÄĻ
ni ÅĤ
domo ÅĽci
z Ã³w
C h
Ġp rÃ³b
Ġg i
Ġze staw
Ġdy spo
p ow
Ġprze czy
Ġpod rÃ³Å¼
Ġb ru
Ġna g
Ġp io
Ġzob owiÄħ
sa m
Ġefe kt
Ñ Ĥ
Ġza raz
dni k
Ġpo mi
Ġdo ra
Ġni kt
Ġzad owo
Ġprze wi
u sz
m Äħ
g er
Ġsame go
m bo
ÅĤa ch
ci o
W ie
ĠKu l
: )
Ġsta n
ĠwpÅĤy w
Ġwer sji
Ġdrz wi
Ġwy rÃ³Å¼
je dno
Â ĩ
Ġpo kry
Ġuro czy
Ġpla n
strze ga
Ġmie sza
k Ã³j
Ġmie li
g ia
S z
Ġ )
ĠX X
Ġkon feren
n nego
Ġp kt
Ġjak by
Ġza bie
Wi tam
ĠsÅĤu Å¼
ĠdostÄĻp ne
Ġza leÅ¼y
ĠNie m
Ġprzy jÄĻ
Ġzapo zna
Ġb la
Ġspo ÅĽrÃ³d
tycz na
Ġ; )
Ġu praw
Ġnaj now
f y
cz no
Ġmo nta
c kim
ĠmÅĤo dy
ĠobsÅĤu gi
Ġstu den
skie m
Ġpod ÅĤo
si Äĩ
Ġza czÄħ
Ġraz u
Ġin for
Ġzdr owia
Ġza py
rzÄĻ du
N E
ni ng
Ġpowie dziaÅĤ
Ġod ci
ĠT en
Ġka ta
ta cja
Ġkom p
Ġlip ca
sta u
g re
f t
Ġko menta
Ġca ÅĤym
ĠNa rod
Ġtu r
d ko
N I
Ġnadzie jÄĻ
ĠWa s
Ġosob owych
O L
ĠG daÅĦ
cze ni
ka li
Ġwie r
Ġi naczej
Ġgra fi
sze k
cz nymi
we ÅĤ
Ġme chani
Ġod bywa
ĠK lien
Ġte ra
S P
Ġstycz nia
mi Äħ
ĠB an
Ġ Å¼o
Ġnajbli Å¼
ĠW ia
st rowa
Ġprze twarza
ÅĽwiet la
jÄħcy mi
Ä Ħ
ĠP or
ga zy
Ġsierp nia
Ġpowin ny
nÄĻ ÅĤa
Ġz bior
Ġza da
Ġtrzy ma
Åº nie
ĠD ob
ĠH e
ĠC iÄĻ
Ġd wo
ĠzwiÄħza nych
Ġp rÄĻ
Ġcie r
Ġja ka
Ġz ja
g la
Ġinter ne
ia n
ow cÃ³w
Ġtu rysty
Ġmo mencie
Ġzosta Äĩ
pra wy
Ġ201 1
Ð ½
Ġpa n
jÄħ Äĩ
Ġw ciÄħÅ¼
ĠNie stety
Ġposta nowi
mu jÄħ
ĠwiÄĻkszo ÅĽÄĩ
k li
U R
Ġwy bÃ³r
sy j
Ġzoba czyÄĩ
] .
ĠO p
sty cznych
ÅĤo by
Ġgodzi ny
Ġkobie ty
niej szy
Ġpowie dzieÄĩ
Ġpoja wia
Ġp ÄĻ
Ġspotka nie
Ġza prasza
Ġspraw dza
nio m
Ġpo cz
Ġmu szÄħ
Ġat mos
st rz
d owe
ĠU niwersyte
Ġna szÄħ
p lo
kowa ny
Ġho te
Ġmoc no
Ġpo now
rze Äĩ
Ġs ia
k owanie
Ġkon ku
sty ch
Ġprodu kt
O M
A D
Ġru chu
Ġin ny
a le
Ġtran s
ĠIn forma
Ġu cz
4 5
Ġz wyciÄĻ
Å¼ ar
Ġpro c
Ġproble my
ĠÅļ lÄħ
ĠumiejÄĻ tnoÅĽci
Ġmode l
Ġwybra Äĩ
ĠurzÄħ dzeÅĦ
ĠporÃ³w na
Ġu szko
Ġauto ma
Ġfunk cjona
Ġpre zyden
Ġ ÅĤo
Ġja kiego
j my
wa na
st wie
Ġdy rek
Ġpra widÅĤ
Ġod e
ksy ma
ca my
ĠdziaÅĤa ÅĦ
Ġu cie
Ġser ii
Ġgdy by
Ġna gro
le tni
l nia
Ġsz czÄĻ
ĠPa ni
sz ty
Ġwy z
w ka
im na
ĠspeÅĤ nia
czy li
Ġpo je
Ġwarun ki
z em
leg ÅĤoÅĽci
Ġsu per
Ġpa pie
Ġml n
ct wem
Ġchce sz
Ġszczeg Ã³ÅĤ
Ġnie dzie
Ġu zu
* *
Ġ8 0
Ġce na
Ġwystar czy
ja ch
ĠS zy
Ġca ÅĤÄħ
ĠP owia
Ġznajdu jÄħ
Ġtre ÅĽci
Ġso li
Ġo fi
w ski
ĠMi cha
ĠâĢ ¦
Ġko mi
Ġodpowie dzi
Ġs ter
Ġkiedy ÅĽ
ĠmiÄĻdzy narod
iÄĻ cej
Ġprze kaza
rze m
towa rzy
Ġna mi
dzie ÅĦ
Ġnaj czÄĻÅĽciej
Ġba daÅĦ
ÅĽci u
Ġlo tni
Ġedu ka
Ġop ro
Ġkieru nku
Ġzakre su
de cznie
ĠNa u
dzi ÅĤa
Ġprze sz
Ġwykona nia
Ġk art
Ġd ra
Ġo powie
Ġoferu je
Ġb ro
ĠS P
I T
m owe
Ġkupi Äĩ
Ġdo j
r ki
Ġdzi siej
dni o
ĠW ÅĤo
2 7
ĠWie l
Ġwo j
pier w
czy my
ÅĽci Äĩ
Ġws piera
ni cja
owo ÅĽÄĩ
ci ÅĤ
Ġsty lu
ĠWszyst kie
Ġwybo ru
Ġnie mal
Ġdo pa
s ob
Ġmu sia
Ġza a
Ġob a
Ġpew nie
Ġo j
Ġdoskona le
ĠO czywiÅĽcie
ĠdziaÅĤa lnoÅĽÄĩ
Ġprzed szko
s ÄĻ
Ġpra ca
ĠS ie
de ÅĤ
z wyczaj
ĠwÅĤo sÃ³w
ĠdÅĤu Å¼
wa nych
2 6
Ġz wyk
!! !
Ġpowa Å¼
Ġko cha
ĠogÅĤo szenia
Ġdla czego
Ġo po
z ny
ĠF or
mie ni
ry ta
Ġsprzeda Å¼
Ġzw ro
Ġu my
Ġw in
Ġo ni
k rzy
o l
st ki
Ġwy god
Ġgru p
ĠJ an
Ġtru dno
ĠwspÃ³ÅĤ czes
Ġza dania
Ġjeste ÅĽ
li na
Ġza jÄĻcia
ĠpieniÄħ dze
Ġwy raz
nio nych
Å¼ ka
ĠMia sta
Ġd em
Ġli tera
n kiem
wo ÅĽci
ĠciÄħ g
Ġkole i
U S
ĠPo nad
ĠÅģ a
ĠWo jewÃ³dz
Ġprzy da
Ġfunk cjon
Ġa nd
Ñ Ģ
Ġu ÅĤat
Ġprzedsta wia
s kÃ³w
Ġpoten cja
Ġwz iÄĻ
de l
ĠR ob
ĠPa ÅĦstwo
wa ÅĤa
Ġofer cie
Ġpod oba
Ġ en
Ġ Ġ
Ġt ka
ww w
nia mi
wa jÄħ
âĢ¦ ]
Ġod por
re go
Ġpozwo li
Ġmi kro
le ko
Ġnu me
to rzy
s ma
Ġ201 0
ĠBo ga
owa rzy
Ġelemen tÃ³w
Ñ ģ
Ġinternet owej
Ġpa ÅĦstwa
Ġmi ÅĤo
k ru
Ġo trzy
do m
k s
Ġog Ã³le
Ġsto sowa
Ġob ra
Ġpra ce
Ġfa kt
Ġku p
Ġme dia
cyj nÄħ
ze um
Ġfo rum
ca le
Ġko go
no szÄħ
w ne
Ġwi Äħ
ir ma
ĠPo z
Å¼e ÅĦ
bi ja
ĠTe raz
ĠczÅĤowie k
sz em
Ġmo r
Ġja kich
Ġuwa gi
Ġwykona ne
te rze
Ġz wo
Ġproble mÃ³w
m art
Ġkomp lek
Ġzach ÄĻ
di Ã³w
ĠÅĤa zien
k wi
Ġd ba
ĠpoÅĽ redni
Ġdo sto
ĠW am
Ġad re
ĠÅ¼a dnych
ow ska
Ġhi story
mie nie
ch wy
Ġostatni ch
Ġo rze
ra t
Ġch ro
no k
Ġprzypo mina
le ni
Ġt r
Ġu bra
m owaÄĩ
Ġpo praw
Ġprze sy
ĠzdjÄĻ Äĩ
Ġmiejsc owoÅĽci
Ġpro ste
ĠT rze
Ġbie Å¼Äħ
Ġspra wy
kie r
le s
Ġga tu
Ġklien ta
Ġpraw da
Ġroz wÃ³j
ĠS tu
Ġze spÃ³ÅĤ
Ġnieza leÅ¼
ĠÅĽ wiÄħ
Ġde ko
de o
Ġu lu
Ġsamocho dÃ³w
ÅĦ ca
Ġcz war
Ġmo ja
e t
Ġspo Å¼y
ĠT ra
Ġu czu
Ġdnia ch
Ġob o
Ġku chni
kra i
ĠniektÃ³ rych
ÅĽcia mi
n owaÄĩ
kÄħ d
. :
Ġu dostÄĻp
0 9
ĠT ar
0 5
nu jemy
s owych
pi i
Ġpo sÅĤu
pra wa
Ġod Å¼y
owa ÅĤa
2 1
Ġja zdy
Ġpo ry
Ġsob o
Ġli nii
ka cje
Ġk rÄĻ
ni ce
D la
Ġrobi Äĩ
ĠM iÄĻ
Ġtwa rzy
Ġma gazy
A W
ĠzobowiÄħ za
ĠS pe
Ġkonku ren
d la
ĠgÅĤÄĻ bo
Ġka ndy
Ġu nika
Ġsy ste
t owego
Ġwy bor
2 8
Ġdoty czy
Ġna r
ĠA by
ro dek
dzo na
go dni
tych czas
Ġo two
Ġsamo dzie
Ġw Ã³wczas
Ġnu mer
ĠdziaÅĤa nie
n p
ĠwzglÄĻ dem
wa Å¼a
Ġna by
da k
gu je
O S
Ġzdecy dowanie
Ġch i
tu jÄħ
tk Äħ
Ġchwi lÄĻ
Ġw il
Ġspo ro
d owych
sty m
Ġza grani
s pa
Ġdecy zji
Ġpomy sÅĤ
wi l
Ġu m
Ġch e
Ġpowin ni
ko ÅĤa
Ġpro po
ĠT he
Ġproble mu
s je
Ġz wykle
Å¼e niu
Ġpro f
bi Ã³r
t wÃ³r
Ġka pita
Ġma ÅĤ
o nie
ĠKaÅ¼ dy
sÅĤa wa
Ġzasto sowa
A K
ra cja
Ġ19 8
Ġna rod
ka de
Ġge nera
Ġintere su
s c
Ġelemen ty
ĠM ÅĤo
Ġpol skiej
Ġa meryka
Ġrodzi cÃ³w
Ġbli sko
Ġcie m
ĠP ow
Ġg ar
I S
Ġpro fi
si my
pra wia
ĠodbÄĻ dzie
Ġklu cz
Ġdo cho
Ġmo ich
Ġ =
Ġpo ÅĤu
Ġza pÅĤa
Ġmo cy
Ġh er
Ġza sila
j nych
0 6
wen tual
Ġsz pita
ĠOr gani
Ġroz mia
rzÄħ dzenie
Ġz mar
II I
Ġ y
szy mi
st ka
wa cji
ĠS towarzy
st rza
ĠbezpoÅĽredni o
Ġproce s
Ġwprowa dza
ma il
O T
0 3
dnie nia
Ġsta nu
Åº ni
ÅĽcio ÅĤa
kÅĤa dy
Ġza miast
ĠzaleÅ¼ noÅĽci
Ġsz czÄĻÅĽcie
mu jemy
Ġob ok
zowa ny
Ġu kry
sam owi
ĠzÅĤo tych
Ġosta tnie
nie c
Ġmie ÅĽcie
ĠB ÄĻ
Ġzam kniÄĻ
lie nt
k owo
d ka
A S
ĠS tra
sz to
Ġ ÅĽci
Ġboha ter
pi Äħ
ĠÅĽ cie
Ġta jem
pi na
E G
Ġo pisa
Ġ[ âĢ¦]
or Ã³w
to li
ĠK i
pi Äĩ
ty kÃ³w
0 4
Â ¿
ÅĦ skim
ĠjÄĻzy ka
ÅĤ nie
k le
Ġcy wi
en d
sz pa
l owych
Ġm owa
ĠC y
ĠgÃ³ ry
d owania
Ġn owej
Ġokre ÅĽla
Ġsz la
owa niem
g ne
ĠrozwiÄħza nie
ĠcaÅĤkowi cie
Ġwarto ÅĽÄĩ
Ġprzewo dni
in for
Ġwy niki
Ġo lej
Å¼e niem
sty czny
Ġzasa dy
Ġprze sta
d nym
Ġnajlep sze
to ÅĽci
ĠUS A
Ġu dziaÅĤu
cie la
ty ma
Ġdo ko
ĠV i
ĠK rÃ³
ma c
Ġg wia
Ġob jÄĻ
on Ã³w
le ty
Ġpol skiego
Ð¾ Ð
sta wy
n nej
te lni
Ġkandy da
Ġser ca
f u
Ġszko lenia
Ġwy niku
Ġzespo ÅĤu
Ġpyta nia
ĠU Å¼y
tu rze
Ġsu r
ĠdoÅĽwiad czenie
Ġpa ni
E L
Ġpod rÃ³
Ġma ksyma
ze s
c m
Ġgo rÄħ
Ġu wzglÄĻ
t noÅĽÄĩ
Ġb rz
Ġza kÅĤada
Ġ rza
ra g
ĠS za
Ġ9 0
Ġ ÅĤy
ã ģ
Ġpo szuki
Ġza ga
Ġkosz tÃ³w
Ġmi ÅĤoÅĽci
cie le
L i
Ġt wier
ta nie
ĠgÅĤ owy
ĠwiÄĻkszo ÅĽci
Ġdo staw
st rzo
Ġdro b
Ġmoje go
Ġre stau
ĠG Ã³
an gaÅ¼
Ġza prezen
czy n
z ÅĤ
ĠE l
Ġdostar cza
Ġ7 0
Ġkul tury
Ġa m
E T
lo t
Ġ3 1
Ġob li
Ġze bra
Ġs kierowa
Ġpraw dopod
Ġab so
ÅĤa nia
tycz nym
Ġca ÅĤe
ĠNa stÄĻp
d ru
Ġinten syw
Ġprzy najmniej
iu sz
logi czne
Ġpo jem
Ġst rze
Ġw cale
ĠdÅĤu gi
Ġ Q
201 7
Ġ '
Ġmia sto
z da
Ġza wie
Ġh e
Ġwy stÄĻp
cze m
b ki
m owania
je Å¼d
Ġmo ni
Ġsta je
T y
ĠD ru
f r
E M
Ġnie wy
cj o
Ġba da
Ġbiu r
wie j
Ġkon ty
Ġwy powie
nos praw
Ġza kÅĤad
Ġuli cy
Ġu chwa
ĠÅĽ lub
0 7
ĠWy kona
Ġo le
Ġskle pu
Ġlu tego
Ġu kÅĤad
Ġtechno logii
Ġnau ki
le ÅĦ
Ġwarun kÃ³w
ĠW il
towa ÅĤ
Ġdrew nia
ĠPod czas
Ġh y
Ġpi sze
Ġof ia
ĠbÄĻdzie sz
Ġmia ÅĤy
Å¼o nych
Ġprzy ro
Ġmi n
ĠS te
Ġmo dli
w skiego
szo ne
ĠIn stytu
Ġg miny
Ġja kiej
Ġzosta nÄħ
0 8
s f
Ġo sie
Ġ &
fi kowa
Ġkolo rze
Ġz god
Ġdu Å¼Äħ
s ci
Ġodpowiedni o
Ġwra Å¼enie
d ÅĤa
ar Ã³w
Ġwi os
ĠÅĽrodowi ska
dy n
ki ng
Ġsub stan
Ġob ja
Ġre li
Ġob ni
ec nie
Ġdo prowa
Ġce lem
2 9
Ġkom Ã³r
ce sor
Ġcieka we
ĠS praw
ow ca
ro dzi
Ġza daÅĦ
ĠMiÄĻ dzy
en ty
Ġi t
Å¼ ki
ĠJa na
Ġwz iÄħ
ĠW al
Ġna sza
Ġpole cam
Ġza praszamy
tu rÄĻ
towa ny
p iÄĻk
gro ma
rowa Äĩ
Ġ !
ĠPio tr
Ġnie peÅĤ
sto ÅĽÄĩ
Ġele gan
Ġmog ÅĤa
ko mi
Ġo bywa
Ġwarun kach
Ġna piÄĻ
mac nia
Ġbran Å¼y
co ne
Ġpa ÅĦstw
Ġpla cÃ³w
Ġza trzyma
Ġponi Å¼ej
Ġwyda rzenia
d wie
wiÄĻ cej
Ġza zna
N o
cze r
ci na
wi ÅĤ
Ġza angaÅ¼
Ġeg za
Ġma ÅĤe
ĠsprzÄĻ tu
s owy
f ra
ĠÅĽmier ci
Ġor ga
ĠÅģ o
resz cie
ĠB ra
Ġpo infor
czo raj
o u
Ġpo rzÄħd
ĠÅĽ le
Å¼e m
Ġpo ro
wa ÅĤy
ĠpieniÄĻ dzy
Ġ5 00
Ġty siÄĻcy
Ġwy trzyma
Ġz ÅĤa
Ġtermi nie
Ġzie mi
Ġpoko ju
Ġop owiada
Ġz bli
g rywa
jÄħ co
ru je
Ġczyn noÅĽci
ĠWszyst ko
ĠSp Ã³ÅĤ
Ġdo kÅĤad
Ġwo kÃ³ÅĤ
3 5
g da
sz czÄħ
Ġtele fon
Ġje sie
Ġ3 5
daw cy
dni ki
Ġza gra
Ġbez pÅĤa
ĠTo ma
ĠPonad to
Ġf ran
zowa nych
in gu
ct i
mie niu
Ġeuro pej
Ġte a
ĠPod staw
Ġdo tychczas
Ġmieszka nia
O b
Ġwy peÅĤ
ĠuÅ¼y wane
Ġto r
ĠosiÄħ gniÄĻ
Ġskle pie
ĠKul tury
ĠÅĽwie tnie
ĠposzczegÃ³l nych
ĠwÅĤo sy
Ã ©
0 2
Ġpierw szego
je k
s on
te li
Ġlek ko
na l
Ġe wentual
zd ra
Ġeko nomi
Ġpoda tk
Ġzda niem
sz czo
Ġz i
Ġ200 9
d ki
ĠszczegÃ³l noÅĽci
cja li
Ġwz o
ĠBo Å¼e
ĠspoÅĤe cze
Ġsy mbo
Ġcharak ter
Ġdo ros
Ġkolej nych
Ġwiadomo ÅĽci
j ski
Ġza ka
ĠðŁ Ļ
par ta
Ġnie samowi
owie c
ĠH u
Ġefek tyw
K A
Ġw raca
Ġsy n
k su
cz ar
ko r
Ġr owe
Ġpa l
Ġna si
Ġsza ns
Ġko r
Ġrozpo zna
ta lu
Ġsz kÃ³ÅĤ
Ġsa mi
ĠO sta
Ġuczest nikÃ³w
ĠW in
Ġnie bie
Ġprze pisÃ³w
ĠEuro py
Ġkonkur su
Ġi dzie
Ġo szczÄĻ
ĠRe gu
s ow
Ġzdecy dowa
Ġkosz ty
Ġatmos fe
Ġdzie je
ĠuÅ¼ytk ownikÃ³w
Ġpod pisa
Ġob szar
3 9
Ġpun ktÃ³w
ĠdotyczÄħ cych
Ġser ia
z dÃ³w
ĠPa na
Ġstra te
N A
Ġsi ÃĦ
ter ii
Ġbra m
ĠdoÅĽwiad czenia
ste go
Ġpozy cji
Ġwe se
Ġu ÅĽmie
sek wen
Ġostat nio
v en
O P
Ġp unk
ĠsprzÄĻ t
cha Äĩ
k owym
gh t
ĠJu Å¼
\ \
Ġby m
Ġwszel kie
trze b
T ak
Ġsame j
j na
Ġo dzy
Ġmusi my
B ar
ĠT V
Ġcz o
Ġsi ÅĤ
Ġpo rt
Ġudzie la
Ġwykorzy stu
Ġpo szu
Ġza re
ĠS prze
Ġkon struk
Ġzaj muje
a t
nio na
Ro z
Ġ *
ĠG Ã³r
Ġod w
dza nie
Ġo ku
Ġra ch
Ġu tra
ĠKo mi
wiel bia
Ġnajlep szych
ĠKrak owie
Ġwypad ku
ci Ã³ÅĤ
Ġte z
tor ium
Ġin spi
Ġh ar
Ġregu lar
me try
ĠcaÅĤ kiem
Ġza cho
Ġz ÄĻ
ĠPo le
s si
ste j
Ġwa s
wa j
Ġprzestrze ni
ĠCh ry
Ġsze re
Ġdo ÅĤÄħ
g ÅĤÄĻ
Ġosta te
Ġpod da
d nego
Ġchoro by
Ġbud owy
niÄĻ cia
dza nia
Ġofi cja
po rt
Ġwy obra
ĠPu bli
ni ctwo
Ġin stru
rzu ca
pra wie
ĠwÅĤas ne
to ÅĽÄĩ
Ġa gen
Ġpodob nie
ĠS T
jeÅ¼d Å¼a
ĠpostÄĻp owania
pro du
Ġnie bezpie
Ġfunk cji
Ġtwo rzÄħ
ter na
re j
ÅĦst wie
nu jÄħ
ĠCzÄĻ sto
Ġzmie ni
Ġprze glÄħ
ÅĽcie j
Ġza ÅĤÄħ
Ġpa li
ĠpamiÄĻ taÄĩ
n Ã³
Ġpo rusza
201 6
Ġsu mie
ĠrÃ³w no
Ġn owa
Ġfina n
ĠmiaÅĤa m
ĠðŁĻ Ĥ
k cja
Ġstand ard
ĠÅ¼ Ã³ÅĤ
Ġu r
Ġwy ka
Ġpierw szych
Ġlicz ba
Ġzwie rzÄĻ
Ġob sza
jÄħ ÅĤ
ĠCh i
Ġpow ro
Ġro lÄĻ
d nej
Ġ 000
rzÄħ dzenia
Ġspra wa
g Ã³
Ġnie ch
Ġnaz wi
Ġcent ra
Ġa para
Ġca ÅĤoÅĽci
Ġu czy
Ġprze Å¼y
tu jemy
Ġstop ni
Ġs pad
Ġpow szech
Ġin nowa
ob raz
p ki
l ti
Ġkre a
Ġpowie trza
ĠRo dzi
ĠPo za
W e
ga mi
Ġ ÅĤu
Ġju z
Ġk wali
Ġpier si
Ġinwesty cji
na le
Ġkosz t
Ġod bior
me ry
Ġstro na
Ġki lo
Ġu rzÄĻ
ĠCz ar
Ġsko ro
ĠO l
gro dzenia
ĠDz iaÅĤa
Ġpomie szcze
Ġapli kacji
Ġwa rzy
Ġd ow
Ġzw raca
Ġmar ket
Ġ j
ĠpamiÄĻ ci
Ġspe cy
spe kty
A P
ĠzajÄĻ Äĩ
Ġb ÅĤo
rzÄħ t
b rze
Ġdro g
d ry
ja k
Ġpowo duje
rze niu
Ġdro gÄħ
ÅĤo d
Ġjako ÅĽ
Ġopie ku
Ġz biera
Ġza nie
Ġe la
ĠgÅĤo ÅĽ
Ġchce my
rzo ne
Ġreje stra
ÅĤ owi
p Ã³w
ĠrÃ³Å¼ no
g nÄħÄĩ
E S
Ġponow nie
s pie
Ġdu Å¼ej
daw ca
Ġstand ar
Ġp rÄħ
t wie
ĠO gÃ³l
czy k
Ġwo jny
E K
Ġwo js
Ġpozio mu
ka cja
m owanie
Ġprzysz ÅĤoÅĽci
ĠB er
dzi my
Ġsp i
Ġak cesor
Ġod czu
dzia ÅĤy
dz iÄĻ
jÄĻ cie
nika mi
Ġpoda tku
ĠF unda
now u
s kÄĻ
no ÅĽ
Ġma sa
wia Äĩ
ĠPa miÄĻ
owa li
Ġsty l
Ġzna czenie
Ġte ren
ĠpielÄĻ gna
czo ÅĽci
W ar
Ġo ÅĽwiad
Ġkon sekwen
Ġinsta lacji
ĠI V
Ġk rze
Ġofer t
nie ÅĽÄĩ
ĠwÄħ tp
ĠwrÄĻ cz
ĠKa towi
... )
ktu ra
9 0
Ġinternet owych
Ġko la
kra cza
Ġ200 8
Ġt j
Ġsz czy
ze ta
Ġsztu ki
Ġo ÅĽwiet
Ġzro zumie
7 0
rzy ÅĤ
Ġu trzy
ĠK raj
Ġwi tami
R a
ĠI m
Ġk g
Ã ħ
Ġpa z
ĠI z
3 3
Ġni niej
Ġwy sÅĤa
Ġmia ÅĤo
Ġna stÄħpi
Ġwnio sku
B a
ĠX V
ia ch
Ġge o
Ġce nie
ĠE le
Ġuzyska Äĩ
Ġm iÄĻk
Ä¹Åº e
ĠT ur
dzia le
Ġfor my
sta wa
Ġch rze
Ġsamocho du
Ġpol ski
d nÄħ
Ġpa ne
bie rz
Ġprze r
ĠÅĽ re
Ġmeto dy
ĠrozwiÄħza ÅĦ
Ġzdr owo
Ġzach wy
wo lu
i mi
P ra
Ġznajdzie sz
Ġkontro li
Ġpro sto
ĠPola kÃ³w
ÅĽci Ã³ÅĤ
Ġczego ÅĽ
ko la
K on
ÅĽci ja
m l
Ġideal nie
Ġwy pa
Ġpowy Å¼ej
ĠniepeÅĤ nospraw
Ġre zer
ĠSta ni
ĠO n
al ne
Ġsto i
Ġspo j
Ġofer tÄĻ
Ġnale Å¼Äħ
B o
Ġwe ek
ĠSpo ÅĤe
co ny
k tor
d le
de j
ĠczÅĤo nkÃ³w
Ġtygod niu
ĠC on
wo z
Ġmateria ÅĤ
li m
Ġzre ali
Ġzasa d
Ġnie wie
Ġ ner
ktu ali
b iÄĻ
cyj nie
Ġo zd
Ġpol skim
Ġ4 5
dy na
sz czu
z owie
Ġb ry
Ġza bra
ta rz
kÅĤa dzie
Ġspraw dziÄĩ
ĠChry stu
Ġb al
ĠZa praszamy
cza nia
ĠWia domoÅĽci
j skich
Ġener ge
Ġm en
no m
Ġsy gna
P S
Ġstop niu
ĠS an
Ġproje ktÃ³w
g n
Ġre ak
Ġwy ÅĽwietla
Ġpro szÄĻ
Ã³ ze
D zi
Ġpo chodzÄħ
kie n
czÄħ cy
ĠTy lko
Ġta ble
ra bia
Ġdodatk owe
ĠPrze z
la k
ta nia
Ġwar sza
Ġu z
Ġwie czo
tÄħ d
Ġelekt ro
ki mi
Ġsa lo
Ġ200 7
ĠkaÅ¼ da
Ġmini ma
ĠmÅĤo dzieÅ¼y
Ġza zwyczaj
ĠR P
Ġstosu nku
ĠzwiÄĻk sza
Ġwy wo
kie t
tycz nÄħ
ĠÅ» e
Ġprzemy sÅĤ
Å¼ ne
Ġbra ku
o gle
Ġdoku mentÃ³w
ĠW s
ĠPo siada
Ġma ÅĤych
Ġru ch
4 4
Ġdobry m
r ka
ma i
Ġz my
spo li
Ġma lu
Ġzna czy
s ÅĤem
g iÄĻ
Ġcz tery
Ġzaba w
Ġzaba wy
pro st
Ġpowierz ch
zy cji
ĠPra w
Ġbi or
Ġdobre j
Ġkon tra
Ġserwi s
Ġpom Ã³c
wÃ³ d
w ska
ĠWarsza wy
Ġno cy
Ġpo bli
ĠDoda tkowo
Ġg imna
ow cy
Ġa ta
Ġt war
d ÅĤo
Ġspraw ÄĻ
sty cznej
Ġpo cho
ty wa
Ġza ko
Ġprze chowy
Ġher ba
Ġspo dzie
ÅĦ cu
) :
ek la
iÄĻku jÄĻ
Ġwie dzÄħ
Ġtema ty
s nÄħ
201 5
ĠÅĽrod ki
Ġle czenia
Ġmuzy ki
z Äħ
Ġmu szÄĻ
Ġwzro st
ni owe
l owej
Ġmateria ÅĤu
ĠskÃ³ rÄĻ
Ġro lni
Ġi den
Ġp ry
ĠÅļ rod
ĠS ze
Ġlicz by
mo ÅĽÄĩ
ĠÅĽ pie
Ġdoda Äĩ
wo dni
ĠsÅĤo ne
ĠJe j
lu m
O K
Ġcza sach
Prze d
ow skiej
Ġmo dy
Ġi nicja
Ġstu dia
ĠwÅĤaÅĽci woÅĽci
n da
L e
Â ¶
ĠF il
ĠKra kÃ³w
ĠEuro pie
ĠN or
Ġpoprze dni
Ġci ÅĽnie
wi one
ĠX I
ĠD i
Ġwal ki
Ġspowo dowa
Ġroz pa
gra fi
mia n
4 8
Ġzad ba
li cy
g rzy
Ġgru pa
Ġsza n
tych miast
Ġprzy ci
Ġf rag
Ġt le
Ġu de
ĠE x
Ġnie spo
Ġna gra
Ġprze ÅĤo
Ġniez wyk
Ġ rzÄħ
d owego
Ġza sÅĤu
Ġdu ch
Ãĵ W
Ġopro gram
Ġpod ÅĤÄħ
d Å¼e
Ġskorzysta Äĩ
Ġprze pisy
Ġza go
ty k
a u
Ġprowa dzenia
Ġop rÃ³cz
Ġo publi
ĠEuropej skiej
Ġmiejs cach
my ÅĽ
ĠnajwaÅ¼ niejsze
ĠS am
sz nie
ĠpodrÃ³ Å¼y
Ġfor mula
Ġot wiera
lo nych
I C
nowa ne
Ġ %
ÅĤ owy
Ġit d
Ġeksp er
Ġsta ro
ĠKrzy szto
dnie go
Ā Ā
na u
owu je
bu r
Ġpra co
Ġszczeg Ã³
Ġwy szuki
dzie l
Ġma cie
Ġu kÅĤadu
Ġfan ta
Ġprak tycznie
Ġ3 00
ĠJe dno
ty mi
Ġpaz nok
Ġty godni
no r
Ġauto bu
ÅĤa mi
Ġwy bu
Ġzwie rzÄħt
Ġsta ÅĤo
Ġwykona nie
ro b
w cy
Ġtytu ÅĤu
I P
st en
ĠduÅ¼y m
wa niem
Ġkar ty
logi cznych
3 6
Ġu po
t s
f f
ĠwÅĤas nej
Ġm le
Ġb ÅĤy
7 5
ÅĽli Äĩ
ma mi
wa ÅĤo
) ;
Ġsta tu
d owi
Ġspo tyka
l owaÄĩ
sty ki
ĠwÅĤas nych
d owej
R Z
Ġge ne
t wier
ĠB iu
ĠJ Ã³ze
n nym
d owo
n gu
ĠKo lej
Ġek ra
rze go
ĠwÅĤaÅĽci wie
ĠD ar
ce bo
J u
Ġry nek
ĠK la
ÅĦst wu
Z e
Ġdoku menta
tka mi
ĠPol skiej
czo nego
Ġwspo mnia
Ġsko m
Ġzosta je
ĠD ÅĤu
Ġkom pozy
zdra wiam
ĠbyÅĤo by
i d
ĠU nii
Ġwa m
dza Äĩ
p h
Ġwer sja
p owa
Ġp lus
t for
bi Äĩ
Ġwy stÄħpi
si o
Ġmo bi
Ġd ÅĤo
Ġzaku pu
w s
ÅĽ wie
ĠKon kur
oba cz
Ġdrugi m
Ġna po
Å¼ ÄĻ
l owy
Ġimpre zy
w Ã³w
niÄĻ cie
Ġw g
t ch
ĠG u
ĠInter ne
âĢ º
ĠP C
ĠZ na
Ġlo gi
Ġma gi
ĠSy stem
li zacja
pie ÅĦ
ĠWy bor
Ġu rucho
ĠF undu
Ġpot ÄĻ
Ġzja wi
ĠLu bli
ĠmÅĤody ch
ĠniektÃ³ re
v o
Ġko szu
Ġfil mu
Ġbie g
Ġk s
Ġob ciÄħ
wi den
Ġzapro jekt
Ġte st
Ġter min
nd en
- )
Ġcie szy
Ġ3 6
cze st
Ġpo ma
Ġwypo czy
Ġu koÅĦ
Ġzna komi
dzie my
Ä Ĩ
da go
Ġsz kla
Ġo ÅĽrod
R A
ĠuÅ¼ytk ownika
Ġtwo je
Je Å¼eli
T A
ĠNa wet
Ġce rty
ĠJa ko
ste ÅĽmy
niej sza
ko rzy
ĠS ÅĤu
Ġpio sen
Ġzmie niÄĩ
ĠJez u
Ġdzi w
my ch
Ġprze sÅĤa
Ġna czy
Ġoce ny
Ġwyso ko
Ġmusi sz
Ġst ary
Ġroz gry
ma to
Ġlub iÄĻ
Ġna zywa
mia ny
Ġo no
Ġproce du
ra cje
Ġnie daw
Ġproducen ta
Ġposiada jÄħ
Ġcza sami
j skiego
ĠduÅ¼y ch
ĠobowiÄħ zu
Ġwz macnia
ĠRe gi
ĠrÄĻ ka
t to
Ġmateria ÅĤy
Ġpi ÅĤ
Ġswo bo
Ġwie dzÄĻ
Ġhistor ia
ta rza
Ġn owÄħ
Ġp rzo
ĠMu zeum
Ġwy nik
ĠC ar
Ġw pisa
Ġmo du
s jÄħ
Ġb log
W szyst
Ġtytu ÅĤ
Ġin struk
Ġzau fa
Ġs ÅĤÃ³w
szo ny
Ġprzyja ciÃ³ÅĤ
Å¼Äħ da
ku jÄħ
Ġza sko
Ġtek st
E C
Ġpun kt
ĠczÄĻ ÅĽciej
D Z
Ġmia ÅĤem
kow ski
le c
Ġw ro
Ġc Ã³r
Ġpodkre ÅĽla
Ġeksp lo
ĠS trona
ĠÅ¼y wo
Ġpo ch
Ġtrze ci
Ġkonty nu
Ġo cenia
Ġ rzÄħd
sz czone
Ġta bli
ĠGo spodar
Ġek spo
ĠwiÄĻk sze
ĠrÃ³Å¼no rod
Ġwy chowa
ĠdÅĤu gie
D e
Ġme czu
sty ka
ĠG re
d ob
mo cy
ĠKo misji
Ġkorzysta Äĩ
Ġs re
Ġzawo dni
n ci
D zie
Je st
ĠB Ã³g
ĠniezbÄĻ dne
Ġch or
Ġu s
p s
Ġbu dowa
ĠDy rek
Ġn owym
sa nd
Ġz nowu
rÃ³ g
Ġprzeciw ko
me trÃ³w
Ġopi nii
ĠspÃ³ÅĤ ki
Ġwie cz
Ġm nÃ³
Ġzasto sowanie
ĠPK D
Ġsi ÅĤy
Ġw rÃ³ci
ĠI N
ĠspoÅĤe cznoÅĽci
ĠJe stem
ĠchÅĤo p
Ġwy glÄħd
Ġdzia ÅĤ
fi ni
Ġza pisa
Ġpubli cznych
ĠPol skiego
cjona r
Ġwyko ÅĦ
ĠrÄĻ ce
e li
Ġda m
ĠsiÄĻ ga
Ġna tychmiast
bie nia
mi nu
fra stru
Ġna pÄĻ
Ġpo bra
Ġd s
Ġdy nami
ĠksiÄħÅ¼ ka
ÅĤa bym
Ġbo i
S ta
Ġobej muje
dzi li
Ġd i
Ġs cho
Ġuczni owie
Ġfir mie
Ġma ÅĤy
ĠÅ¼y w
Ġb r
stry bu
Ġgo r
ĠG ro
Ġmode lu
l nymi
Ġg ÅĤa
Ġdia gno
ĠK siÄĻ
Ġdzien nika
Ġprze tar
Ġop tyma
ĠrÃ³w nie
Ġin nej
ĠdÅº wiÄĻ
Ġkomfor t
Ġne ga
Ġf undu
ĠchÄĻ tnie
1 00
P ier
Ġpoli cja
Ġg lo
Ġku pu
ĠInter net
Ġroz sze
Ġu staw
Ġroz mawia
D a
Ġpo kona
li zm
ĠK siÄħ
j ska
ĠWy so
k owÄħ
Ġwy pÅĤa
Ġser decznie
fina ns
n owy
ĠsÅĤu Å¼Äħ
me tr
Ġr ower
Ġp t
Ġpro te
ska r
Ġsta Äĩ
Ġpew ne
Ġtranspo rt
Ġpre mie
y a
Ġre f
Bar dzo
K I
je strowa
Ġsto sowania
ĠOb ecnie
Ġch cÄĻ
ĠAnd rzej
Ġwnio sek
rzo ny
3 8
Ġkon stru
ĠpiÄĻk ne
ĠksiÄħ Å¼ek
Ġpod lega
la nie
ĠNastÄĻp nie
li ny
Ġ <
ĠU krai
ĠwnÄĻ trza
Ġem e
dza jÄħ
Ġsta wia
n kach
wa lu
Ġrozpo czyna
Ġme cz
ĠciÄħ gle
Ġpotrzeb ne
Ġrodza j
Ġwia ry
Ã ¦
cza ch
o kie
Å¼ sze
ĠU E
Ġpoz ba
Ġz nie
lo zo
sze ni
ĠmÄĻÅ¼czy zn
Ġo pu
O Åļ
Ġwo lno
me ra
Ġroz m
Ġnaj pierw
j nej
s ch
ĠS ko
s li
Ġgdzie ÅĽ
Ġspecja lnie
Ġ200 0
k rÃ³t
Ġi st
ĠMini ster
dzie siÄħ
Ġma l
ĠzarzÄħdza nia
Ġoka zjÄĻ
Ġod no
Ġrzeczywi stoÅĽci
Ġfran cu
ĠZ wiÄħz
sz ÅĤa
Ġna wil
Ġni czym
s owej
Ġcy fr
Ġza pla
ĠpoÅĽredni ctwem
Ġfirm ÄĻ
5 5
Ġzu Å¼y
Ġra dy
la cje
4 6
Ġs io
W A
Ġo sa
ĠÅĽwiat ÅĤa
mie ÅĦ
c ko
ĠU sÅĤu
Ġty siÄħ
Ġsamo chÃ³d
ĠgÅĤÃ³w na
ĠPro gra
Ġzasa dzie
Ġwie dzieÄĩ
ĠMi mo
czo nym
czas em
i na
ty p
ĠPL N
Ġpa sa
dzo no
s sa
Ka Å¼
Ġs wego
Ġwspo maga
w ni
em u
Ġk rem
cie ka
sz ne
i t
mnie Äĩ
Ġpre para
ĠNa tomiast
sty czna
star czy
201 3
Ġbi bliote
Ġkobie ta
ĠroÅĽli n
K ie
le niu
g ru
Ġp ÅĤo
Ġspo d
sowa ny
Ġzdr owie
ĠI ch
le tnie
B y
ĠTa kie
t ÅĤu
Ġt rÃ³j
z ju
Ġsobo tÄĻ
Ġokoli cy
ã ĥ
S a
ĠwyjÄħ tkowo
Ġzasta nawia
Ġinte gra
ĠwpÅĤy wa
os ob
wi u
Ġchrze ÅĽcija
ki ja
ĠCzy taj
Ġu pÅĤy
Ġze stawie
ĠUÅ¼y tk
Ġal bu
ĠÅĽ li
ry te
la s
zd r
3 1
mia na
Ġu sÅĤy
Ġzaj mu
dzie li
wo r
Ġg ÄĻ
ra Å¼
no pol
ĠB ur
nÄĻ ÅĤo
zowa na
ĠWy da
ĠAu to
Ġwz or
Ġwspo mina
Ġ rÃ³
kre s
ĠU rzÄĻdu
ĠT owarzy
trze Äĩ
ĠnajwyÅ¼ szej
Ġzapa ch
Ġpar ÄĻ
ĠWrocÅĤa w
3 2
ĠKa ta
se t
h u
ĠUniwersyte tu
ĠTe a
wz iÄĻ
Ġpol skie
Ġw si
Ġdzie w
ĠmyÅĽ lÄħ
po li
tr wa
Ġkuch en
Ġf ry
Ġwe wnÄħtrz
ĠwspÃ³l nie
s hi
ĠÅ¼o ÅĤnie
Ġsystem Ã³w
ĠMie szka
da l
sze ÅĦ
M e
Ġrozpo czÄħ
Ġbezpiecze ÅĦstwo
Ġdrew na
Ġnie na
Ġjednost ki
Ġpierw sza
Ġnega tyw
Ġro czni
N i
ba ch
Ġwi o
ÅĤo po
Ġre cen
Ġkli ma
3 4
Ġorgani zmu
Ġzapo biega
Ġwystar cza
Ġa na
Ġkon ser
Ġnaz wa
Ġe li
Ġod po
ĠktÃ³ry mi
Ġuro dzi
Ġg ier
Ġtra kt
ĠNa leÅ¼y
Ġpow iÄĻk
Ġpozna Äĩ
Ð »
Ġgodzi nie
Ġuza leÅ¼
Ġg rzy
ĠCz er
ty ku
Ġpun ktu
Ġf unda
O B
p to
ĠðŁ ĺ
czo nej
A u
3 7
li za
Ġoczy szcza
Ġs tÃ³
ĠKa ro
N Y
ĠN A
Ġproce su
ĠwÅĤas nego
w czych
u je
ÅĽcie m
ĠO j
Ġm Ã³z
ĠV AT
ĠciÄħ Å¼y
wie n
ĠP er
ĠMa my
stÄħ pienia
d go
der ni
u p
Ġprzypad kach
t wy
Ġcz tere
Ġce le
zju m
pie nie
Ġu pa
b rzy
Ġtur niej
wo je
d ium
Ġzale dwie
Ġz m
czÄħ c
Ġsytua cja
Ġo cho
nie waÅ¼
Ġpo la
ĠM on
Ġserwi su
Ġstanowi sko
I D
Ġka wa
ĠÅĽrod ku
ĠdÅĤugo ÅĽci
Ġni ko
Ġna dz
Ã³ ki
ĠW iÄĻcej
Ġze wnÄħtrz
ĠpiÄĻ Äĩ
pi o
ĠkaÅ¼ dÄħ
ĠK ur
ĠwÄħtp liwoÅĽci
Ġo stro
na ÅĽcie
Ġcie pÅĤa
to ni
Ġmo jÄħ
Ġkorzysta nia
ku ra
Ġb rzu
ĠÅĤat wiej
Ġw sta
Ġroz e
Ġmusia ÅĤ
Ġarchi te
Ġproje kty
Ġlep sze
n kÄĻ
ĠFi na
Ġozd ob
Ġr Äħ
ĠwiÄĻk szÄħ
Ġofer ta
Ġre zu
ĠKo m
Ġw chodzi
Ġleka rza
Ġtran sa
Ġprze pisa
Ġsystem ie
za jem
te d
Ġdobre go
Ġpla nu
ta cjÄĻ
Ġefek ty
lo ry
Ġf u
Ġcel Ã³w
ĠÅĽ la
ĠZe spo
ĠmiesiÄħ c
Ġza danie
dzia ÅĤam
Ġkul tura
feru jemy
Ġkolo ry
Ġwspar cie
Ġg ÅĤu
Ġpozosta je
Ġpoje dyn
Ġwil go
my ka
Ġzamie szka
Ġka mpa
Ġme ble
Ġwielko ÅĽci
Ġwykorzysta Äĩ
Ġ15 0
lar y
Ġprze kro
Ġpre cy
ĠDla czego
ĠW ÄĻ
Ġme trÃ³w
lu je
J A
rÄĻ b
ĠmnÃ³ stwo
Ġcia ÅĤo
Ġpra g
. âĢĿ
Ġwiel kie
rowa nia
Ġda nego
sty cznego
Ġme tal
Ġnie zna
ĠCh a
Ġz ga
Ġwy wia
Ġpubli cznej
Ġrezu lta
Ġgodzi nach
Ġb lu
ĠFe sti
ĠK ry
cie ra
Ġkogo ÅĽ
Ġtelefo nu
ĠTrze ba
Ġca ÅĤa
Ġz lo
Ġodpowiedzia lnoÅĽci
ĠM ary
f il
Ġniedzie lÄĻ
cz ko
Ġdrugie go
ĠZ dr
Ġmo ze
Ġk lub
po spoli
Ð º
por tu
Ġsez onie
t t
Ġdie ty
Ġod cie
niwer sa
prasza m
li ÅĤ
201 4
Ġty mi
Ġro li
Ġdob rÄħ
ĠpoÅĤÄħ czenie
kie ty
zu jemy
re e
sz tÄħ
ĠskÅĤa dnikÃ³w
szo ÅĽÄĩ
t io
Ġe mi
co na
Ġzw rÃ³ciÄĩ
Ġmaszy n
ne l
ĠciÄĻÅ¼ ko
Ġwo dÄħ
Ġostatni m
ĠPa weÅĤ
go r
Ġche mi
Ġty dzieÅĦ
Ġ jo
Ġna ro
Ġmieszka nie
ĠW z
Ġopi s
Ġz nÃ³w
G dy
len da
Ġpsy chi
Ġproce nt
owa ÅĤo
Ġsa ty
ĠO chro
Ġza nim
Ġwykona ny
Ġkonce p
Ġtranspo rtu
de ra
st ek
ĠSzko ÅĤy
Ġczy telni
wa my
ĠA lek
kowa na
ĠAd ministra
Ġbie ga
Ġprzy by
M am
o re
ĠprÃ³ bu
Å¼y nie
Ġwszyst kiego
z owanie
wa m
__ __
c ro
Ġtu ry
Ġnada je
ĠU bezpie
kie wicz
Ġpod jÄĻ
sze niu
le cia
Ġcodzien nie
Ġb rze
b ka
Ġkom pe
Ġtre ning
Ã³ sÅĤ
Ġokaza ÅĤo
Ġmie siÄĻ
mowa ÅĤ
cza mi
Ġpo biera
sza Äĩ
Ġuza sa
ĠoglÄħ da
st wem
t owym
Ġ200 6
Ġsa li
ha bili
pi sz
Ġsta bi
Ġdu Å¼a
Ġcza sÃ³w
ĠÅ¼ad nego
B u
Ġda Äĩ
Ġkonce r
Ġse ku
Ġwo da
g l
wi ony
mu m
ĠwziÄħ Äĩ
Ġw stÄĻp
Ġzda rza
Ġal terna
jcie c
S po
tk owe
j ka
Ġm art
ĠrÃ³Å¼ nego
Ġu ka
Ġna ci
Ġs ÄĻ
ĠÅģ Ã³
Ġwszel kich
ta cza
ĠT ran
Ġpracu je
de go
ĠK to
!! !!
Ġskute cznie
ĠczÅĤo nk
ĠGa zeta
cz nika
n nie
r il
Ġ200 4
Ġza li
,, ,,
bo ga
ta ÅĤ
rÄħ g
ra Å¼a
ĠZ jedno
Ġu kÅĤada
c ar
Ġsta ÅĤ
zy g
te ma
l ski
Ġo by
Ġin ni
Ġm g
rowa ne
A le
Ġfak tycznie
sz t
Ġmi ÅĤoÅĽÄĩ
fi gu
M ar
b lo
ĠD ro
Ġza w
Ġedy cji
Ġko men
Ġmo mentu
Ġz mu
Ġdziec iÄĻ
Ġmog ÅĤy
ĠzdjÄĻ cie
cy mi
m em
ĠGo ogle
P L
Ġwyda j
Ġz ba
Ġprze su
ĠJa ro
pa Äĩ
I M
Ġsta li
bi u
k owie
ch ar
Ġpodstaw owych
Ġnie prze
ĠK lu
Ġ19 7
ĠpÅĤa tnoÅĽci
Ġpubli cznego
Ġzare jestrowa
ĠSpo rt
ty wy
ĠNie mie
Ġga z
Ġkwest ii
Ġwie sz
lowa ne
Ġbra kuje
Ġhistor iÄĻ
ĠdÅĤu Å¼ej
ÅĽ lÄĻ
Ġoczeki wania
Ġpod su
Ġs mu
Ġkonta ktu
ĠZ naj
Ġma gne
Ġpo kar
ĠmÃ³wi Äħc
Ġsamy ch
st re
Ġnie od
Ġw czoraj
ĠmaÅĤ Å¼e
lo gu
Ġko ja
mia ry
Ġw ez
ĠS tar
mu nika
Ġosob om
wi cza
Ġwy chodzi
Ġinstytu cji
rz ch
Ġwykony wania
Ġwo dÄĻ
Ġpoja zdÃ³w
l ce
ĠN owa
Ġsez on
ĠCe na
â Ħ
Ġce nÄĻ
Ġle kar
mie rza
Ġk im
Ġopi nie
Ġre cep
Ġca ÅĤoÅĽÄĩ
Ġsek su
Ġob ia
ro czy
Ġdro gÄĻ
ĠMa teria
ĠpÅĤy ty
Ġz groma
ĠszczÄĻ ÅĽli
Ġzamie rza
ĠÅº le
o t
ĠszczegÃ³ ÅĤy
Ġo dz
Ġ3 2
Ġte ry
P re
Ġper spekty
Ġjakiego ÅĽ
Ġspecy fi
Ġkompu tera
Ġtelefo ni
Ġmonta Å¼
pe u
pad Ã³w
ĠchÅĤo pa
ĠÅĽ nia
Ġwy Å¼ej
ĠmÃ³wi Äħ
Ġdy strybu
Ġzaa wan
Ġzna czÄħ
Ġw nÄĻtrz
Ġele ment
K S
ã Ĥ
Ġhote lu
Ġregu la
Ġwi try
Ġi miÄĻ
Ġbizne s
ĠMie js
Ġprac owni
ry m
P R
la nia
Ġzgo dy
ĠPo zdrawiam
Ġaku rat
z owania
Ġwykona na
ĠDzi ÅĽ
Ġmo to
ĠE du
ĠPier w
Ġobie ktÃ³w
Ġi lu
p ka
Ġpla nowa
tka ch
rze niem
Ġu prze
ĠpeÅĤ ne
Ġzro zu
ĠmiÄĻ ÅĽni
j ÃĦ
Ġkomunika cji
ĠprÄĻ d
ow nia
d ie
Ġpli kÃ³w
Ġsp ÅĤa
Ġza stÄĻp
ba mi
ĠWo jcie
Ġ19 6
Ġi zo
ĠkoÅĦ c
Ġulu bio
w cze
Ġkraj Ã³w
Ġcu dow
Ġa ro
Ġkolek cji
Ġkon to
ĠprzedsiÄĻ wziÄĻ
ĠDzie ci
d or
C I
Ġli sty
ĠmÅĤo dzieÅ¼
Ġzakre s
Ġpo sie
ĠT er
Ġo czywi
n owe
. ).
Ã ¡
niej szym
te ru
Ġper so
ÅĤa ÅĽ
l wen
Äĩ mi
ĠPozna niu
ĠP owie
Ġpo chodzi
Ġz ez
ĠwojewÃ³dz twa
Äħ d
Ġkonferen cji
ĠwÅĤas nÄħ
Ġrze czywiÅĽcie
Ġtwo rzenia
Ġpoli ty
li gen
towa na
ÅĤÄħ d
Ġpozosta ÅĤych
Ġroz miar
nie ÅĦ
ĠwÅĤas nym
Ġsta ty
krÃ³t ce
Ġmi nera
z wo
Ġwo do
Ġwy ch
ĠW sp
f li
do by
t nia
p t
ĠwyrÃ³Å¼ nia
Ġwo je
Ġuzyska nia
Ġszere g
Ġ200 5
C a
ĠnarzÄĻ dzia
Ġa ktuali
Ġle czenie
Ġreali zacjÄĻ
bo ra
Ġopar ciu
b Ã³
Ġstu diÃ³w
Ġ3 8
Ġtempera tury
Ġcztere ch
ska ch
T u
Ġwysy ÅĤa
Ġ ÅĤ
Ġzach owania
Å¼o nego
Ġnatura lne
ĠchoÄĩ by
niesie nia
Ġme ta
Ġwie my
ĠA dam
Ġa lu
Ġpo lu
Ġkonie czne
âĦ ¢
ÅĽ wiÄĻ
Ġwi dzÄĻ
pe ty
ĠwystÄĻpu je
cz kÄħ
Ã³w ki
Ġbu ty
du jÄħ
I L
Ġws cho
Ġli czyÄĩ
kowa nych
Kie dy
Ġdo mÃ³w
Ġtre nin
ĠK or
Ġwspar cia
ra sta
Ġmia rÄĻ
al ny
ĠZ osta
Ġdy plo
ĠT wÃ³j
S u
Ġryzy ko
Ġda nej
ĠPa ÅĦstwu
Ġzie lo
ĠpoczÄħ tek
Ġprzy cho
Ġsz t
Ġ ow
C e
Ġog rze
wo ju
towa nych
Ġcy klu
Ġdo stÄĻpu
ĠN owo
ĠuÅ¼y ciu
Ġz budowa
Ġbu r
M ie
Ġdodatk owych
ĠK obie
Ġprawdopod obnie
Ġnie ba
ĠDo m
ĠPre zyden
czy ÅĤy
s la
Ġprowa dzenie
ï¿½ ï¿½
ĠpiÄħ tek
chwa ÅĤa
Ġfe sti
Ġstop nia
Ġmia st
Ġw reszcie
l le
m ÅĤod
ĠWy starczy
Ġdo my
Ġprze stÄĻp
Ġtowa rÃ³w
owi cz
Ġsu kie
Ġokre su
Ġcie bie
âĢ ¢
ĠMiÄĻdzy narod
ni owych
Ġdyspo zycji
Ġchwi l
ĠdostÄĻp ny
ĠpeÅĤ no
ĠDz ia
pod legÅĤoÅĽci
Ġnagro dy
Ġpowo ÅĤa
Ġpo st
ĠbudÅ¼e tu
ÅĦ cÃ³w
mi u
ĠA kade
Ġpa pier
Å¼o nej
Ġwykona Äĩ
ĠToma sz
4 7
ĠW spÃ³ÅĤ
ĠZa rzÄħdu
Ġdziedzi nie
spe k
Ġpew nym
Ġpomo Å¼e
ĠWie lko
4 9
Ġzapew ne
Ġrekla ma
Ġu bieg
Ġli ÅĽcie
ĠpÃ³ÅĤ noc
ĠSamo chody
cia r
s ÅĤÃ³w
Ġwy twarza
Ġdo tar
Ġa p
Ġpoka zuje
S er
ze ru
ĠH ar
Ġpacje ntÃ³w
wi n
Ġk ÅĤopo
an na
d s
Ġcze kola
Ġw Ã³z
Ġra no
Ġre lacji
ĠP y
Ġsp ek
Ġwy woÅĤa
z wa
cy k
Ġsy l
Ġinter pre
Ġorgani zm
Ġdoros ÅĤych
tor ia
ĠZ ÅĤo
M S
Ġkonce nt
Ñ ĥ
ĠWy daw
Ġ vi
o o
Ġwo li
l ska
ĠE k
Ġprzy sta
dza m
ĠjÄĻzy ku
ĠAlek sand
Ġk war
Ġd Äħ
j ki
Ġok rÄĻ
Ġzorgani zowa
Ġokoli cznoÅĽci
dzie sz
ÅĽ rodek
Ġwyso koÅĽÄĩ
Ġpart ner
Ġrodzi n
Ġs mart
Dz iÄĻki
ĠPro gram
ĠurzÄħ dzenie
j skie
ĠKlien ta
Ġmy ÅĽla
ĠprzedsiÄĻbior stwa
Ġw czes
de cy
P i
dz ki
Ġsto sowaÄĩ
ĠR Ã³w
Ġwi dzenia
t ce
land ii
Ġroz mowy
ĠuÅ¼ytk owania
Ġu wielbia
Ġf la
b la
Ġnajlep szy
ĠjÄĻzy k
Ġmo tyw
Ġrodzi ce
t li
F o
Ġwy nikÃ³w
ĠS kar
ni ny
p em
ĠH D
Ġdyrek tor
Ġ100 0
ĠÅģo dzi
Ġwi dzi
ÅĤ owe
Ġb Ã³l
Ġkredy t
sf ak
za ch
Ġod sÅĤo
ĠmÃ³wi ÅĤ
ĠmÃ³wi Äĩ
Ġzapew niÄĩ
Ġpro sty
t rzu
ch no
Ġg min
Å¼y ÅĤa
Ġkla s
Ġeta pie
scy pli
ĠPoz osta
Ġprogra mie
Ġpo kÃ³j
Ġartyku ÅĤ
ĠU czest
Ġpla tfor
Ġh or
L u
Ġho tel
z jÄħ
Ġpozwala jÄħ
Ġczym ÅĽ
Ġwz moc
Ġwy p
Ġregi ona
Ġpi ÅĤka
ĠBy ÅĤ
zu jÄħc
ĠPa wÅĤa
Ġodpowie dÅº
Ġstru ktu
Ġodzy ska
ĠÅĽ lu
Ġabso lu
m owych
Ġw enty
ĠnajwiÄĻk szych
Ġto re
Ġobsza rze
Ġe ste
ty fika
Ġpo ÅĤowie
Ġprzygotowa nia
Ġry wali
Ġhttp s
Ġspotka ÅĦ
Ġpo by
Ġnie przy
men tem
O G
ĠMa ÅĤ
Ġsko ÅĦ
Ġko re
ĠPa ra
Ġmo ment
sz ona
Ġka ra
ĠdostÄĻp nych
Ġga bi
Ġroz ry
siÄĻ bior
k ÅĤo
ĠKrzyszto f
Ġur lo
Ġcerty fika
ĠÄĩwi czenia
Ġu mÃ³w
Ġfinans owych
ĠpiÄĻk nie
ĠosiÄħ ga
Ġm nÄħ
Ġzab rak
bie nie
ĠJezu sa
Ġograni cza
ĠCh e
ĠL on
Ġwspo m
Å¼ liwoÅĽÄĩ
ĠW tedy
zy waÄĩ
Ġopie ki
la Äĩ
Ġli czne
Ġ 00
Ġprze kracza
dzo nej
Ġdo ce
Ġspoko jnie
Â °
Z Y
ĠÅĽ cieÅ¼
Ġfo to
Ġk rÄħ
ĠP Ã³ÅĤ
Ġza wi
Ġakcesor ia
Ġak cep
Ġaktyw noÅĽci
Ġin frastru
ĠprzeglÄħ dar
ĠSz tu
Ġprzeczy ta
âĢ ļ
j nego
Ġwar st
ĠW Y
Ġo li
Ġch cieli
mi ona
ĠmyÅĽ lÄĻ
szy b
ĠAn na
Ġpla sti
Ġgru pie
Ġpowo li
ĠPi S
Ġu nik
4 2
ĠPro jekt
Ġtu Å¼
Ġwzro stu
ĠSer wi
Ġpotwier dza
wa ÅĦ
w cÃ³w
Ġza siÄĻ
Ġko ÅĤo
S y
Ġwyso kie
Ġpromo cji
Ġzmia na
Ġroz li
ĠokreÅĽlo nych
me dia
Ġfil mÃ³w
ĠRegi ona
dago gi
e s
Ġsy pia
s iaÅĤa
Ġmiejsce m
Ġdzie lni
F irma
Ġw pis
Ġfil my
ĠkÄħ pie
Ġproducen tÃ³w
dnie nie
Ġograni czenia
Ġinternet owy
Ġprzy cze
Ġsta cji
Ġodby ÅĤ
Ġba zie
I K
Ġbudy nkÃ³w
Ġb rÄħ
Ġwy kaza
Ġinte ligen
ĠPozna ÅĦ
Ġniewie le
Ġpowinni ÅĽmy
Ġeksplo a
Ġprac ownika
ĠkoÅĦ czy
ĠPra wo
ĠTwoje j
Ġte or
ct wie
dow s
ĠBo gu
Ġga ler
Ġpole ca
Ġle tni
Ġsko n
ĠRoz woju
ran Å¼a
zu ka
Ġkonstru kcji
rzy ja
Ġisto tne
ĠNie ktÃ³
ĠtÅĤu szcz
Ġdru gÄħ
Ġli st
Ġza mÃ³w
ni Ã³sÅĤ
ĠnarzÄĻ dzi
Ġta ÅĦ
Ġfi lozo
Ġmarket ing
Ġma kija
Ġpo dzi
Ġtere nu
Ġdru ga
G a
dzÄħ c
Ġwi ce
Ġwie k
szÄĻ dzie
s ar
ĠKo ÅĽcioÅĤa
Ġstosu je
Ġwy bi
ĠOp rÃ³cz
Ġszans ÄĻ
Äħ za
Ġkwo ty
raz y
Ġtwa rz
Ġw pisu
r ow
ĠA f
nÄĻ ÅĤy
ĠmiesiÄħ ce
Ġwi zeru
Ġba zy
Ġpo sze
Ġkra jach
Ġfunk cjÄĻ
rod ÄĻ
Ġpe wien
z z
W a
201 2
z on
sta wia
Ġka toli
Ġgo spo
Ġstwo rzyÄĩ
Ġosob ÄĻ
Ġp Ã³j
. "
te le
ĠB lu
Ġfa ch
p en
ĠU ni
5 6
Ġpierw szÄħ
kre a
rowa nie
cti on
ĠS h
ĠSz kÃ³ÅĤ
ĠgÅĤo s
Ġwyja zd
ne n
un ku
Ġ ÅĽciÄħ
ĠMar ia
Ġko ÅĽcie
ĠR i
Ġwa lu
U M
ĠN owy
ĠI de
ni na
Ġw ÅĤÃ³
Ġwyda rzeÅĦ
g li
ĠrÃ³Å¼ ni
Ġsp Ã³
Ġwie rzy
in t
Ġdoko ny
Ġnauczycie li
Ġsposob u
ĠF irma
Ġjednost ek
ÅĤa ma
Ġspraw dzi
Ġprogra mÃ³w
ĠmyÅĽ l
4 3
ĠspoÅĤe cznej
Ġwy glÄħ
Ġko t
F i
Ġmu lti
Ġry su
Za praszamy
Ġpowy Å¼
Ġbudow ÄĻ
Ġb ak
cu je
Ġodby ÅĤa
ĠS ej
Ġli cen
ĠÅĽwiat owej
Ġwyso kÄħ
mo nt
le b
ĠpoÅĤÄħ czenia
Ġfa bry
w skiej
Ġna gle
Ġdro ga
Ġposta Äĩ
ia r
jecha Äĩ
... ]
Ġpobli Å¼u
Ġpotrafi Äħ
nt ar
Ġspecja lne
ca l
Ġprze ja
ĠksiÄħÅ¼ kÄĻ
Ġprzy sÅĤu
ĠÅĽwiad czenia
Ġ, ,
ge ne
ĠpeÅĤ nÄħ
dzo nego
Ġo l
Ġkli maty
Ġwa kacje
ĠzaczÄħ ÅĤ
Ġdo szÅĤo
Ġzain sta
Ġtajem ni
Ġgro ma
Ġkon dy
Ġz wa
owa ÅĦ
Ġalkoho lu
ĠRob er
w nie
czo nÄħ
ĠStowarzy szenia
Ġ Ã
Ġzago spodar
Ġprzy w
Ġog ni
Ġtechni czne
Ġzaku py
Ġu niwersa
Ġfi gu
owi ska
ĠBy dgo
Ġu wie
ĠZa cho
Ġuzu peÅĤ
ĠmiesiÄħ ca
Ġg ÅĤowie
ĠT ru
Ġku li
ĠÅĽ nie
% .
Ġnaj mÅĤod
Ġspra wi
ĠudostÄĻp nia
Ġkonce rt
ĠZa mawia
ku jemy
towa ÅĤa
ĠTwoje go
c kÄħ
Ġm ro
Ko lej
Ġdow Ã³d
sz Ã³w
dzia ÅĤek
Ġprze ci
Ġwska zuje
zu r
ĠI P
ĠWybor cza
Ġ4 00
Ġczu j
Ġkorzy st
Ġsta ÅĤa
ĠzaczÄħ Äĩ
L a
ĠWojewÃ³dz twa
Ġwiel kÄħ
d niu
ĠÅĤÄħ czy
---- ----
ĠT i
S trona
Ġprze pÅĤy
ĠMi koÅĤa
Ġpro simy
Ġswo imi
Ġlo dÃ³w
Ġwyra Å¼a
cj onu
ĠÅĽwia do
Ġzapro po
ĠÂ §
Ġde si
Ġkon tek
ĠDzie ÅĦ
Ġode bra
Ġu kaza
an ce
te nt
Ġwy klu
cia ch
ĠsÅĤu Å¼y
ĠczÄĻ ÅĽciÄħ
Ġu pad
ĠO pera
nowa ÅĤ
Ġre kru
Ġdzie Äĩmi
Ġod leg
sty cznym
Ġzy ska
Ġobie ktu
wa ga
Ġprzygotowa Äĩ
ĠW or
Ġkur s
Ġpier wo
Ġprzygo towy
Ġdar mo
ĠÅĽwiÄħ te
Ġu ÅĤo
ce ÅĦ
Ġreli gi
Ġod czy
Ġw chodzÄħ
Ġok na
ĠM ÄĻ
Ġdobry ch
Ġdaw no
n owo
siÅĤ ku
Ġp ta
z ar
m po
Ġosobi ÅĽcie
nd er
Ġtru dne
Ã³ rek
ĠmoÅ¼e cie
Ġfinans owe
Ġk lient
Ġwyra Åºnie
E J
Ġusta wie
Ġkonkur s
ĠO s
ĠDÅĤu go
ĠskÅĤa dniki
Ġwsze ch
Ġdzien nie
ĠporÃ³wna niu
domo ÅĽÄĩ
l s
ĠBi bliote
Ġpo pro
u ch
ĠrÃ³w nowa
Ġtego ro
ĠOd powie
Ġod nale
t re
Ġwie c
Pod czas
Ġideal ny
ĠProgra mu
Ġoka zuje
ĠMu zy
t war
Ġspa ce
ce k
Ġz bro
Ġsze f
ci ÅĤa
Ġb roni
Ġka mie
ĠpoÅĤu dni
Ġprzezna czone
h t
Ġe widen
Ġopie ra
sza ÅĤ
g owa
chro ni
Ġma sy
ĠMicha ÅĤ
logi cznej
Ġby ÅĤam
Ġweek end
Ġco okie
Ġma j
Ġnoc leg
Ġko ro
a ch
ĠCho Äĩ
Ġsta ÅĤy
lami nu
Ġpowi Äħza
ĠMi strzo
Ġobraz u
ĠÅģ uka
Ġgo tÃ³w
Ġpodob ne
Ġzna ne
ĠwspÃ³l nego
Ġu chwy
li wie
ĠOrgani za
N IE
iÄĻk szoÅĽÄĩ
ĠSprze da
an g
Ġskom pli
ĠO C
ĠN IE
Ġblo ga
Ġwo lnoÅĽci
wa mi
P e
ĠrozwiÄħza niem
ĠO ÅĽrod
i Ã³w
ĠT ro
Ġposta nowie
cie lem
ĠO fer
d noÅĽÄĩ
Ġz mÄĻ
rÃ³ bu
Ġde dy
Ġb Ã³
d owym
Ġau ta
ĠWrocÅĤa wiu
Ġpow tarza
ĠWe dÅĤug
Ġdzie siÄĻ
sz kÄĻ
Ġzawo dnikÃ³w
bio ru
Ġje Åº
Ġje zio
Ġpor talu
Ġzna czenia
Ġpun kty
il ka
Ġgospodar czej
ÅĦ skÄħ
Ġgru bo
spe ry
g owe
mie rz
ĠzamÃ³wie nie
ĠKa zi
Ġro snÄħ
Ġka waÅĤ
pospoli tej
Ġwymia ny
two r
ru r
ĠQ u
mi nie
t no
Ġto Å¼
Ġspraw Äħ
ĠPa ÅĦstw
Ġinfor muje
Ġ7 5
Ġmedy cy
Ġ200 3
ĠAr chi
t nik
wan ge
ĠwspÃ³l no
ĠW ÅĽrÃ³d
Ġki bi
Ġdecy zjÄĻ
Ġtek stu
ne mu
ĠpoÅ¼y czki
Ġs che
Ġu jaw
Ġprzygotowa nie
Ġdoku menty
rÃ³ deÅĤ
ĠdÅĤugo ÅĽÄĩ
Ġpro to
Ġkry zy
Ġdo chodzi
Ġwy ksztaÅĤ
ĠAu tor
C ho
ÅĤ bym
Ġhar mo
Ġta ra
ĠE ko
Ġchor Ã³b
ĠM or
Ġelemen tem
ĠuÅĤat wia
G o
Ġpotrzebu je
Ġni czego
Ġd rÃ³g
Ġindywidual nych
Ġsposob em
ĠÅ¼ad nej
Ġza strze
ĠskÃ³ ra
Ġpoli tyki
ĠP ia
Ġdoda je
ĠT re
Ġwi deo
Ġfa ce
ĠwÅĤas ny
czy ÅĤo
t niej
Ġwymaga nia
Ġog rod
ÅĤ by
Ġprzed ÅĤu
Ġ Ã³w
ĠgÅĤÃ³w nym
dzie la
ĠSu per
k er
f la
ĠNi c
Ġhi po
Ġlo go
ĠA p
Ġcharak terze
ĠNa sze
ĠwiÄĻk szej
ĠB el
Ġpart ne
ĠÅĽwiat ÅĤo
ĠB la
Ġsp rÃ³b
Ġu nie
Ġkrea tyw
ce na
Ġzmia nie
Ġpod wÃ³j
g nia
Ġwska Åº
Ġdo finans
z mie
Ġnaj wy
ĠT am
ĠporzÄħd ku
ĠJe szcze
Ġ net
Ġpopra wia
Ġprzygo t
ĠS ÅĤo
Ġre a
Ġkompe ten
ble m
................ ................
ĠniezaleÅ¼ nie
Ġkom pa
Ġse sji
7 8
Ġgru n
Ġe ki
owni ctwa
ĠopÅĤa ty
p su
Ġosob Äħ
Ġpoja wiajÄħ
Ġprac owaÄĩ
Ġw dro
Ġodwie dza
ĠMie jskiej
Ġp lu
w na
Ġwarszta ty
Ġzale ca
Ġlicz bÄĻ
Ġwi zu
Ġnale Å¼a
Ġsamo lo
ru szy
ĠÅ¼y Äĩ
Ġpotrze ba
Ġbe dzie
ĠRo sji
ro bo
my sÅĤ
Ġka lenda
Ġko st
4 1
Ġprezen t
ĠktÃ³re mu
Ġkorzy ÅĽci
Ġloka lizacji
ciÄħ gniÄĻ
Ġsukce s
Ġkredy tu
Ġre Å¼y
Ju Å¼
b ek
Ġkonkur sie
Ġpasa Å¼e
cz ce
Ġska li
Ġkolo rysty
Ġpod wyÅ¼
O C
n nÄħ
M I
Ġsil nik
Ġmuzy ka
ĠA rt
Ġszuka Äĩ
e go
Ġza by
Ġzna nych
Ġza rzu
Ġz gÅĤa
6 5
sz er
Ġprzestrze ÅĦ
h ttp
9 5
ĠG i
Ġpraw nych
Ġpi sem
Ġwy kry
ĠÅĤat we
Ġmonta Å¼u
ĠC u
Ġfunk cje
d liwoÅĽci
Ġpowsta ÅĤ
Ġpoja zdu
Ġpoko je
z or
> <
ĠÅºrÃ³d ÅĤa
Ġideal ne
t nio
ĠWie le
Ġeme ry
Ġsamodzie lnie
ĠG rzego
M y
m na
to rek
owi n
Ġsza c
Ġorgani zacja
T Y
re gu
kowa ÅĤ
Ġpomi mo
u sza
ĠI S
Ġro syj
rza ÅĤ
ĠA ng
U L
by ÅĽmy
ĠÅº rÃ³deÅĤ
Ġod biera
Ġanali zy
Ġty godnie
Ġzaraz em
ma ni
Ġod woÅĤa
Ġdowie dzieÄĩ
Ġzre sztÄħ
dem u
ĠÅ¼a den
Ġfotogra fi
da j
sowa nych
ĠwÅĤa dzy
Ġprzo du
OW Y
t ko
Ġblo gu
cza nie
Ġban k
Ġartyku ÅĤÃ³w
Ġ Ä¹Åºe
Ġka sy
Ġinterne cie
Ġstro nach
Ġdoda tek
ĠMoÅ¼e sz
so li
ĠB ru
Ġdz wo
Ġspo soby
ch ÅĤo
owa ÅĤy
Ġgospodar ki
Ġskle pach
pe k
t z
Ġre du
rz ona
se ÅĤ
Ġu prawia
szu ka
ĠgÅĤÃ³w nej
Ġuzu peÅĤnia
ĠD ia
ĠTo ru
Ġby ÅĤem
sy sten
Ġp il
wi ona
te ro
Ġna rze
Ġmu siaÅĤa
ie ra
Ġz je
Ġw kÅĤad
Ġpodstaw owe
Ġstanowi ska
Ġsil nika
Ġosob owe
Ġ Å¼Äħ
Ġstuden tÃ³w
pie c
Ġma ni
ĠPra cy
Ġsma ku
Ġte l
Ġwy mienia
ÅĦst wem
ÅĦ ce
ĠzachÄĻ ca
ĠSzko ÅĤa
ĠJez us
Ġre al
. ),
Ġby wa
Ġfunkcjon owania
ĠB ro
Ġkom po
ĠD Äħ
ĠmÅĤo d
ĠdruÅ¼y ny
nowa ny
Ġcieka wych
Ġa kty
Ġnaj wiÄĻcej
ĠRoz po
Ġszyb ciej
Ġdrze w
Ġprodu cent
ĠksztaÅĤ t
sz li
ie ÅĤ
io ryte
ĠJa ku
Ġkonie cznoÅĽci
Ġser ce
Ġbie rze
ĠNiemie c
Ġpodej ÅĽcie
Ġa war
Ġzna ny
da p
Ġrza dko
Ġkolo rÃ³w
Ġnie m
Ġwiel kim
ĠM er
ko cha
in te
Ġme bli
Ġ4 8
ĠL ED
Ġ3 7
Ġzlo kali
Ġsp rzyja
ĠSpo tka
Å ĥ
Ġre mon
mi strz
Ġod robi
pow tarz
po pular
ĠCh cia
Ġno gi
ce s
ĠFran cji
rzy na
ĠWielko pol
korzy st
ob i
Ġzasto sowania
Ġpro sta
ĠP art
Ġkro k
Ġsaty sfak
Ġmu sie
Ġpow tÃ³
nk owe
Ġmode le
Ġwiel ki
Ġop cji
rowa ny
Ġoprogram owania
ĠTe go
t rak
Ġre habili
ĠsÅĤo d
Ġpoczu cie
ĠKo lor
ĠI T
qu e
Â »
tar ia
bi na
ĠsÅĤ owo
Ġko ÅĽcioÅĤa
Ġle gen
Ġsubstan cji
Ġpowsta ÅĤa
ĠPow sta
ÅĤu je
Ġla m
ĠFo rum
Ġprowa dziÄĩ
Ġtry bie
Ġnaz wy
ĠBan k
W o
sor ty
czo no
Ġznajdzie my
ow skich
Ġszero ko
ĠCza s
ĠB ryta
ĠU rzÄħd
Ġw szÄĻdzie
Ġu tru
Ġtra fia
Åº nia
ĠobowiÄħz kÃ³w
ĠK R
ĠM al
ĠnajwaÅ¼ niejszych
ĠH en
szo nych
Ġza sob
ĠZ obacz
Ġfor mu
ĠPra c
Ġw pÅĤa
Ġtowarzy szy
ĠFran ci
Ġra t
Ġwy ci
Ġz wycza
n kÄħ
ge nera
p ry
na stu
Ġ 01
sty cznÄħ
Ġrestau racji
ĠWin dows
201 1
ĠsÄħ sie
Ġwi na
Ġspra wach
Ġdo puszcza
Ġjakim ÅĽ
Ġdo sy
Ġ12 0
Ġprzy spie
ĠspoÅĤe cznych
ĠW iÄĻ
Ġedu kacji
Ġtermi nu
Ġra nki
Ġroz wiÄħ
Ġcia sto
ko je
Ġodpowie dniej
Ġrodzi nie
d ii
ta cje
czni ki
Ġpowie ÅĽci
dÅĤu Å¼
ĠMe dy
ĠWiel kiej
Ġza myka
ĠkrÃ³t ko
co nych
ĠM an
ĠTe le
Ġda leko
Ġg nia
nk owo
Ġsiedzi bÄħ
ĠDz ien
Ġ200 2
Ġprac ownicy
Ġzao pa
Ġodpowiedni ch
Ġod dziaÅĤy
l ow
Ġ5 5
Ġpyta ÅĦ
) )
z ki
Ġi s
Ġuroczy stoÅĽci
ĠA gen
Ġspra woz
Ġter mo
O Z
ĠZa pew
ÅĽ nikÃ³w
Ġsta ÅĤe
Ġg rÄĻ
Ġ( ...)
ĠMini stra
I G
Ġpo bu
ĠPole cam
wo ka
ĠO po
ĠZie mi
ĠobsÅĤu ga
pe l
Ġk le
sie r
Ġotrzyma ÅĤ
sa dy
Ġna wie
ĠJe steÅĽmy
Ġâ Ĩ
ĠskÅĤa dzie
Ġwnio skÃ³w
Ġowo c
Ġw zajem
Ġpew nego
Ġrobi Äħ
ĠK re
ra cjÄĻ
ĠXI X
Ġole ju
ni Å¼ej
Ġwygod ne
mowa ne
Ġ3 3
Ġ lÄĻ
Ġna tury
Ġta nie
Ġwyja ÅĽnia
Ġna leÅ¼
ĠosiÄħ gnÄħÄĩ
Ġcza sy
Ġmode li
Ġzd ra
Ġmen u
lo ntar
sÅĤu cha
li ÅĽcie
Ġli czy
Ġkonie cznie
te s
Ġtek sty
gÃ³l nie
ĠU rzÄĻ
ĠdostÄĻp na
Ġz biÃ³r
t ow
iu sza
Ġspotka niu
go rza
Ġkwo tÄĻ
Ġprzezna czony
Ġbiu ra
Ġpowia tu
Ġwy pada
Ġprezyden ta
ĠChrystu sa
ĠT ry
Ġaku mula
se l
Ġwy peÅĤnia
Ġsyste my
Ġak tor
ĠspoÅĤecze ÅĦstwa
Ġnowoczes ne
Ġzmniej sza
Ġsklep Ã³w
c s
ĠE n
9 8
Ġz wal
Ġprzy sto
Ġodpowiednie go
Ġprzy chodzi
Å¼ nej
Ġin na
ze sa
Ġser we
ĠksiÄħÅ¼ ce
Ġopera cji
ĠJe dy
Ġpre zes
Ġmog ÅĤo
ĠW Ã³j
cze ka
ĠP Z
Ġza mon
Ġna ÅĤo
Ġopi sy
Ġsu ple
Ġtowa r
Ġryzy ka
Ġwy ÅĽci
Ġpo e
ĠPo tem
ĠÅĽwiÄĻ ta
n kami
Ġsy mpa
j nym
Ġko szy
Ġu bo
Ġpomie szczenia
niÄĻ te
Ġu do
ĠNaj lep
Ġst Äħd
Ġsez onu
Ġzanie czy
ĠMa rek
ĠAkade mii
M u
ĠH er
Ġja b
Ġu dziaÅĤem
ĠOchro ny
Ġst art
w kÄĻ
su jÄħ
me s
I V
i ÅĤ
Ġwa ka
Ġszyb kie
Ġnaz wÄĻ
d wi
lo nej
ĠFa cebo
Ġa parta
ĠA gnie
lar Ã³w
ĠU r
Ġu ra
Ġza rabia
Ġzoba czy
Ġdziewczy ny
Ġza i
Ġproblem em
Ġar gu
Ġprakty ce
ĠKa mi
Ġza powie
dz two
ĠOl szty
li nie
mu jÄħc
st rak
o ku
ĠK ro
s mo
Ġzauwa Å¼y
te chni
Ġu lega
mia ru
Ġw pad
ĠG ar
Ġprowa dzone
ĠwiÄĻk szych
Ġa gre
Ġwy mo
Ġwy prze
Ġale r
dzi ÅĤy
ĠÅ¼y ci
6 7
ch an
Ġatmosfe ry
ĠZ da
Ġe x
Ġdob ro
Ġinforma cjÄĻ
j owe
ĠZ d
t rzÄħ
A B
ĠjakÄħ ÅĽ
Ġpod rÄĻ
Ġtru dnoÅĽci
, ...
ĠRze czy
logi czny
T en
ĠÅĽcia ny
owa nej
Ġpro ÅĽ
Ġs kÄħd
Ġp sa
Ġzgo dÄĻ
Ġsk rÃ³
Ġodby ÅĤo
ski mi
Ġnapisa ÅĤ
Ġprezen tuje
Ġla pto
g ier
h am
Ġref lek
Ġna pi
Ġse kre
Ġpod e
Ġpoby tu
ĠkoÅĦ cÃ³w
ĠSta ro
ĠmieszkaÅĦ cy
O sta
ĠZe spÃ³ÅĤ
Ġsam Äħ
M A
Ġsyn te
Ġmeto d
waÅ¼ nie
ĠuÅ¼y waÄĩ
cz ba
to rze
Ġwykorzysta nia
E ST
Â ®
Ġpoz by
zy wania
Å¼o nÄħ
ĠK e
Ġprecy zy
Ġcieka wy
li ng
Ġs wej
Ġkier owni
Ġmini mum
Ġpubli kacji
ĠĠ ĠĠ
ĠnarzÄĻ dzie
Ġnie powtarz
cza k
ma na
Ġniedaw no
ĠÄĩwi czeÅĦ
dzi ÅĤo
Ġt ren
Ġpra gnie
ĠobowiÄħz ek
Ġa ranÅ¼a
nali za
Ġkonsu lta
Ġbar w
Ġowo cÃ³w
Ġ2 50
Ġkata log
Ġsposob Ã³w
ĠO to
Ġda jÄħ
Ġtema tu
Ġostat niej
Ġfirm Äħ
ĠS ka
Ġogrom ne
Ġpowie trze
Ġpo jÄĻcia
Ġznajdzie cie
ĠS ÅĤowa
ĠGe nera
ĠO gÅĤo
Ġod legÅĤoÅĽci
» ¿
Ġbiu ro
Ġkul tur
ĠgÅĤ owÄĻ
ĠPra ca
Ġpa na
Ġtr wania
Ġi mieniu
Ġwido k
Ġpa miÄħ
Ġnaj szyb
Ġod de
Ġek spery
ï »¿
Ġsu ge
c ku
Ġu j
5 8
Ġodpo czy
Ġma ÅĤa
F a
Ġsztu k
G O
Ġprzedszko la
Ġwybra nych
Ġcie szyÄĩ
Ġprzy pa
Ġdokona Äĩ
S o
Ġprze ko
Ġ[ ...]
dziesiÄħ t
Ġa sorty
Ġp ÅĤ
ĠzakoÅĦ czeniu
ĠCo m
stnie je
ste ÅĽ
Ġdzieci om
cze ch
Ġzbli Å¼a
6 8
Ġprzesz ÅĤoÅĽci
A by
dze ni
dÅº mi
Ġdelika tnie
Ġnapisa Äĩ
Ġwy go
Ġwska zÃ³w
ĠA ktual
Ġna wiÄħ
ĠrÄĻ ki
Ġimpre z
lo m
Ġmo n
Ġuchwa ÅĤy
Ġdoku mentu
z jo
Ġpokaza Äĩ
t owÄħ
Ġszko dli
ĠPrzy go
Ġelektroni cznej
Ġdosta Äĩ
k l
stor ia
Ġre ko
ĠmÄĻÅ¼czy zna
s cie
Ġsma k
Ġkomplek s
te rem
d owie
sto la
Ġklu bu
Ġli mi
Ġwiel ka
Ġnawil Å¼a
Ġmo no
Ġprzetwarza nia
Ġapli ka
Ġzdo lnoÅĽci
Ñ ı
Ġspotka Äĩ
ĠuÅĽmie ch
Ġprze szko
Ġtrze cie
Ġko ÅĽci
Ġzna m
ht ml
Ġza bieg
owa no
Ġda nym
Ġra ba
ĠNiem cy
Ġp ary
ĠpiÄĻk na
ĠJa nu
li zmu
Ġpozy ska
Ġgwaran tuje
Ġproce sie
ĠZa wsze
Ġle czni
Ġfotogra f
ĠÅĽredni o
ra ÅĦ
Ġprze bie
Ġna kÅĤada
ĠMa te
ĠBoÅ¼e go
Ġmo ra
U D
Ġwy dru
Ġstwo rzy
Ġka wy
ĠdÅº wiÄĻk
Ġpowsta nia
ĠD O
Ġczar ny
ĠJa po
Ġdoda tku
dzia ÅĤÃ³w
ĠWs cho
Ġz er
ÅĤa by
owa nego
Ġod padÃ³w
wen cji
ĠÅĽrod ka
Ġzmia nÄĻ
âĢ Ķ
Ġleka rz
Ġch u
Ġbi sku
Ġcza so
ĠEle kt
Ġau tora
dz kie
Ġre dak
ĠJo h
ĠBia ÅĤo
mi Äĩ
Ġban ku
Ġbudowla nych
ÅĤu dni
Ġta be
za leÅ¼
Ġli stÄĻ
Ġsytua cjÄĻ
Ġregi onu
Ġspo r
ĠâĢ ¹
Ġdora d
W iÄĻcej
Ġemo cji
ĠwpÅĤy wu
Ġbudy nek
Ġautoma tycznie
ĠZ w
ĠV I
ĠTa de
Ġgospo da
Ġmie ÅĽci
Ġga ze
O r
ĠÅ¼yw noÅĽci
niej szÄħ
ĠnastÄĻpu je
Ġog rÃ³d
ĠÅĽmier Äĩ
Ġobie k
Ġwyso kim
Ġce chy
Ġod chu
ĠP iÄĻk
logi cznego
ĠZa wo
Ġwypo Å¼y
ĠD ie
owa ÅĤem
ĠA m
Ġzach owanie
tyw ne
p rz
Ġsta ran
sta mi
le gi
ĠsÅĤuÅ¼ by
Ġkilka naÅĽcie
Ġprzeprowa dza
Ġb ÅĤÄħd
Ġnajlep szym
Ġkosme tyki
wi ce
Ã³Åº niej
Ġprze w
da tk
ĠMa ÅĤo
Ġczy nienia
9 7
Å¼o nym
Ġwy kÅĤad
Mo Å¼e
ÅĽ lÄħ
Ġsp rowa
ĠnastÄĻpu jÄħce
Ġra dio
Ġ6 5
ĠdziaÅĤa Äĩ
Ġprzy bli
Ġpraw em
Ġzda rzenia
sk ry
Ġowo ce
ĠÅĤÄħ cznie
Ġs we
Ġprze pis
Ġs mo
ĠsÅĤuÅ¼ b
ĠPola cy
Ġwz boga
Ġprze ciÄĻ
j skim
Ġdaw na
Ġnie wi
l la
Ġod dzie
ĠÅĤÃ³ Å¼
Ġsto sowane
Å Ŀ
ĠFundu szu
ĠNa sza
ta le
tu re
H o
Ġzagro Å¼enia
la kty
Ġre mont
Ġznaj dÄħ
sz ÅĤy
iÄĻku jemy
Ġpew noÅĽÄĩ
owi ce
th er
ĠâĨ Ĵ
tr io
Ġzy sku
Ġwz Ã³r
Ġkli mat
Ġmili onÃ³w
ĠwÄĻ d
Ġatrak cji
Ġre sz
ĠR zy
tu i
Ġop ÅĤat
ÅĤy mi
Ġra d
Ġskar b
Ġo czu
Ġprzestrze ga
Ġz nik
ĠpielÄĻgna cji
ĠbezpoÅĽ re
Ġzda nie
ĠP rowa
Ġa kade
kie dy
ĠpiÄĻk ny
Ġcu kier
Ġty ÅĤu
Ġlu dÅºmi
Ġtu dzieÅ¼
6 6
Ġkwia ty
ĠuÅ¼y tku
Ġwy ÅĤo
Ġtra sy
ĠopÅĤa ca
Ġobie kty
ĠNiem czech
ĠJ ÄĻ
cyj no
Ġzosta li
tu rÄħ
ĠZ u
Ġzie m
Ġce rami
Ġobser w
kowa niu
ĠC D
e la
Ġusta lenia
Ġochro nie
ĠskÅĤada nia
Ġw prost
em o
ni ctwa
Ġc menta
ni ÅĤa
ĠÅĤa dnie
nt ro
Ġsi ÅĤÄĻ
Ġprzedmio tu
Ġsre br
Ġba daw
Ġwo dzie
Ġpara fii
sowa na
lo gie
Ġglo ba
ĠzaÅĤo Å¼enia
Ġkwest ia
ĠâĢ¹ âĢº
Ġprzy jÄĻcia
ĠuwaÅ¼a m
Pro du
\\ \\
ĠrÄħ k
Ġba weÅĤ
ĠMar cin
Ġsce nar
si on
Ġdo k
âĢ ľ
nika ch
nu jÄħc
Ġo kien
ce um
% ,
Ġwyda nia
Ġczyn nikÃ³w
Ġpo du
Ġ \
Ġin nÄħ
Ġmie liÅĽmy
ĠwaÅ¼ na
nio nym
dÅĤu go
ĠG ÅĤo
le na
Ġod pa
Ġpoda je
tÃ³ Å¼
Ġzrozumie Äĩ
Ġmaszy ny
rze c
Ġkampa nii
pow szech
ĠDa ta
Ġza ÅĤat
Ġko lum
ru s
Ġregular nie
Ġrejestra cji
Ġno si
Ġofer tÄħ
Ġza powiada
Ġza stÄħpi
Ġw or
le niem
mi strza
Ġza mawia
Ġob rÄĻ
Ġmini ster
Ġkon figu
5 7
D ru
ĠPO L
sÅĤ ownie
ow skie
Ġg re
Ġprzej ÅĽÄĩ
Ġho dow
cyj nymi
Ġta le
go dzi
o no
B i
Ġpo Å¼ar
Ġlub el
Ġwy su
Ġnad mier
ĠK li
rÃ³w na
ko ma
Ġrodzi na
Ġwyposa Å¼one
Ġob cho
ĠskÃ³ rze
Ġciep ÅĤo
Ġzapo mina
ĠJa kie
Ġo skar
bie rze
ĠgÅĤÃ³w nych
p ÅĤo
Ð° Ð
ĠksiÄĻ g
Ġrobo ty
Ġprzyczy ny
Ġ rzÄĻ
ĠW szyscy
Ġum owÄĻ
Ġsz u
ĠMi ÅĤo
ĠEuropej skiego
ĠrÄĻ kÄĻ
Ġsta cjonar
G A
Ġzapozna nia
Ġczwar tek
Ġloka lnych
Ġsko ÅĦczy
Ġprzyzna Äĩ
Ġpo ÅĤ
ĠKa li
Ġwi dzia
Ġserwi sie
ÅĽwiad czenie
Ġwykona niu
ĠP S
ĠI nd
ie s
ĠWie lka
Ġwe ry
Ġpisa Äĩ
Ġokoli cach
Ġza ska
Ġ3 4
Ġloka lu
Ġsko nta
Ġmo tory
da n
Ġdeko ra
Ġdosy Äĩ
spo rt
ĠwspÃ³ÅĤpra c
owa ÅĤam
Ġuszko dzenia
Ġtry b
ĠCie ka
Ġu leg
wi c
d ÅĤem
ni li
Ġpa suje
Ġsi Ãª
Ġo tacza
ob o
Ġprzysz ÅĤoÅĽÄĩ
ĠMa zowie
ĠdziaÅĤa jÄħ
KaÅ¼ dy
Ġodpowiedni Äħ
wÄħ tp
Ġdrze wa
ĠÅļ wie
Ġsku pia
Ġprzedmio tÃ³w
Ġnatura lny
Ġinternet owe
ĠwaÅ¼ ny
Ġmo derni
ĠPrzed siÄĻbior
s my
ĠÅ» a
ĠG ry
Ġpry sz
stro nomi
e d
ĠNa d
Ġce bu
le Äĩ
ĠS pa
Ġgodzi nÄĻ
Ġkolo ru
h en
Ġrado ÅĽci
Ġpa ÅĤa
g Ã³r
za cjÄħ
Ġwyso ki
Ġfor m
ĠÅĽ mia
Ġsz er
i ne
d owÄħ
ĠDob rze
Ġni by
Ġli kwi
ĠN owe
ĠÅĽ wi
Ġprze szka
ĠZ y
Ġmeto dÄħ
ĠpoÅĤÄħ czeniu
L E
Ġz mo
ĠpiÄĻ ciu
Ġspecjali stÃ³w
ci ÅĽnie
Ġru szy
ĠDo stÄĻp
ĠMo del
Ġponad to
w ny
ĠTwo im
Ġpi lo
Ġludzi om
Ġponie dziaÅĤek
Ġsytua cjach
K u
Ġwyro bÃ³w
Ġabso lwen
Ġszero ki
Ġroze gra
ĠO zna
ĠPe ÅĤ
ĠKrak owa
ĠÅļwia t
Ġrekla my
Ġ nego
we la
prze wo
k r
Ġwy staw
Ġza g
ka z
ĠÅĽwia domoÅĽÄĩ
towa no
Ġprzyjem noÅĽÄĩ
Ġkraj obraz
Ġk r
ĠsÅĤa bo
Ġwi rtu
Ġwz bu
Ġjaka ÅĽ
Ġwitami ny
wie c
ĠSzcze ci
nio nego
Ġkwali fika
dz wo
l grzy
8 8
Ġpar king
iu szy
Ġfor mÄĻ
Ġpart ii
Ġtwo rzenie
Ġzw rÃ³ci
Ġma ÅĤej
ĠwiÄĻk sza
ĠBÄĻ dzie
Ġznaj dowa
ko nie
Ġsty li
ra m
D F
ĠwÅĤaÅĽci ciel
Ġsymbo li
Ġznajo mych
Ġtechni ki
bi le
Ġpor tal
Ġpacje nta
Ġzawo dÃ³w
sze niem
Ġce ch
Ġwycie czki
Ġzabu rzenia
n owania
5 9
Ġgra czy
sz czony
Ġobja wy
R E
Ġte ore
Ġlubi Äħ
ĠStani sÅĤaw
a a
Ġwy co
Ġwyra Åº
ĠP ary
Ġzasa dni
st rÃ³w
Ġ200 1
ĠCh ce
Ġgabi ne
ta ÅĦ
ĠMy ÅĽlÄĻ
nie niu
U N
Ġsta le
Ġwyda wni
ĠosiÄħgniÄĻ cia
lo ga
ĠDo skona
U T
Ġprzyczy n
o p
ĠWsp Ã³l
B ez
Ġnie s
Ġhi gie
ĠzaÅĤo Å¼y
Ġro bÃ³
Ġnaz wie
ĠHi szpa
ĠpamiÄĻ tam
Ġko l
kie ru
ĠPamiÄĻ taj
Ġod mie
ĠÅĽrodowi sko
ĠZwiÄħz ku
Ø §
Ì ģ
Ġw krÃ³tce
cza jÄħ
tÅĤu ma
rÃ³Å¼ nic
niesie niu
s ne
Ġze gar
ie ry
Ġtransa kcji
te st
Wszyst kie
Ġja j
Ġk Ã³ÅĤ
dnie niem
ĠciÄĻÅ¼ ar
ĠAnd rze
Ġoj ca
Ġsamo rzÄħd
Ġz bu
ĠÅĽwie t
dÄħ c
Ġuczest nicy
Ġwyposa Å¼ony
ĠE ner
Ġin Å¼ynie
Ġpozy cjÄĻ
Å¼ nych
g ni
Ġgra nicy
Ġko d
czo ÅĽÄĩ
Ġw rzu
Ġczy taj
Ġdzie siÄħ
Ġkandyda tÃ³w
Ġod twarza
ĠPowia tu
ĠNe w
Ġpo si
Ñ ĭ
ĠWo j
Ġpa ÅĦstwo
Ġinsta la
ĠWojcie ch
C za
Ġspek tak
ĠmiesiÄħ cu
Ġsystem em
h y
ta Å¼
Ġla bora
k se
fina n
Ġpa kie
Ġwizy ty
ĠStowarzy szenie
ĠÅĽwie Å¼y
Ġmniej sze
Ġturniej u
Ġja po
un d
ĠV e
ĠwiÄħ Å¼e
Ġpozosta ÅĤe
ĠCh yba
Ġp en
Ġpol ska
Ġwieczo rem
ĠS tro
Ġ6 00
ĠW nio
Ġadre sem
Ġkolej nym
Ġdo tk
ĠprÃ³ by
Ġ4 2
Ġsk Ã³r
ĠA ni
Ġ3 9
Ġu sy
Ġnet to
Ġk e
Ġko ÅĤa
Ġroz strzy
Ġemo cje
daw cÃ³w
ĠTwo ich
Ġwy sp
Ġba danie
C ie
ĠprzedsiÄĻbior stw
Ġkolej na
ĠÅºrÃ³d ÅĤo
Ġzaprasza m
ĠTwo ja
Ġkon fli
Ġdru kar
bu dowy
Ġbizne su
" :
Ġbez robo
Ġprzepisa mi
Ġnatura lnych
ĠksztaÅĤ cenia
Ġprze gra
ka zuje
Ã ¼
wia do
Ġza twier
Ġinforma cja
Ġbu tel
ĠbrÄħ z
x i
ĠobsÅĤu gÄĻ
Ġje dzenie
Ġobywa tel
Ġfa bu
Ġp ÅĤu
Ġza s
ĠpamiÄĻ ta
Ġe t
ĠPol skÄĻ
ĠZjedno czonych
Ġpie kar
Ġartyku ÅĤu
ĠuÅ¼y te
Ġkolej nÄħ
r ia
Ġwyna gro
ĠspoÅĤe czne
ĠGdy by
ĠPod obnie
Ġwy naj
Ġdokumenta cji
Ġt ÅĤo
Ġbe ton
ĠtoÅ¼ sa
Ġbie gu
ĠMa gda
L U
ĠB io
Ġm Ã³c
u rea
Ġpomieszcze ÅĦ
l f
Ġtaki mi
ĠFunda cji
Ġma tema
nio sÅĤa
ÅĤÄħ cznik
Ġczu je
dz iÄĻk
Ġogro dzenia
Ġgrani cÄħ
ĠRo sja
ÄĤÅĤ w
Ġsen su
g dzie
ÅĽwia do
ĠO ferujemy
ste ro
Ġzapo mnia
Ġniespo dzia
Ġostate cznie
Ġle Å¼y
Ġd ekla
Ġa ma
my ÅĽla
S e
Ġzre zyg
nio nej
ĠNa sz
ĠokreÅĽ lone
Ġkli k
bi n
Ġst owarzy
Ġma tki
ĠK lient
Ì ¨
ĠCen tra
Ġdosta wy
Ġzie mnia
Ġwyposa Å¼enia
Ġroz mÃ³w
ĠNa ro
Ġpo cie
Z E
ĠwiÄĻk szy
Ġotrzy muje
do n
Ġju tro
ĠzwiÄħz ek
ĠstÃ³ p
Ġdziec kiem
tu j
strzy ma
Ġle kÃ³w
Ġsto py
Ġza cznie
du jemy
Ġzabie gu
ĠSt re
ĠO bie
Ġzapewnia jÄħ
Ġpa s
Ġstar szych
ĠSk lep
Ġwykorzysta niem
Ġznalaz ÅĤ
towa li
Ġnau kow
Ġdo pu
L A
sy cho
ĠRzeczy pospolitej
wi d
ĠwspÃ³ÅĤpra cÄĻ
Ġtema cie
ĠMo je
Ġtowa ru
Ġprze chodzi
Ġbi Å¼u
ĠuwzglÄĻ dnia
bo ru
ĠDzi siaj
po ko
ĠMaÅĤ gorza
lo no
Ġdzia ÅĤki
l owania
Ġzach owaÄĩ
f iÄĻ
ĠPier wszy
Ġtempera tura
v el
Ġko misji
niesie nie
Ġdz iu
ĠwystÄĻpu jÄħ
Ġwy rzu
Ġprojek cie
Åº li
cha mi
Ġco s
201 0
go n
ĠzaczÄĻ ÅĤa
Ġna pa
Ġro man
Ġod rzu
Ġz dÄħ
Ġpojawi ÅĤ
ä ¸
ĠksztaÅĤ cie
Ġzatru dnienia
Ġi ÅĽÄĩ
i ny
Ġogrom nÄħ
ĠKaÅ¼ da
Ġzrobi ÅĤ
Ġeta p
Ġmia ste
z nÄĻ
Ġda le
7 7
ĠMu si
ĠE mi
Ġdem ok
x y
ĠÅģ Äħ
Ġani ma
Ġkomu ni
Ġsamocho dy
Ġdy scypli
Ġwymaga jÄħ
r owo
dza j
Ġcy try
Ġle wej
al na
Ġprze bywa
ma tyczne
Ġulu bi
Ġzada niem
Ġpro gno
Ġna w
Ġsport owe
ĠTo m
li t
Ġmi strz
Ġbudowla ne
Ġtrady cji
l k
Ġarchi tek
Ġ lÄħ
ĠkaÅ¼ demu
ĠMa tki
li p
ĠwiÄħ za
Ġcu kru
Ġza biera
Ġk rak
Ġna wiÄħza
Ġg ril
U P
Ġna ra
ĠA meryka
Ġtowarzy szÄħ
ĠPo niewaÅ¼
Ġwy ma
ĠJ or
ĠPro szÄĻ
ĀĀ ĀĀ
Ġra j
Ġpod stawy
en t
owa nym
ĠKo dek
Ġnaj popular
Ġhu rt
Ġry b
ĠTu taj
Ġ4 6
Ġwypowie dzi
ĠK owa
Ġzakup Ã³w
Ġbi le
Ġkorzysta nie
ca Äĩ
Ġpro kura
Ġma jÄħc
5 2
ow skim
Ġszko ÅĤa
Ġwyko nuje
Ġzoba cz
sz ku
Ġobec noÅĽci
Ġk t
Ġrze Åº
Ġba sen
Ġm ld
Ġutrzy my
Ġe pi
Ġdecy duje
ĠO krÄĻ
czÄħ cych
Ġucze lni
bi gnie
Ġre wolu
Ġpro pa
Ġartyku ÅĤy
ĠA mery
Ġ Ä¹
Ġko pa
me tra
Ġz maga
ni tar
god ne
Ġwo lny
wia nia
ĠHo tel
h ar
Ġzna k
Ġdecy zja
Ġprzyro dy
szcze ÅĦ
Ġklien tom
Ġedy cja
Ġwej ÅĽÄĩ
ĠA b
Ã ±
Ġbry ty
Ġakade mi
Ġtechni cznych
Ġkuch nia
Ġprzy nosi
ĠzakoÅĦ czenie
w nej
zm em
ĠczÄĻsto t
k m
Ġlu ksu
Ġrozumie m
dzo nym
sty cznie
Ġroz dziel
I Äĺ
sza k
ĠchociaÅ¼ by
ĠDo mu
Ġle ki
owu jÄħc
Ġcie szÄħ
s na
Ġre kor
ĠuÅ¼ytk ownik
b rew
Ġu szcze
ĠMateria ÅĤ
Ġma ma
ĠJÃ³ze f
Ġzagrani cznych
zie nia
Ġpodmio tÃ³w
po mnia
Å¼ ni
Ġgwia zd
ĠÅĽwia de
ĠÅĤa ÅĦcu
å ¤
zu jÄħce
Ġzwo lnie
ĠZespo ÅĤu
5 4
Ġostatnie go
Ġd niem
Ġob rÃ³b
Ġu lo
Ġusta la
Ġprze biega
Ġnowoczes nych
Z d
ĠpeÅĤ nym
Ġra di
ĠS ty
ĠWiÄĻ c
K O
Ġsy na
g res
Ġpar ku
ĠkÄħ tem
Ġprezyden t
ĠJe rzy
Ġz rÃ³Å¼nic
ĠWy dziaÅĤu
ĠwÅĤas noÅĽci
Ġob wo
nia jÄħ
ĠKo ÅĽciÃ³ÅĤ
s owego
Ġprze by
U chwaÅĤa
ĠsprÃ³b owaÄĩ
Ġz io
ĠM Ã³w
g Ã³ÅĤ
ĠG or
Ġwy k
inte g
Ġbohater Ã³w
Ġod se
Ġspecja lnych
ĠðŁĺ ī
Ġzabezpie czenia
zowa nego
Ġkosz tuje
ĠMia sto
de s
Ġs ch
Ġpr ioryte
Ġwido czne
Ġokaza Äĩ
wo li
Ġlep szy
Ġor ien
Ġtury stÃ³w
Ġprzewi dzia
y o
ĠT h
ĠCzÄĻ ÅĽÄĩ
b Ã³j
Ġmi strzo
T R
ĠgÃ³ rÄĻ
ÅĤ owych
Ġzawar te
Ġbezpie czne
Ġniem ow
W ÅĤa
Ġnieza wo
Ġch mu
Ġbia ÅĤy
ĠsÄħ d
Ġspod oba
Ġpali wa
Ġczy tel
Ġpo ciÄħ
ĠKa na
men da
w skim
ĠUS B
lowa ny
Ġkier owcy
ĠÅĽrodowi sku
EN IE
Ġda ch
Ġmusie li
Ġa no
Ġli nk
Ġf al
sze l
ĠÅģÃ³ dÅº
Ġpowo dÃ³w
Ġna ru
Ġz ÅĤÄħ
nÄĻ li
Ġseku nd
ÅĽci ÅĤ
Ġpa trzy
Ġfak tu
ĠpamiÄĻ Äĩ
Ġsp rÄĻ
ne s
Ġpro mieni
Ġcho le
Ġniko go
ĠÅļ wi
ĠNarod owego
ĠnajwiÄĻk sze
Ġk ÅĤa
Ġ199 7
Ġsport owych
re t
l owanie
Ġnie pra
Ġfa jnie
Ġz gi
Ġw dziÄĻ
ĠG min
Ġkra wÄĻ
Ġle ÅĽ
Ġda ty
Ġa lar
Ġprawdzi we
re d
sza nia
mi nowa
powa Å¼
Ġtera pii
Ġwyda nie
ĠA da
Ġo ÅĽ
ĠWÅĤa dy
Ġpa ch
Je stem
Ġsz czo
ĠprzedsiÄĻbior cÃ³w
fika cja
un ki
Ġprogra my
Ġszyb ki
ĠRa do
Ġdwo ma
Ġproce sÃ³w
ĠwÄħ tro
Ġba b
AN IA
Ġba na
ĠR Ã³Å¼
Ġumie szcza
li ki
Ġk lo
Ġszko da
Ġ: :
Ġkolej noÅĽci
Ġdziew czyna
Ġwykorzysta nie
Ġfotogra fii
ĠwyglÄħda Äĩ
Ġo jciec
Ġprac ownik
ĠSta n
Ġsta jÄħ
Ġe po
ĠmÃ³gÅĤ by
Ġu jÄĻ
ĠÅ¼y dow
cz kach
so na
ĠrobÃ³ t
mi mo
Ġsto sowanie
Ġrodza je
Ġprzy stÄĻp
ĠÅĽwiad czy
Ġwa gi
Ġaktual nie
Ġka pÅĤa
Ġwyj ÅĽcia
ĠW iÄĻkszoÅĽÄĩ
ni owej
Ġnazwi sko
ĠPo czÄħ
Ġgra Äĩ
Ġg waÅĤ
po mor
Ġspra wiajÄħ
ĠZ o
Ġzrozu mia
C E
Ġza mek
Ġnie moÅ¼li
ĠPo mocy
ĠÅĽ rodek
Ġnaz wÄħ
Ġp l
cze kaÄĩ
ĠoglÄħ daÄĩ
Ġza pisy
sie ÅĦ
Ġangiel skiego
Ġochro nÄĻ
kow ska
wi ÅĤa
ĠzdjÄĻ ciu
ĠB or
Ġpowie dziaÅĤa
Ġpocho dzenia
ĠGdaÅĦ sku
Ġwal ce
ĠS ÅĤa
Ġsk ÅĤo
Ġzapo trzeb
Ġra tu
ĠroÅĽli ny
ska mi
s me
Ġalterna tyw
Ġhand l
Ġpo sa
Ġstosu nkowo
Ġpropozy cji
Ġwyna grodzenia
Ġod rÄĻb
ĠÅĽrodowi sk
or dyna
Ġtygod nia
Ġma lar
Ġg lu
Ġwielo krotnie
str ia
ĠpÅĤy t
ĠSÄħ d
k g
Ġg ieÅĤ
Ġ4 7
Ġsk rÄĻ
Ġsta re
g owej
sp er
Ġma ÅĤym
Ġprzy ciÄħga
Ġzawar toÅĽci
Ġde fini
Ġsp rzÄħ
Ġap te
jecha ÅĤ
Ġbior Äħ
ĠWydaw nictwo
gra fii
cza Äĩ
w nych
Ġkosme tykÃ³w
cha ch
Ġre zy
Ġcookie s
Ġs te
Ġ4 9
ĠE d
ĠnajwiÄĻk szÄħ
Ġze sz
n ko
Ġrado ÅĽÄĩ
Ġner w
Ġzawiera jÄħ
ĠmÃ³z gu
ku l
Ġobie kt
Ġw pa
ĠszczÄĻ ÅĽcia
Ġdz iÄĻkujÄĻ
Ġpraw dÄĻ
Ġo ÅĽwia
so le
âĢ¦ âĢ¦
Ġwenty la
ow ne
Ġbru tto
Ġpara fia
T he
Ġwy ciÄħg
ĠGru pa
ĠreÅ¼y ser
Ġpozytyw nie
L o
Ġmoni to
ĠSpraw dÅº
Ġwykorzysty wane
dni ch
Ġwy ku
zd ro
Ġsze ÅĽÄĩ
Ġeg zem
ĠSpoÅĤe cznej
Ġotrzyma Äĩ
Ġop Ã³Åº
to nu
Ġde szcz
ĠrÄĻ cznie
Ġpla ka
po m
ĠmÄħ Å¼
Ġsen s
Ġwo lontar
fa ÅĤ
ra d
Ġcharak teru
Ġch wy
kow skiego
Ġprze piÄĻk
ĠZa le
p r
Ġprzeczy taÄĩ
ĠIz ra
ĠTe chni
in k
dzi sz
Ġ owa
te cznie
ĠWÅĤa ÅĽci
5 1
ĠwyglÄħda jÄħ
dra Å¼a
] ,
L D
ĠS A
Ã ¶
ĠGdaÅĦ sk
Ġspa cer
f al
Ġwy dzie
wa gi
kre ÅĽ
ĠPa w
ĠTa ki
go sÅĤa
Ġtry bu
cz noÅĽciÄħ
Ġwi no
nia k
ĠGa ler
ĠB ry
Ġsto licy
Ġfa ÅĤ
Ġprze mie
Ġra cji
Ġkonser wa
Ġprzedstawi cieli
OW E
ĠS Z
Ġdoj rza
Ġle Å¼Äħ
ĠpeÅĤ na
cia mi
nie si
ĠGÅĤÃ³w na
czÄħ ce
k lej
Ġpo u
Ġunik nÄħÄĩ
Ġprze ksztaÅĤ
j nÄħ
Ġpo prowa
Ġzwro tu
Ġwra Å¼li
Ġsie Äĩ
Ġczeka Äĩ
Ġrela cje
ja mi
ÅĤoÅĽci Äħ
Ġfar ma
t owo
Ġwz dÅĤuÅ¼
ni sa
ĠB al
Ġprze bieg
Ġme ry
Ġro ÅĽnie
Ġz bo
Ġprzedstawi ciele
Ġtre ÅĽÄĩ
Ġzaintere sowania
Ġtelewi zy
Ġfizy cznych
Ġme da
ĠPodstaw owej
Ġwy miar
Ġza spo
ĠE UR
Ġby c
ĠGÃ³ ra
ĠD osta
Ġ: -)
Ġperspekty wy
Ġprze le
Ġpo stu
Ġt i
Ġpra wej
EG O
Ġch roni
ĠPo sta
Ġprzypad kÃ³w
ĠO sob
Ġobej mu
ter min
st rÃ³j
Ġpiosen ki
men tach
Ġrach unk
cjon owanie
ĠMi cro
Ġpod o
Ġwiadomo ÅĽÄĩ
Ġdzie ÅĤa
ĠP ÅĤo
ĠzÅĤo Å¼yÄĩ
ĠJed nym
rza ch
Ġst ÄĻ
5 3
ra b
rzy ÅĤo
ĠLo ka
Ġobser wa
Ġma i
Ġkonsu l
Ġpropozy cje
ĠbieÅ¼Äħ co
Ġbli Å¼ej
m s
ĠNa zwa
Ġindywidual ne
Ġzaintere sowanie
ĠInstytu t
AN IE
ĠZdr owia
Ġw torek
Ġau dy
ci li
Ġprzy kry
ĠA li
Ġwprowa dzenia
ĠgÅĤa d
S to
Ġczy taÄĩ
Ġkry ter
Ġodby ÅĤy
pi suje
ĠwÄħ t
Ġstanowi Äĩ
ĠÅļwiÄĻ tego
ĠBez pie
od por
pa mi
Ġzdoby Äĩ
ĠB rze
ĠkrÃ³t kim
tio nal
Ġpa nie
ĠKo ÅĽcie
ĠH y
Ġwy produ
Ġszan se
Ġwymaga ÅĦ
ak cep
ĠzÅĤo Å¼enia
f fi
Ġzapozna Äĩ
Ġra por
Ġroz sÄħ
ĠzamÃ³wie ÅĦ
ĠZ bignie
Ġmoni tor
ĠIn we
Ġwyso ka
ran d
nio no
Ġod szko
Ġprzy tu
Ġos ÅĤo
Ġwy stÄħpienia
log iÄĻ
Ġgru nt
ĠL ek
ĠÅ¼ ar
Ðµ Ð
re nt
G B
z wycza
st ia
nu jÄĻ
ĠuÅ¼y Äĩ
Ġry t
wia d
Ġrekla m
x a
ĠpeÅĤ en
ĠzÄĻ bÃ³w
Ġdo zna
ĠÅģ u
ĠTe chno
Ġczu Äĩ
waj car
ĠÅĽwiÄħ ty
Ġpaznok ci
ĠKatowi cach
Ġpowszech nie
ĠdoÅĽwiad czeniem
Ġkontek ÅĽcie
ĠrozpoczÄħ ÅĤ
js kÄħ
Ġpo kro
prowa dza
ĠwÅĤa dz
ĠPro fe
Ġpro por
Ġmaksyma lnie
m ki
cz ku
ĠB rak
Ġma rek
ĠN owym
ĠM A
Ġszcze rze
Ġi mi
Ġpli ki
qu a
ĠprÄĻd koÅĽci
Ġsa ÅĤa
wali fikowa
ĠsÄħ sia
Ġda ÅĤ
ĠInforma cje
Ġdysku sji
Ġdo larÃ³w
Ġd Ã³ÅĤ
ĠS ku
ĠTym czasem
Ġwa ha
Ġemo cjona
al nie
Ġsku tek
Ġposiada Äĩ
Ġkuli nar
Ġeg zy
Ġtrenin gu
Ġkla sie
ĠPrze cieÅ¼
Ġs pada
ĠK ier
ĠF ir
l ku
9 6
nowi cie
ska wi
ru jÄħ
Ġleka rzy
Ġwyposa Å¼enie
Ġsie dem
Ġnume rem
ĠpeÅĤ nej
Ġegzem pla
ÅĦ cy
nd ard
Ġreje stru
ĠÅºrÃ³d ÅĤem
tora mi
ĠDa ne
ĠA G
Ġkur su
Ġprezen tacji
Ġmi ja
Dzi ÅĽ
le kt
Ġk ru
Ġz wi
Ġ @
ĠwpÅĤy wem
cz kami
dz kiego
G ra
tra fi
mi k
I R
à ¸
ĠwÅĤa dze
Ġloka li
niÄĻ ty
men tami
ĠPro je
Ġgo towe
ĠPar k
ĠniepeÅĤnospraw nych
Ġzawod owych
Ġotrzy my
Ġwarun kiem
Ġre genera
cj om
Ġpa da
Ġpodstaw owej
Ġobec noÅĽÄĩ
ÅĽli ÅĤ
Ġpo peÅĤ
H i
praw dopod
Ġzam k
J E
OW A
ty na
S S
ĠÅĽwiad czeÅĦ
ĠnapiÄĻ cia
g lo
Ġprze tr
Ġsukce su
8 5
ĠdoÅĽwiad czeÅĦ
zie nie
nie niem
Ġobej rzeÄĩ
Ġmo zna
8 3
Ġszpita la
Ġso cja
D R
Ġza prze
Ġhipo te
Ġpla ny
Ġwy dÅĤu
Ġadministra cji
ĠkrÃ³ tki
Ġpla cu
Ġwarzy w
Ġza licza
li o
ĠPo ra
Ġcz Äħ
on ki
ĠÅ¼y je
k ÅĤ
Ġtelewi zji
ĠPrze de
ĠchciaÅĤ bym
Ġpowie trzu
ĠZ godnie
t ri
z ka
ĠPoli cji
ĠMa cie
Ġosob ie
ĠC zu
spo nden
ta s
ĠZa rzÄħdza
lo ÅĽÄĩ
ĠV a
Ġtranspo r
Ġzauwa Å¼yÄĩ
Ġopi su
ĠÅ¼ycie m
Ġu mowa
Ġpozosta wia
ro i
Ġos ÅĤa
Ġchi rur
Ġhi szpa
Ġzamieszka nia
Ġokre ÅĽliÄĩ
Ġsz ta
Ġok ra
Ġpoinfor mowa
Ġdie ta
Ġnau kowych
ĠkrÃ³ l
Ġwej ÅĽcia
Ñ Į
Ġnar ciar
Ġewentual nie
Ġbie li
rz chni
Ġbud owie
dy cha
Ġinterne tu
Ġposiada my
Ġpar ty
Ġmery tory
Ġmiasta ch
s nÄħÄĩ
Ġzadba Äĩ
Ġjedno li
ce niu
ÅĤ ko
ÅĤ ku
ĠG li
Ġwiel kich
Ġstwo rzenie
g owych
Ã³ ra
niu m
Ġsza f
Ġwykorzystu je
Ġwo lne
Ġodw ro
Ġkwia tÃ³w
Ġinternet owego
Ġb en
dzie siÄĻ
Ġwyj ÅĽÄĩ
ro st
k sa
Ġpo ÅĤowy
D ob
Ġza bi
Ġje dzenia
Ġre krea
Ġpojem noÅĽci
wÅĤa ÅĽci
dni cy
ter ie
Ġprywa tnych
ni owy
Ġhor mo
Ġszko lenie
ĠJa cek
kar pa
ĠIn sta
ĠWy Å¼
u se
ĠO P
z ek
P la
ĠSzcze gÃ³lnie
ĠwyÅ¼ sze
ĠnajmÅĤod szych
ĠO ÅĽrodek
sza nie
Ġwybo rze
ĠD ra
ĠTa ka
U K
ĠKon su
ĠG imna
Ġ0 9
S za
Ġtra sie
Ġpropozy cja
Ġa tu
wa nej
Ġoka zja
Ġg li
ĠwspÃ³l ne
Ġma il
Ġ4 4
Ġo mawia
S prze
Ġprzy ÅĤÄħ
Ġzawar toÅĽÄĩ
Ġnie ma
Ġce nach
nt i
ĠÅĽwiÄĻ to
ch ia
Ġnieo grani
t ta
Ġam bi
Ġmeto da
pi ng
ĠLi czba
ÅĤo Å¼y
Ġwi dz
ĠPo mo
ĠR ej
Ġnad ru
ĠnajwiÄĻk szym
ĠBryta nii
K siÄħ
ĠKatowi ce
Ġkro ku
Ġporo zumie
Ġs cenie
ĠWy ko
Ġli sta
ĠÅļwiÄĻ to
niÄĻ ciu
Ġsp Ã³j
wa no
Ġklucz owe
Ġpojawi ÅĤy
ĠgÅĤÃ³w ne
ĠÅĽwie tny
czu cie
Ġwi ru
ĠSz we
ĠogÃ³l nie
ĠJÃ³ze fa
Ġpraw ne
Ġpoko i
po sa
Ġmi l
ĠÅĽwie Å¼o
Ġfan Ã³w
p tu
Ġzaba wa
Ġdziec ku
Ġkom Ã³rek
ĠInstytu tu
ĠT rÃ³j
Ġwysta wy
leÅ¼ an
Ġroz mai
dz twa
Ġa dap
Ġme diÃ³w
ĠsÅĤy sza
Ġzaczyna jÄħ
Ġza ry
Ġlo s
Ġcie pÅĤy
ĠIn ne
ĠPio tra
ĠogÃ³l no
Ġna dzo
al nych
Ġodpowiedzia lnoÅĽÄĩ
ĠCz ÅĤo
ĠÅĽwia domoÅĽci
no szenia
ĠBan ku
Ġbia ÅĤe
Ġtre ner
Ġ18 0
ĠP owo
wa nego
Ġsamo po
Ġchwi le
Ġzawod owe
czy ÅĤem
Ġwyraz i
rzy ÅĤa
po ra
Ġpo dziÄĻk
Ġchcia ÅĤa
ĠZa rzÄħd
Ġcieka wo
tu jÄĻ
s se
stu je
Ġwyszuki war
Ġprzygotowa ne
ĠInterne tu
Ġpopular ne
towa niu
ĠT rzy
ĠZa kÅĤad
gra fia
Ġkwa dra
d f
Ġstra sznie
Ġdoku ment
Ġnau czania
ĠÅĽrod ÄĻ
Ġ rzÄħdu
Ġpre sti
Ġwy two
t ter
ci k
Ġo czach
ĠS il
ĠbÅĤÄĻ dÃ³w
Pro jekt
Ġmar y
Ġklien ci
ĠP ÅĤy
cze ÅĦstwo
Ġz wyczaj
D y
owe m
Ġzdr owe
Ġumy sÅĤ
ĠBy Äĩ
Ġp n
ĠCho dzi
Åģ A
ĠsÅĤo ÅĦca
Ġprzyczy nÄħ
ĠSze ro
Ġnag rÃ³d
Ġ Å¼u
le y
6 4
Ġpo par
D u
Ġwiecz Ã³r
ĠRe je
H z
Ġpla Å¼y
Ġmi o
ĠwnÄĻ trze
Ġubra nia
Ġjedno raz
iu sze
f an
Ġdoda tkiem
Ġkilo metrÃ³w
Ġzdo bywa
Ġregu ÅĤy
Ġinte rak
Ġli cznych
Ġak cja
rowa na
ĠP r
tera pii
Ġuczu cie
ĠsÄĻ dzi
ĠS K
H P
ĠO soby
Ġjedy ny
ĠtysiÄħ ce
Ġczu jÄĻ
Ġlikwi da
Ġko ÅĽciÃ³ÅĤ
Ġdo leg
ĠpoÅĤo Å¼ony
ĠPa nie
Ġle ga
Ġzasa dach
so ra
Ġo kÅĤad
si u
ĠS ÅĤ
ra l
Ġprak tyczne
Ġma zowie
Ġwyja ÅĽnie
Ġek ran
Ġfry zje
su r
Ġwer sjÄĻ
ki n
ka rz
K om
budowa ny
ĠH an
ĠkoÅĽcie le
wi ga
Ġutrzyma nia
Ġa wan
ĠobrÄĻ bie
czes ne
n ty
ĠgÅĤo sÃ³w
Ġdoskona ÅĤe
Ġ ..
Ġsalo nu
ĠCho ciaÅ¼
Â ¼
cze ÅĦstwa
kowa no
Ġwo lnego
ĠT obie
Ġpo strzega
ĠBy ÅĤo
C ze
dzi liÅĽmy
Ġ4 3
Ġpa nu
Ġ ).
po sto
Ġnau ka
Ġdom owych
ĠzgÅĤo szenia
si ng
ĠSk le
Ġre j
ĠKlien tÃ³w
ĠZa m
Ġpomy sÅĤy
Ġwiecz or
ĠWÅĤa ÅĽnie
ĠÅļrod owiska
wia r
Ġrozpo rzÄħdzenia
Ġcieka wa
ÅĦ sko
ĠobowiÄħz ku
ka dem
Ġpowo dzeniem
czy cy
wa ÅĤem
g owego
ÅĤy ÅĽmy
Ġzao fer
p Äħ
ĠmÄĻ Å¼a
Ġpo miar
Ġdrewnia ne
n owanie
ĠniektÃ³ rzy
In forma
Ġhu mo
Ġcho rych
Ġga dÅ¼e
Ġnatura lnego
ĠP ri
Ġprze glÄħda
J I
Ġzda je
my m
ÅĤ ty
Ġpo rÄĻ
r dze
Ġkur sy
ĠzwiÄĻk szenie
Ġdo strze
prze z
ĠczÅĤowie kiem
lo nego
Ġsz pi
stro ju
C D
Ġpoja zd
Ġga zu
ĠStani sÅĤawa
Ġrodza jÃ³w
L I
Ġport fe
ĠA B
ĠWy dziaÅĤ
ĠgÅĤÃ³w ny
Ġbrz mi
czÄħ cego
Ġutrzyma nie
ĠosiÄħ g
Ġod ku
Ġz ÅĤe
ĠÅ¼y czenia
Ġko rek
Ġzabie gÃ³w
Ġkonie cznoÅĽÄĩ
Ġz bÄĻ
ĠniezbÄĻ dnych
ĠC or
s ny
r ium
Ġregu lacji
em e
Ġspo kÃ³j
so ft
g rza
Ġkonkuren cji
mÃ³wie nia
Ġzagospodar owania
ĠZa ko
Ġbo m
czni kÃ³w
wa ÅĤam
Ġopa kowania
Ġnego cja
Ġla mp
Ġodz na
Ġist nienia
ĠPar ku
Ġzak wa
Ġsamo rzÄħ
Ġg en
Ġu biega
Ġw rÃ³ciÄĩ
szcze niu
Ġde pre
ĠZ wie
Ġpa trio
ho ne
Ġszkole ÅĦ
Ġka za
ĠÅļ w
ĠDyrek tor
cza ÅĤ
Ġwie dza
Ġtra ci
ĠLu dzie
Ġg mina
dzi ÅĤem
Ġodpowiedni m
ĠWie m
Ġog ar
Ġob fi
d ba
Ġjas ne
M P
Ġmo tywa
Ġintere suje
Ġe ty
Ġmie rze
Ã³w ka
Ġjedy nym
Ġprzyci sk
Ġpowie m
Ġp sÃ³w
Ġprzy zwycza
ĠuÅ¼y cia
ĠÅ¼oÅĤnie rzy
Ġwnio ski
Ġnieu stan
Ġfa scy
ĠzwiÄħza ny
ĠO pa
T V
ĠBia ÅĤy
ĠsÄħ du
ĠInterne cie
Ġre wela
Å¼ ny
ĠBe a
Ġ- >
mi ja
A r
Ġza ci
Ġwia tr
co n
v al
Ġtea tra
ĠpÅĤ ci
ĠNie ch
fe ra
Ġwiel kiego
al nej
Å¼a ch
Ġinwe stor
Ġok rÄħ
ĠF u
Ġper fek
ĠP lus
Ġnaj piÄĻk
ĠmoÅ¼liwo ÅĽciÄħ
Ġwykony wane
Ġocho tÄĻ
Ġwy le
ta na
nowi Äĩ
Ġskute czne
ĠSpe cja
raÅĦ cz
Ġstwo rzenia
le ra
Ġwybor Ã³w
ĠGrzego rz
Ġha b
Ġu wo
Ġbra Äĩ
ĠbÃ³ lu
Ġener giÄĻ
Ġusu nÄħÄĩ
Ġwielo ma
ĠmiÄĻ sa
ĠMo ja
ĠPro mo
ĠJe den
Ġpo siÅĤ
ĠPo lo
Ġfil mie
pÅĤy w
Ġu kocha
ĠBo Å¼ej
Ġprofesjona lne
Ġnaj star
Ġeuropej skich
Ġple ca
Ġz dzi
Ġnau czyÄĩ
Ġpo jÄĻ
Ġwarszta tÃ³w
gu jÄħ
âĢ¦ )
Ġalu mini
ĠÅĤa du
Ġsztu ka
Ġabsolu tnie
Ġwprowa dzenie
Ġpo nosi
Ġinterne towa
Ġz dania
Ġindywidual nie
Ġprzekona Äĩ
ja c
Ġponi Å¼
Ġobec nej
ĠA t
Ġ8 00
Ġnie ja
Ġpoz dra
ĠzarzÄħdza nie
Ġrzu ca
ĠwyjÄħ tkiem
js c
Ġwyda tkÃ³w
Ġzna Äĩ
Ġodno ÅĽnie
Ġjedno zna
Ġstanowi sku
Ġje ÅĽÄĩ
ĠM il
ĠRa da
Ġata ku
Ġprzeprowa dzenia
ĠzwiÄĻk szyÄĩ
Ġdzie li
Ġpew nych
ĠP ru
Ġkilku nastu
Ġma tka
Ġo dzieÅ¼
logi cznym
Ġkolej nego
Ġg um
Ġo szu
Ġgatu nku
Ġdy dak
ĠPÃ³ÅĤ noc
ÅĽle Äĩ
m owego
ĠzewnÄĻtrz nych
Ġroz waÅ¼a
ĠSpe cjali
ni orÃ³w
Ġs nu
Ġle czeniu
ĠMa ciej
wi cy
Ġniena wi
lnoÅĽci Äħ
Ġsku tki
ĠwaÅ¼ nych
Ġna sta
ĠÅĽ lÄħ
ĠbÅĤÄĻ dy
ĠRoz miar
Ġla ser
fe ry
ĠCe lem
ĠzwierzÄĻ ta
Ġtwier dzi
Ġf er
Ġkre w
ĠsÅĤu Å¼yÄĩ
ĠMoÅ¼e my
Ġkolo rach
Do da
logi czna
tion s
ĠC el
C A
dy nek
200 9
rzo nych
Ġ9 5
Ġdo tÄħd
ĠbyÅĤ by
Ġogrom ny
Ġinte le
S R
Ġd io
Ġupraw nienia
ĠNarod owej
ĠTowarzy stwa
czy ÅĦski
ĠÂ «
wÄħtp liwie
Ġspo rtu
Ġdo ro
Ġw draÅ¼a
Ġpow rÃ³t
n owych
Ġwi ta
Ġprofi lu
Ġutrzyma Äĩ
ĠoszczÄĻ dnoÅĽci
Ġzapew ni
t nika
ĠProdu kcja
Ġsto sow
Ġzapa miÄĻ
Ġprof il
lno ÅĽlÄħ
Ġpoprzedni ch
Ġha mu
Ġt rÄħ
ĠBy ÅĤa
ĠKo ÅĤo
Ġobia d
czy ta
Ġpraw dy
ĠÅĤat wy
Ġzna na
8 9
land ia
Ġzasila nia
ĠH and
< /
Ġpowia do
Ġopowie ÅĽci
Ġjednak Å¼e
bu dow
na wiam
ne ty
Ġro biÄĻ
Ġpo ÅĽcie
Ġsamocho dem
Ġpogo da
u li
ĠpostÄĻp owaniu
Ġjas no
Ġprakty ki
Ġzapla nowa
Ġre jo
U B
Ġpowsta nie
Ġnauczycie l
Ġgru pÄĻ
6 9
Ġreali zowane
Ġpora dy
ni Å¼
Ġpart nera
ĠLon dy
on ka
ĠRober t
Å¼o no
rÃ³Å¼ nia
Ġgatu nkÃ³w
Ġkom er
Ġsek tora
ĠwÅĤaÅĽci ciela
Ġsto li
Ġfizy cznej
ar u
ĠPrze wodni
O czywiÅĽcie
Ġu chy
wali Äĩ
D A
Ġpomy sÅĤÃ³w
ĠGru py
Ġmo rza
ĠG R
Ġo strze
Ġdecy zje
Ġkomenta rz
ĠY ou
Ġoferu jemy
Ġpo byt
ĠNa tura
Ġdzie wiÄĻ
ĠÅĽre dniej
Ġbia ÅĤo
tu s
Ġdo sÅĤownie
Ġpod jÄħÄĩ
Ġma ÅĤÄħ
ĠRÃ³w nieÅ¼
mie niem
Ġprawdzi wy
cho dziÄĩ
trzÄħ c
Ġzabezpie cza
Ġwie dziaÅĤ
ĠG dzie
ĠDo piero
robi Äĩ
ĠAndrze ja
ĠA R
¹ rÃ³d
lo nym
Ġrze te
Â Ħ
Ġtera peu
Ġw Ã³d
si ÅĤa
ĠS ch
Ġdwu dzie
ĠEdu kacji
owu jÄħ
Ġtwo rzyÄĩ
ĠÅĽwie tne
Ġc Ã³Å¼
Ġzastosowa niu
ĠO pie
Ġstosu nek
ko ÅĤo
la min
Ġkolej nej
Ġnie podlegÅĤoÅĽci
Ġprzeszka dza
Ġwszel kiego
War to
Ġwyna jem
ÅĤ owej
Ã Ń
Ġpie lgrzy
C z
ĠC H
Ġstrate gi
N IA
Ġma ka
mier nie
ĠnajbliÅ¼ szych
Ġodci nku
ĠO ba
Ġwy stawie
ĠporÃ³w ny
ĠB li
ĠRze sz
Ġd er
Ġw sty
Ġkata stro
ĠwspÃ³ÅĤpra cu
Ġpoli cji
ĠprawidÅĤ owo
Ġdoda tki
Ġzabie gi
Ġunie moÅ¼li
ĠK lub
ĠLu bel
kÅĤada my
Ġpoda Äĩ
Ġsa lon
ĠwÅĤaÅĽci cieli
Ġdal szej
Ġzainteresowa nych
ĠmyÅĽ lenia
ĠPo ÅĤudni
ĠCzer wo
ĠKon feren
tni kÃ³w
Ġnor my
pie niu
Ġko ko
je nia
Ġna stola
ĠO k
Ġzle cenia
dni m
ĠwÅĤaÅĽci wego
ĠmÅĤo dzi
trzy my
Ġbez przewo
Ġmle ka
ĠÅ¼ ona
Ġnie typ
wa jÄħc
Ġko leg
g ÅĤy
ĠÅĤazien ki
me go
Ġzd ob
ĠK ilka
ĠA ir
Ġsto mato
Ġzespo ÅĤÃ³w
Ġdzisiej szych
Nie stety
czy taj
ĠMistrzo stwa
Ġusy tu
cz kÃ³w
c le
ĠPu char
SK I
Ġwo jnie
Ġkwo ta
ĠPier wsze
Ġnaj gor
Ġhand lowych
Ġde tali
Ġodnale ÅºÄĩ
Ġcia sta
Ġpli ku
Ġprzetwarza nie
Ġpunk cie
t rem
ĠmiesiÄħ cach
Ġhand lu
ĠO bywa
pol skie
ĠPla y
ĠJedno czeÅĽnie
Ġjakiej ÅĽ
ĠMo Å¼liwoÅĽÄĩ
ma tu
fer ÄĻ
Å» y
cjo nuje
wa gÄĻ
Ġprzyjem noÅĽciÄħ
ĠPi ÅĤ
ĠWy miary
Ġpowsta je
Ġk wi
Ġtek stÃ³w
ĠRo k
ĠA k
T ra
z my
Ġka mer
Ġzatru dnia
dzo nÄħ
Ġegza minu
Ġsk ra
ĠÅĽ ru
g owy
Ġwyda rzenie
nio nÄħ
Ġol brzy
ĠÅĽcia n
Ġk ary
g lu
Ġniepo trzeb
Ġobraz y
Ġgwaran cji
zie m
ĠÅģuka sz
be ra
ru cha
Ġprzedmio ty
ĠâĢ Ŀ
Ġau dio
ĠPrzy kÅĤad
ĠRo lni
Ġosoba mi
tk owych
ĠczÅĤonk owie
or g
Ġtech nik
ĠA C
Ġby lo
Ġser cu
Ġpow ÅĤo
y s
Ġpomy ÅĽla
owie nia
Ġda ny
Ġwszyst kimi
sp rze
Ġra n
Ġgo ÅĽcie
wi li
tycz nymi
Ġefe ktÃ³w
Ġo kiem
Ġpol sko
re na
ĠE wa
Ġ0 8
ro k
ĠDÅĤugo ÅĽÄĩ
We dÅĤug
go da
Ġde fi
wu m
! )
Ġzasob Ã³w
j owych
Ġwspom nienia
Ġregi onie
ĠT or
Ġkry ty
j nik
Ġpra cÄħ
Ġnag rodÄĻ
sÅĤu gi
Ġpara metry
Ġla urea
Ġobszar u
cia l
Ġod bioru
Ġboha tera
Ġwymie niÄĩ
Ġlam py
ĠciÅĽnie nia
ĠPra wa
ĠPol skie
w ce
Ġgimna zjum
Ġsyste ma
Ġwspania ÅĤe
ĠgÅĤ owÄħ
Ġinicja tywy
Ġod bi
B e
E O
Ġpo to
Ġtechno logia
Ġi z
Ġobser wu
ĠbÄĻdÄħ c
ĠAn to
ĠNaj wyÅ¼
Ġf lo
6 3
Ġu spo
Ġs wych
Ġsto pieÅĦ
E Z
mi r
Ġze by
ĠnajwiÄĻk szy
ã Ģ
Ġz integ
Ġza akcep
ĠKomi te
Ġprzesy ÅĤa
Ġniepra widÅĤ
sto m
ĠM Ã³j
ĠZ groma
sowa ÅĤ
Ġniez byt
ĠFina n
ĠÅļ wiÄħ
Ġma sÄĻ
t ary
ĠG waran
Ġnu r
dz ka
Ġstru ktury
ĠM art
Ġpodob nych
d nak
Ġ201 9
Ġprzy wi
ĠchÄĻ Äĩ
Ġprze sa
ĠMa j
Ġs h
Ġs kaza
Ġodbior cÃ³w
Ġjedno rodzi
Ġzabu dowy
ĠÅļwia ta
Ġzdo lnoÅĽÄĩ
d rze
Ġpodzie liÄĩ
' '
byt kÃ³w
Ġna prawy
Ġzdo ÅĤa
owa nÄħ
Ġgo rzej
nk owy
ĠspÃ³ÅĤ ka
ĠÅ¼a dne
ga nia
Ja ko
Na sza
dz kiej
ĠMar ka
Ġko leÅ¼an
Ġstary ch
ĠKo mu
Ġpew na
ĠnajwyÅ¼ szym
dni Äĩ
A d
Ġtery torium
Ġpo glÄħ
Ġnau kÄĻ
ĠS zuka
ma s
ÅĤÃ³ Å¼
Ġdem on
8 2
ĠdÅĤo ni
Ġod niesieniu
nos ci
zu jÄħcy
Ġzestaw u
Ġwy czer
8 7
ĠPrezyden ta
Ġstrate gii
il l
ĠprzedsiÄĻwziÄĻ cia
ĠAgnie szka
Ġzawar tych
Ġczyta nia
P u
kowa ÅĦ
Ġkonsekwen cji
Ġzaku pi
ĠPod la
Ġu dowo
Ġwybo rach
Ġod naj
Ġstra ty
so m
Ġnajszyb ciej
Ġideal nym
ĠNi gdy
ĠS trze
Ġpi ÅĤki
ni s
Ġbi bli
Ġarty stÃ³w
Å¼ owe
Ġzapy ta
ĠposzczegÃ³l ne
Ġcz os
Ġod ej
ho p
ri s
ĠkrÃ³t kie
Ġodde ch
Ġdom owe
we lo
ĠPo da
we sti
Ġma ÅĤego
Ġwy chodzÄħ
Ġkwa s
ĠD ÄĻ
ĠM P
Ġpo s
Ġczar ne
Ġistnie jÄħ
Ġter mina
ĠOÅĽrod ka
Ġnorma lnie
ĠEuro pe
Ġpy sz
ĠRze cz
dzi ÅĤam
Ġbo ku
Ġwi ny
wia nie
mowa nych
Ġgra na
ĠMe dia
ĠokreÅĽ lenia
Ġda chu
la sy
czni owie
I Z
Ġubezpie czenie
Ġmar ka
ĠOgÃ³l nopol
Ñģ ÑĤ
Ġsce ny
p rÄĻ
Ġinfrastru ktury
Ġpo rze
Ġautor stwa
w ÅĤo
za cje
ĠPre zen
ĠSpÃ³ÅĤ ka
Å¼ nie
Ġne uro
rzy my
prze ciw
Ġ6 4
Ġob jaw
dzie lni
9 1
Ġka mienia
ĠNie z
Ġst rza
ĠLubli nie
ĠÅ¼e la
Ġkart ÄĻ
Ġinternet owym
Ġpla nuje
Ġdofinans owanie
Ġotwar cie
ĠzajÄĻcia ch
Sz cze
ĠÅĽnia danie
ĠKata rzyna
Ġda ta
Ġpo roz
sz czona
B A
Ġpodob ny
Ġs ej
Ġ8 5
Ġwal czyÄĩ
Ġnau k
ry k
Ġubezpie czeni
go sÅĤu
Ġelektry cznej
Ġfo li
ĠSo li
Ġau t
prawdopod ob
Ġle Å¼a
Ġ er
Ġobywa teli
Ġoprogram owanie
ha t
ĠNiektÃ³ re
Ġdyrek tora
Z na
Ġsamocho dowe
ĠrÃ³Å¼ nymi
Ġu rzÄĻdu
ni owego
H a
Ġse g
ĠÂ ·
Ġpoz o
Ġprzezna czona
cza m
stÄĻpu je
Ġstwier dziÅĤ
Ġpi on
arÃ³w no
ĠPo ja
Ġto ksy
Ġzapew nienia
Ġo cie
Ġa kt
Ġofia r
ĠzewnÄĻtrz ne
ĠCza sem
,,,, ,,,,
s no
niej szego
Ġpod raÅ¼
ĠS mo
ĠJaku b
ĠrozpoczÄĻ ÅĤa
Ġskle py
ry t
Ġniewiel kie
ĠbÅĤy skawi
chu nek
Ġkier owcÃ³w
Ġpo po
Ġzdoby ÅĤ
ĠRegu laminu
Ġdo ciera
Ġjakich kolwiek
ĠFil m
Ġotwar te
Ġza rzÄħdu
Ġela sty
Ġelektry czne
Ġprowa dzonych
nÄĻ ÅĤam
Ġpo staw
Ġt zn
Ġme ga
ĠWie lu
ro p
ĠwiÄĻk szym
ĠCh ÅĤo
Ġwios en
mina cji
Ġwiel kiej
ĠprÄħ du
ĠD nia
Ġnajlep szÄħ
ĠProdu kt
Ġzabra Äĩ
Ġinternet owÄħ
ĠpowaÅ¼ nie
Ġprze kÄħ
resz tÄħ
Ġpozwo liÄĩ
ĠKon stytu
ĠO ne
Ġniniej szego
Ġwarzy wa
Ġkon tr
r ii
ĠzÅĤo ta
Ġdosta nie
9 2
Ġpo pu
il la
Ġopowie ÅĽÄĩ
Ġle gi
Ġoto czenia
Ġp Ã³ki
ĠK ru
Ġodci nek
ĠÅĽwie Å¼e
ra my
w czego
Ġnie da
Ġopo datk
l nik
Ġ4 1
ĠgÅĤÃ³w nego
Ġodpor noÅĽÄĩ
gÅĤÄĻ bia
Å¼ bie
ste p
Ġprzeci wie
Ġma jÄħcych
ĠrozpoczÄħ Äĩ
wie niem
wa ns
Ġkon cie
li stÃ³w
. -
nk owych
Ġminu ty
ni or
ĠDo mi
' s
ĠUbezpie czenia
Ġgro Åº
Ġczy ni
Ġwymia na
ĠogÃ³l ne
Ġdzie ÅĤo
Ġkonstruk cja
ĠkomÃ³r ki
Ġwej ÅĽcie
Ġsam emu
r ie
Ġaktyw noÅĽÄĩ
f unk
ĠF unk
Ġzapa lenie
Ġpi szÄħ
t ia
Ġsiedzi bie
T E
Ġatrak cyjne
Ġe ro
rak tery
Ġdzie r
k nie
Ġalbu m
Ġpe dagogi
Ġra dÄĻ
Ġwzo ry
ĠI s
ĠrÄĻ kÄħ
Ġe misji
Ġpar la
Ġwybra ne
Ġzez wo
wie niu
tegor ia
Fo rum
b ru
Ġprzewi dy
ĠN R
Ġdrob ne
lu zy
Ġszan sa
7 2
ĠwÄĻ gla
ĠDa nie
bi ny
Ġsk ry
Ġefek cie
Ġfinans owej
T S
ĠMiejs ce
n noÅĽÄĩ
Ġmu zeum
O pis
Ġpo Å¼Äħda
Ġpowierzch niÄĻ
Ġucz ci
Ġtam tej
Ġu powaÅ¼
Ġgu stu
Ġbior Äħc
Ġcharaktery zuje
Ġ rzy
Ġa pe
Ġma jÄħce
Ġstre fy
Ġzawod owej
Ġser wer
ĠbÄĻdzie cie
Ġblo ku
Ġko mo
mowa niem
ĠI stnieje
ĠJaro sÅĤaw
ĠW ska
Ġsz kÅĤa
ĠzobowiÄħza ny
ĠD V
zu mienia
ĠPrzed szko
Ġda nia
zowa nej
Ġko ryta
Ġnajnow sze
ce u
C zÄĻ
ĠDo ro
rÃ³w nowa
Ġjaki mi
ĠSpÃ³ÅĤ ki
Ġpowro tem
Ġprzebie gu
je st
Ġprzyro dni
Ġsypia lni
Ġobro ny
ĠWy maga
Ġkomu ÅĽ
ĠInforma cji
Ġrozwija Äĩ
ĠZa j
7 6
Ġpoda ne
Ġtra m
Ġchoro ba
Ġprzetar gu
; )
ro da
O p
za mi
Ġwar ia
ĠwaÅ¼ nym
A l
Ġpozdra wiam
ĠTry bu
Ġwyda waÄĩ
Ġkomple tnie
Ġop cja
Ġpraw nej
jÄĻ zy
u j
Ġsyl we
ĠÅĽmie ci
v ie
ĠLubli n
Ġproduk cja
Ġdar mowe
ĠmiÄĻ so
ĠSz pita
Ġartyku le
Ġreak cji
Ġa bo
Ġpropo nuje
qu i
ĠU V
Ġpie s
Ġmo ty
ĠwyjÄħtk owy
ĠÐ ¿
zowa nym
Ġcy kl
ter Ã³w
Ġod wo
dowa ne
sto p
Ġsu fi
ĠO pis
ĠSÄħ du
Ġjedy ne
Ġrze ki
ka ja
Ġniepo ko
Ġna cze
f un
ĠwyjÄħtk owe
Ġusta wienia
ĠSzy b
Ġmacie rzy
Dzi siaj
h er
ĠPol skich
Z godnie
Ġhy dro
Ġwy my
8 6
ĠÅĽwie tle
ca n
Ġwie rz
ĠTu rysty
Ġwypa dek
z ia
ĠwiÄĻk szego
Ġod ÅĽwie
Ġdo tyka
Ġob chodzi
cza ka
Ġnar ko
SK IE
ĠCz ÅĤowie
Ġzle cenie
Ġmulti media
Ġprojek ta
Ġzawod owego
ĠwojewÃ³dz twie
Ġpapie ru
Ġdzielni cy
Ġsa nitar
Ġnad ciÅĽnie
Ġz b
Ġzdecy dowaÄĩ
sza jÄħ
liwo ÅĽciÄħ
tu jÄħc
Ġsk rom
owni ctwo
____ ____
ĠplacÃ³w ki
ĠzwyciÄĻ z
ĠpÃ³Åº n
wie ÅĦ
Ġzawo dach
Ġwyco fa
ĠnapiÄĻ cie
Ġkomenta rze
Ġka den
Ġotwar cia
Ġsz czu
Ġcu krzy
Ġprzy stÄħpi
Ġprzedmio tem
ĠgÅĤÃ³w nÄħ
Ġotrzyma nia
Ġmoto cy
Ġpostanowi ÅĤ
Ġla to
Ġdoskona ÅĤy
zy wane
ĠAf ry
Ġrach unku
Ġu nij
ĠF er
Ġwy s
ĠKomi sja
ĠPo niÅ¼ej
Ġdru ku
Ġtrafi ÅĤ
tk owy
Ġu krai
ĠsÅĤa b
d ge
Ġpubli czne
ĠkÄħpie li
9 4
Å¼a Äĩ
Ġweek en
ĠKon ta
e e
Ġde ka
Ġreprezen ta
in tere
Ġwy nikiem
Ġlitera tury
ĠspÃ³ ÅĤek
wia t
Ġsytua cje
ĠspÄĻ dza
SK A
Ġwyso kich
Ġre szta
ĠZ US
ĠA ga
Ġwy bierz
Ġog Ã³ÅĤ
ti s
ĠkrÄĻ gosÅĤu
ÅĤ kÄĻ
Ġka nce
f in
Ġorgani zmie
sta wi
Ġte nden
wier cie
Ty m
Ġpojawi ÅĤa
ĠprzysÅĤu guje
no cy
ĠC er
ĠUsÅĤu gi
Ġga stronomi
Ġnie rdze
Ġzaba wki
Ġ199 9
ĠC la
ĠO F
ĠA na
Ġja da
ĠEl b
Ġdoprowa dziÄĩ
Ġnada jÄħ
Po li
Ġbra my
Ġprzechowy wania
ĠT R
fi kowaÄĩ
sz czonych
Ġzasto sowaÄĩ
Ġprocedu ry
Ġosie m
Ġoj czy
ĠU waÅ¼a
Ġskorzysta nia
Ġan te
um er
Ġide a
Ġcodzien nego
Ġwy szÅĤo
ĠzwiÄħza na
Ġre feren
ĠBi zne
ĠtÅĤu szczu
Ġma rzenia
Ġpogo dy
Ġdie te
Na stÄĻp
Ġnie dÅĤugo
Ġmia nowicie
N e
Ġzwo len
Ġwy prac
Ð ²
Ġobec nych
on da
da mia
Ġszko ÅĤach
Ġorygina lne
Ġod grywa
n noÅĽci
s co
let niej
ĠgÅĤÄĻbo ko
C O
ĠBydgo szczy
ĠSa ma
la t
konie cznie
Ġpi w
tu zja
Ġpopra wiÄĩ
Ġpowie ÅĽÄĩ
ĠO S
bo o
ĠZa praszam
ĠM S
Ġki na
Ġnauczycie la
Ġwarst wy
Ġpo pa
praw dzie
Ġ !!!
S pe
Ġfunkcjona r
Pier w
Ġwy kre
Ġ5 2
ro ny
Ġma x
ĠR ÄĻ
Ġws pina
Ġwra Å¼enia
ĠFesti walu
ĠO tÃ³Å¼
Ġst r
Ġzmie rza
Ġpar u
Ġochro na
Ġre no
Ġsy g
dni ÄĻ
Ġwy czu
g s
niej szej
Ġinwesty cje
struk cja
Ġdo le
Ġchcia ÅĤam
Ġmieszka niu
ĠA K
ĠCzy li
Ġlu dnoÅĽci
Ġod dziaÅĤu
czy ÅĤam
Ġza ÅĤa
Ġtery toria
ĠduÅ¼e go
Ġta cy
Ġkolor owe
ĠmyÅĽ leÄĩ
sy ÅĤa
Pa miÄĻ
ĠnastÄĻpu jÄħcych
ty tu
Ġz war
ĠgÅĤo su
sta Äĩ
Ġco n
ĠC ia
Ġpo ran
Ġst wa
Ġwy ÅĽwiet
or ien
Ġus praw
Ġdwo r
ĠpiÅĤ kar
Ġwsp Ã³
ĠGimna zjum
ĠÅ¼ad nym
Ġkonkre tnych
Ġpre mier
I O
Ġczer w
Ġbezpie cznie
ĠNaj wiÄĻk
ĠPa pie
Ġstaro Å¼y
ĠS wo
Ġna kÅĤad
Ġz bio
Ġzabrak ÅĤo
ĠokreÅĽ lenie
Ġtema tem
to s
Ġzawo dy
Ġpotrzebu jÄħ
P ona
Ã ¤
ĠAr ty
l c
Ġna mio
ma m
Ġwykony waÄĩ
Ġrozumie niu
Ġwymie nionych
ĠobowiÄħz ki
ni owa
Ġsprze d
Ġwese le
Ġme tra
ĠZa chÄĻ
Ġch leb
Ġaktual ne
Ġpopra wy
nia nie
ĠMÄĻ Å¼czy
t ing
ĠzakoÅĦ czenia
Te raz
li we
l da
st ii
ĠD Z
Ġme cze
Ġpla c
ĠczÄĻÅĽci owo
ĠRe publi
g ÅĤ
ĠdÅºwiÄĻ ku
ĠwyglÄħ du
Ġnie li
ba sa
Ġto n
Ġutwo rÃ³w
ne ss
ĠMo c
Ġzadowo lona
Ġzachwy ca
Ġzaba wÄĻ
Ġpotencja ÅĤ
Ġprzy pada
Ġpo ku
Ġnowoczes ny
Ġod nosi
Ġmedia ch
ĠNi kt
ĠH al
Ġgrubo ÅĽci
ĠogÃ³l nopol
Ġczytelni kÃ³w
Ġy ou
ĠSy l
Ġsie d
Ġu p
ĠG B
ĠSzcze cin
Ġza to
Ġw rocÅĤa
Ġprzyj muje
Ġproce sy
Ġodleg ÅĤoÅĽÄĩ
Ġwymaga jÄħcych
Ġucz nia
io ne
S k
ĠAng lii
ĠS os
Ġter ro
w nego
Ġzaska ku
dowa ny
Ġpo rzÄħ
cie r
da je
gro dy
Ġspraw dÅº
sk owe
Ġpracu jÄħ
ĠAl bo
Ġokoli c
Ġodbywa jÄħ
ĠKonkur su
ĠCh or
ĠpostÄĻp owanie
Ġz ÅĤego
ĠdruÅ¼y na
Ġpotrzeb ny
Ġwprowa dziÄĩ
stawie nie
Ġroz budowa
Ġfi zjo
Ġodpor noÅĽci
me na
ĠNaj lepiej
Ġmedycy ny
ĠF ar
Ġopi niÄĻ
Pona d
Ã³r ka
Ġce lach
ĠK an
Ġtra gi
Ġilo ÅĽciÄħ
Ġwy siÅĤku
Ġpozby Äĩ
Ġdzi wne
Ġle kcji
Ġkompeten cji
Ġpowi nie
ĠzdjÄĻcia ch
Ġko ordyna
ĠâĢ ĺ
Ġcz tero
Ġzespo ÅĤem
niÄĻ ta
Ġfa jne
Ġuczu cia
Ġczeka jÄħ
b en
ĠdziaÅĤa niu
Ġin fo
Ġna pra
Ġpozytyw ne
Ġczy stoÅĽci
ĠM c
Ġla su
Ġkrzy Å¼
Ġelektroni cznÄħ
Ġto le
Ġniemie ckiego
ĠuwzglÄĻ dnieniem
Ġp lo
Ġpoza rzÄħd
Ġ9 9
Ġzaj mujÄħ
ĠzÅĤa ma
ance lar
ĠTak Å¼e
Ġh ali
daw cÄĻ
Ġha sÅĤo
ĠoÅĽwiet lenie
u tra
Ġek stra
Ġfrag ment
Ġba se
ĠpÅĤy ta
Ļ ¥
Ġteor ii
ĠwewnÄĻtrz nych
Ġtechno logie
Ġuczestni ctwa
t ran
ĠV ol
Ġtym czas
6 2
Ġni sko
lim pi
Ġwy gÅĤa
cie ÅĦ
Ġme tali
log Ã³w
Ġso s
ĠEko nomi
ĠskÅĤa dni
ni cze
Ġpodob no
ĠzaÅĤo Å¼yÄĩ
Ġsza le
Ġprysz nic
8 4
ĠwewnÄĻtrz ne
Ġwybo rem
ko ro
Ġu szy
ÅĽ niu
Ġad woka
Ġnowo ÅĽci
n kowa
ĠzÅĤo Å¼y
Ġpowsta ÅĤy
Ġnie jedno
o nych
Ġprzer wy
w kÄħ
ĠzapÅĤa ciÄĩ
Ġpocz ty
Ġuzy sku
Ġkla sa
Ġkon soli
Ġkry mina
Ġpo grze
Ġsz nu
Ġwymaga ne
Ġu czyÄĩ
Ġfesti walu
p owo
Ġkawa ÅĤek
Ġsk raj
Ġszla che
Ġkontro lÄĻ
dzi ny
sowa niu
ĠS S
towa ÅĤy
cze ki
âĢ¦ .
Ġa resz
Ġspodzie waÄĩ
ĠE wange
Ġwz rasta
Ġg minie
wa ja
Po lska
Ġ( âĢŀ
ce niem
Ġnajlep sza
Ġso cze
ĠsÅĤo ÅĦce
ĠKonkur s
Ġilu stra
Ġwy ce
zu jÄħcych
Ġdu cha
Ġdziw nego
we ry
Ġpla nÃ³w
ĠMate usz
dzie nne
praw dÄĻ
5 00
ĠLi tera
rowa ÅĤ
ĠÅĤÄħ czÄħ
Ġucie ka
dziesiÄĻ ciu
bo x
Ġco kolwiek
ĠwÅĤaÅĽci wy
Ġkli ni
Ġrozpo cznie
Ġeksploa tacji
ÅĤo m
Ġoferu jÄħ
AR T
kt owaÄĩ
sta nie
Ġpo lo
Ġwypoczy nku
ĠHiszpa nii
ĠÅĽredni owie
ĠPierw sza
Ġli nie
Ġsz k
Ġpre feren
Ġwe so
wia my
em on
Ġod mÃ³w
ĠKu pu
Ġnaj cieka
Ġwy doby
f ro
ser w
Ġprzez e
Ġobie ktyw
ĠKo d
ĠSt ary
Åº le
Ġster owania
Ġpomaga jÄħ
Ġa spe
Ġusu niÄĻcia
Ġpowia t
ĠM nie
ĠczÅĤo nek
nia nia
Ġtabe li
Ġciem no
Ġ Î
Ġza dzwo
rucha mia
ĠmiÄĻdzynarod owych
P O
Ġpa le
ĠOzna cza
Ġkilka dziesiÄħt
Å¼ kÄĻ
Ġpacje nt
Ġintele ktual
Ġg le
Ġwymia ry
Ġo go
Ġszyb kiego
Ġha sÅĤem
Ġpremie ra
6 1
Ġopie kÄĻ
Ġzw rÃ³
7 4
Ġnie dob
Ġch ary
C Y
l li
Ġzaga dnie
Ġspoko ju
stÄĻ pie
ĠWspÃ³ÅĤ pra
Ġrodzi nne
ĠÅ»y dÃ³w
ĠprÄħ d
Ġda ÅĤo
Ġka pli
ĠCa ÅĤoÅĽÄĩ
ĠmÃ³w iÄĻ
Ġkomu na
7 9
ĠPre zes
sf al
l skiego
Ġsil ne
Ġa cz
Ġmog ÅĤam
Ġczaso pis
Å¼e gna
Ġzapo m
ĠMaÅĤgorza ta
Ġna wo
letnie go
Ġra cjÄĻ
tera pia
A Z
ĠÅĽci s
ĠAu stra
Ġstwa rza
tu ga
Ġprzyj dzie
ĠtwÃ³r czoÅĽci
Ġkredy tÃ³w
ĠO bo
ĠBlu e
Ġspo dnie
ow ny
Ġpaznok cie
cza my
ĠI r
Ġpo p
ĠciÅĽnie nie
Ġpo ÅĤy
ĠObywa tel
Ġdowo lnym
ĠchciaÅĤ by
Ġutra ty
Ġprze stro
Ġfo l
Ġdo strzega
Ġstar tu
Ġprzemy sÅĤu
ĠS prawie
ĠSzko le
fe kt
t forma
ĠKa te
Ġpozy ski
Ġprywa tne
Ġprzygotowa ny
dzi k
ĠM szy
Ġrozm owie
ĠJÄĻ zy
bi t
ĠR OD
Ġba za
ĠoÅĽwiet lenia
ĠW Äħ
fi cja
zy wanie
ĠKlu bu
d ing
ĠRegiona lnego
Ġza sy
Å¼a jÄħ
to p
Ġpod nie
Ġmedy cznych
ĠP sycho
Ġkieru nek
dni Äħ
M W
Ġgospodar czÄħ
Ġwy pu
Ġo pozy
no n
Ġpole cenia
ĠodbÄĻ dÄħ
tere o
Ġna bo
Ġs wÄħ
Ġpotrzebu jesz
ĠCh ar
ob ne
Ġza rzÄħd
Ġt h
Ġwyja zdu
Ġposiada nia
Ġpod kÅĤad
p Ã³ki
Ġin dek
AC JA
Ġop owia
Ġin fek
w skich
Ġstosowa ny
Ġwy do
Ġniniej szej
ĠP lan
Ġwa dy
Ġtru dnych
Ġtka nki
Ġi dÄħ
Ġto ta
ĠÅĽci ÅĽle
ne rÃ³w
Je steÅĽ
ĠWie lo
Ġpomo gÄħ
ĠB lo
Ġzaga dnienia
Ġspa dek
po mina
Ġsz tyw
Ġtrady cyjnych
ĠtÅĤuma czy
Ġlubel skie
ĠÅĽciÄħ ga
Ġim po
Ä¹Åº y
Ġo si
ĠO li
ĠNie podlegÅĤoÅĽci
Ġga ra
ĠPrzy ja
on g
Ġuzyska nie
de ro
Ġskrzy Å¼
Ġwielko ÅĽÄĩ
c or
Ġwo lnych
Ġpa tro
Ġob szer
ĠwaÅ¼ nÄħ
Ġodwie dziÄĩ
Ġha ÅĤa
Ġw pisy
Ġgro zi
Ġtre nd
nu s
Ġch wa
Ġteren Ã³w
Ġinter fe
ĠGospodar ki
l owego
ĠNaj czÄĻÅĽciej
Ġw ci
tu m
ÅĤy by
ĠmiÅĤo ÅĽnikÃ³w
Ġpotrzeb na
Ġszpita lu
Ġwal ka
Ġby liÅĽmy
Ġwie cie
I W
Ġok rÄħg
Ġna szymi
Ġra miona
Ġpro stych
Ġka mera
Ġprzezna czonych
te ch
Ġstra ci
ĠÅĽredni cy
Ġkon stytu
Ġca ÅĤo
ĠZe staw
Ġprzypa dek
Ġideal na
ĠV o
Ġkance lar
Ġszko dy
Ġrodzi nÄħ
Ġni skie
EN T
ĠV II
Ġprzy s
Ġszero koÅĽci
ĠprzyjÄĻ cie
Ġnadzie je
ĠZapew nia
Ġwydaj noÅĽÄĩ
3 00
ĠAleksand ra
Ġwyda tki
mowa ny
Ġformula rza
Ġzadowo lony
Ġobli ga
Ġokaza ÅĤ
P an
ĠRej on
Ġbia ÅĤka
Ġsukie nki
Ġdrew no
G e
Ġfunkcjon owanie
Ġpo sÅĤa
Ġm leko
ĠEl Å¼bie
w czej
Ġzasta nowiÄĩ
Ġdy s
Ġwykony wanie
Ġmuzy kÄĻ
Ġkrzy w
Ġzawo du
Ġudzie lenie
Ġz by
Ġnie bo
Je steÅĽmy
ĠHi storia
Ġfinans owego
Ġkoja rzy
Ġgo towy
ĠtÄĻ tni
ÅĽwiÄĻ t
Ġwyda niu
Ġko lega
Ġstwier dziÄĩ
Ġherba ty
Ġefek tu
su ng
Ġdy sko
Ġde welo
Ġprzy szedÅĤ
ĠpielÄĻ gnia
ĠI loÅĽÄĩ
Ġt wÃ³j
Ġwio dÄħ
ĠAda ma
Ġde ba
Ġ ciu
n nik
Ġczyn niki
Ġry by
ĠW er
szel kie
Ġobszar Ã³w
ĠCza sami
Ġna sy
Ġpu l
Ġce chu
Ġnie pod
ĠwÅĤÃ³ k
ĠTade usz
ĠBie l
re kty
Ġwrze ÅĽniu
ĠMar ii
Ġdu szy
Ġse tki
sz ary
Ġapara t
Ġrodzi nÄĻ
Ġbo k
Ġst res
ÅĤo Å¼yÄĩ
Ġwy stÄħ
Ġwe Åº
v an
Ġdzie cia
Ġben zy
prowa dzenie
Ġwy ciÄħga
Ġpraco dawcy
wio nych
Ġposzuki wania
sto sowanie
Ġpresti Å¼
ĠFunda cja
Ġz wia
Ġod daÄĩ
lowa na
mowa niu
Ġgwia z
B ia
Ġz wy
Ġkos mi
kadem ia
Ġspraw nie
y er
Ġzespo ÅĤy
Ġko ÅĽcio
Â ¹
lia r
ta cjÄħ
let nia
Ġwyz wanie
ku jÄĻ
Ġznajo moÅĽci
ĠÅĤÃ³ Å¼ka
ĠkrÃ³ la
Å¼ an
ĠjÄĻzy kiem
Ġulubio nych
ĠC O
R y
Ġokoli ce
Ġko per
Ġcier p
b ryka
ĠszczegÃ³ÅĤ Ã³w
Ġli der
ĠNaj pierw
Ġmal owni
ĠPo mor
ĠrozpoczÄĻ cia
nie go
Ġzab lo
Ġszko lnego
ĠwspÃ³ÅĤpra ca
ÅĽ pie
dy ch
Ġwal kÄĻ
ko munika
Ġrezer wa
Ġba z
Ġjedy na
tera peu
ĠspoÅĤe cznego
Ġnatura lnie
Ġkalenda rz
ĠOfer ta
Ġu ni
u u
Ġza bija
Ġpowie dzia
Ġprzesy ÅĤki
Ġekra nu
Prze z
Ġproto ko
Ġde biu
Ġrekla mowe
Ġra ka
Ġzao szczÄĻ
Ġwo lÄĻ
Ġno ÅĽ
ĠP ÅĤa
bo ok
ĠPar la
Ġzwro t
ĠZ decy
Ġlek kie
Ġogro dzie
Ġ199 8
Ġzawiera Äĩ
ĠBla ck
Sz ko
che o
Ġ $
Ġstopni owo
t ÅĤo
ĠBiu ro
co no
Ġposzu kuje
ĠprÃ³bu je
W E
ĠPR O
b re
ĠÅļlÄħ ska
Ġroz mowa
S p
Ġstra Å¼a
Ġog ÅĤa
sto ku
ciÄħ gu
ĠobowiÄħ zuje
Ġco m
NI K
Ġli nia
Or gani
g owaÄĩ
y e
hi s
9 3
Ġwa kacji
ĠzaÅĤÄħ cznik
Ġpa sz
Ġpisa nia
Ġpro st
mi um
ĠczÅĤo nkiem
Ġekra nie
Ġpod jÄĻcia
tu lu
ra li
Ġstre fie
mawia Äĩ
Ġkon wer
k to
= "
towa nego
ĠtÅĤuma czenia
Ġangiel ski
Ġznalaz ÅĤy
Ġma n
Ġro cznie
nali zacji
ĠpoÅĤ owÄĻ
ĠprzykÅĤad em
tk owej
ĠnastÄĻp nego
Ġoce na
Ġle tnie
Ġz iar
Ġotwar ty
Ġs wym
v ia
ĠOsta tnio
ĠJo anna
gi n
Ġuwielbia m
ĠP N
dowa ÅĤ
ĠBu d
CZ Y
ĠO sie
nk owej
** *
.. ...
7 3
Ġci o
tne ss
ĠzaczÄĻ ÅĤy
ĠCze ka
ĠgorÄħ co
Ġwo la
pro mi
Ġrzy m
Ġbram ki
Ġtytu ÅĤem
Ġchro niÄħ
Ġzamie szcza
Ġ5 4
Ġch le
Ġzoba czymy
Ġwa d
Ġiden ty
Ġte sty
Ġka pe
sta ns
Ġzawodni cy
pol skiego
u do
ĠO D
ĠNaj waÅ¼
ĠpiÄĻ trze
Ġreali zacja
Ġo czami
Ġpodstaw Äħ
ĠC Z
owa liÅĽmy
Ġdesi gn
Ġza ple
ĠdÅĤuÅ¼ szy
ĠÅļwiÄĻ ta
ĠGe o
ĠAu gu
ĠA ma
ĠSpotka nie
Ġloka lizacja
ce l
? !
Ġiden tyfika
Ġprzycho dÃ³w
Ġ19 39
Ġponie dziaÅĤ
dzi n
Ġseria lu
zy waÅĤ
Ġuzna Äĩ
Je dnak
Ġdoskona ÅĤÄħ
Ġwy rÃ³wna
Ġo cenie
Ġszko lnym
mo Å¼e
Ġzainteresowa niem
ti ve
ĠN owego
ĠmajÄħ tku
szo no
ĠO le
Ġopi suje
Ġprzedsta wiÄĩ
ĠDÄħ br
z mÃ³w
owni ki
now ski
ier ÄĻ
Ġsza mpo
Ġw st
Ġpod nosi
Ġpoinfor mowaÅĤ
Ġkontynu a
Ġobo jÄĻ
?? ?
Ġba terii
ĠtworzÄħ c
Ġza dÅĤu
Ġwyj ÅĽcie
Ġdokona nia
Ġsamo rzÄħdu
Ġposta wiÄĩ
ĠZa ba
Ġubieg ÅĤym
Ġsen sie
Ġaro ma
Ġgra nic
ĠT ob
ĠrÃ³Å¼ nica
Ġnie kiedy
ĠwÄħt pienia
Ġuda je
ĠWor ld
ĠL am
Ġu war
le gro
Ġta ÅĽ
Ġwa p
ĠwÅĤaÅĽci we
ĠrÃ³Å¼ niÄħ
Ġak cje
ĠbezpÅĤa tne
T rze
ow na
ĠR Ã³
Ġpla nie
Ġw pada
ĠA S
Ġwo lnoÅĽÄĩ
pu st
Ġszero kie
Ġ5 6
ĠSer decznie
Ġpa trona
ĠkrÃ³ lew
f en
sz kÃ³w
Ġra chunek
cha ÅĤ
Ġmie jskiej
Ġdo cenia
Ġto ale
logi cznie
Ġprowa dzona
Ġdoda tkÃ³w
Ġru sza
la tor
sia d
ĠspÄĻ dziÄĩ
sto ra
el l
Ġnoc legi
Ġje li
szo nej
gniÄĻ cia
Ġbu tÃ³w
Ġogro du
Ġzawar cia
Ġobro tu
ro t
ĠszczegÃ³l nÄħ
P iÄĻk
ĠPoli techni
ĠKo rzysta
ĠPrze my
pa ne
ĠNaj bardziej
Ġu go
Ġzgod ne
Ġrzeczywi stoÅĽÄĩ
Ġla tem
Ġorganiza cjÄĻ
nd ar
Ġsp ro
ow ce
Ġma rzy
ÅĤ owego
Ġgospodar stwa
200 8
Ġkonsul tacji
Ġta ni
ĠSkar b
ĠO K
Ġpara metrÃ³w
Ġhy dra
Ġchcia ÅĤabym
ĠTur niej
ĠTru dno
Ġsto le
ĠRo ku
Ġkonkre tne
ĠWa Å¼ne
Ġpodo pie
pu l
Ġpoma raÅĦcz
Ġeduka cyjnych
Ġfinans owania
e u
czy kÃ³w
Ġnume ru
la rz
Ġdrz wia
Ġpo ÅĤowa
Ġwspo mnieÄĩ
un t
z nÄħ
Ġs mar
ek sy
ĠÅĽwie tna
ĠV er
Ġcie n
ĠmaÅĤ Å¼
Ġfor mÄħ
x t
ty ny
ĠA M
ĠMa jÄħ
8 1
Ġpol skÄħ
ĠznaczÄħ co
ĠNor we
Ġprzy jÄħÄĩ
Ġpa to
Ġprze kÅĤada
Ġeksper tÃ³w
dzie liÅĽmy
Ġe wolu
mi ÅĤ
mu ni
ĠCh ri
ĠN u
Ġist nia
dzi Äħ
Ġpie czenia
Ġwi dzimy
Ġzdr owy
ĠskÃ³ rza
ĠpÅĤy tki
ĠK ÄĻ
Ġformula rz
Ġnie szczÄĻ
ce zji
ĠStra Å¼y
Ġszero koÅĽÄĩ
ĠdotyczÄħ cej
ĠBar to
Ġmarket ingu
Ġha sÅĤa
in ga
wielbia m
ĠW spo
Ġatmos ferÄĻ
ga Å¼u
ko mo
Ġre por
Ġcz ci
cyj noÅĽci
ĠAn ge
Ġp lik
sÅĤu ga
ĠwziÄĻ li
szy n
Ġma nu
Ġwar ian
ĠJednak Å¼e
ĠR ekla
Ġroz grywa
ĠpÅĤa szczy
Ġarchitek toni
czy sz
ĠokreÅĽ lony
letni m
Ġw an
Ġtempera turze
ĠMa na
Ġle a
Ġge nia
i my
Ġsek s
ĠsÅĤo dy
rza mi
Ġfotogra fia
no ty
cy na
ĠumiejÄĻ tnoÅĽÄĩ
ĠL an
ĠD r
Ġau ten
Ġ1 10
zowa ÅĤ
Ġurlo p
Ġtrzeci m
prawdopodob niej
Ġfundu szy
7 1
Ġpro bo
Ġprze rwa
Ġwi dziaÅĤem
ĠJa ki
Ġzabezpie czenie
Ġanali za
ĠBi bli
da niem
rÃ³ci ÅĤ
Ġodpowie dzieÄĩ
Ġopie kÄħ
ĠBur mistrza
Ġinwe st
g owania
Ġnad chodzÄħ
ksztaÅĤ cÄħ
ĠSzczeci nie
wet ki
Ġme cha
ĠP Ã³Åºniej
Ġkonta k
Ġdem o
Ġu zdr
ĠÂ ¿
Ġe l
ĠB en
ĠB ri
Ġla kier
Ġoce nÄĻ
owa ni
Ġzna kÃ³w
ĠWo js
ĠTwo jÄħ
g y
ĠmÅĤo dego
Å Ł
Ġener gi
Ġprzej rzy
Ġa spek
Ġpa kiet
Ġdro gie
Ġpoko lenia
ra cjÄħ
ĠS tÄħd
Ġzie miÄĻ
Ġet c
Ġzagro Å¼enie
ne nt
mu jÄĻ
Ġtrzy dzie
mi on
Ġspo ra
d lu
Ġwzro k
rzch nia
Å¼li we
Ġmor der
ĠUÅ¼ytk ownika
ĠMo gÄħ
Ġdo tacji
Ġnazwi ska
Po le
ĠPa u
Ġpopular noÅĽciÄħ
ĠK M
Od powie
Ġpoka zujÄħ
r ne
Ġw brew
Ġroz czar
ĠJanu sz
Ob ecnie
grani czenia
je Åºdzie
Ġg nie
ĠobsÅĤu dze
Ġtro szkÄĻ
in ÄĻ
mi ng
Ġgwia zdy
Ġprzysz ÅĤym
Ġodz wiercie
Ġpu sty
â Ĩ
ĠzaczÄĻ ÅĤo
Ġdo jazd
Ġzapew nienie
ni czych
ĠÅĤazien ka
Ġpopraw ÄĻ
Ġwitami n
un kiem
Ġspo rzÄħ
Ġwyszuki wania
Ġzam ku
Ġobec ny
Ġnajlep szej
Ġdo t
Ġstru ktura
Ġbizne sowych
ĠPa ÅĤa
% )
F or
ĠbÅĤo gosÅĤa
Ġprzeciw nie
Ġzapy tania
Ġoto czeniu
Ġ- -
Ġzag waran
Ġdzia le
Ġstre su
Ġpoprze dniego
Ġwyz wania
Ġkwest ie
ku p
ĠP rak
ĠS ek
ĠD wa
Ġza cze
Ġosobi sty
ĠDzien nik
Ġczar no
sze Äĩ
Ġdal sze
ĠzwyciÄĻ stwo
Ġz nika
E W
prze d
Ġs chu
Ġwybo ry
Ġswo i
ĠP W
Ġeg zo
ĠZamawia jÄħcy
nÄħ ÅĤem
de rem
Ġpowo ÅĤania
Ġ rzÄĻdu
ĠÅ¼a dna
ĠGdy ni
Ġje sli
Ġdy stan
Ġsta wÃ³w
Ġcho dziÄĩ
b ÅĤo
Ġma tera
ĠBo le
Ġd ÄĻ
ĠS pi
Ġo dzieÅ¼y
Ġju bile
Ġpowierzch nia
P A
ver si
Ġsalo nie
Ġprzeciwie ÅĦstwie
Ġo ut
ĠL in
sze wski
K ar
Ġpa piero
I F
ĠDz iÄĻkujÄĻ
Ġw u
Ġak cjÄĻ
ĠgÅĤo sowania
praw ÄĻ
Ġkorzysta jÄħ
ĠzasiÄĻ gu
Ġakcesor iÃ³w
Ġpoka z
Ġtro che
Ġo st
ĠWyso koÅĽÄĩ
nia Äĩ
Ġpowodu jÄħ
ĠZ A
ĠMie jski
Ġloka lnej
Ġdob rowo
Äħ b
Ġre wi
Ġka lku
Ġby Ä¹
Ġpr owi
ku jÄħcych
ĠzÅĤo Å¼one
Ġza ro
Å¼ by
ne fi
P ie
ni ÅĤo
Ġli gi
ĠÅĽcie kÃ³w
R O
Ġnieprzy jem
bi ÅĤ
i ma
Ġwy obraz
Ġprzedmio t
Ġroz licza
ni czy
Ġkar iery
Ġdoleg liwoÅĽci
Ġwybiera Äĩ
Ġatmosfe ra
Ġka te
ĠO gro
ĠP T
Ġgaler ii
ne y
ĠZ resztÄħ
Ġznajo moÅĽÄĩ
Ġsu ch
towa nej
s Ã³b
ow n
sa n
Ġs chroni
czy ka
Ġk rwa
Ġdro gach
dni one
ne ry
ĠS ma
ĠmÄĻÅ¼czy zny
Ġprze mocy
ĠsprÄĻ Å¼y
sza ch
Ġpo czy
Ġ0 2
Ġpodkre ÅĽliÄĩ
Ġor to
ĠnajwyÅ¼ szÄħ
Ġn owi
rt ki
S zuka
Ġpole camy
ku j
Ġli ter
tu jÄħce
Ġza budowa
Ġwa li
Ġf io
Ġfi ska
F OR
Ġchcia ÅĤem
ch ÅĤania
ĠmiÄĻ ÅĽnie
Ġgimna zja
Ġnie wÄħtpliwie
wy mi
pre ss
sor ia
wio no
Ġprzypad kiem
Ġwa ga
Ġkar ta
n owej
Ġwyobra Å¼a
ĠÅ»e by
Ġho nor
Ġsp ÅĤy
ĠPR Z
ĠPro blem
Ġ5 8
Ġpozy cja
Ġotrzyma ÅĤa
ĠSerwi s
ĠoÅĽwiad czenia
la ny
Ġa sy
Ġ1 30
Ġpo k
mo m
krÄĻ ca
ĠCa ÅĤy
wa re
Ġzmienia Äĩ
ĠPubli cznej
ĠzwiÄħz kÃ³w
Ġpow Ã³d
Ġpowie cie
ĠXV I
Ġatrak cje
Ġcie le
cza jÄħc
Ġma py
Ã ĥ
ĠSte fa
ĠRe ali
ĠniemoÅ¼li we
ber t
Ġsz tach
sy jne
ĠpiÄĻk nych
Ġmani pu
R ze
Ġwy powiada
ĠrÄĻ kach
ĠDe cy
Ġ16 0
E uro
Ġpopular nych
ĠK wia
Ġnatura lnym
Ġo kie
Ġniez wÅĤo
Ġle ktury
Ġdra ma
ĠWrocÅĤa wia
Ġsty mu
Ġkore sponden
su m
Ġla kie
Ġmodli twy
Ġho mo
Ġkwali fikacji
la na
sta ch
ĠwÄĻ gl
ĠpiÄĻk nÄħ
Ġtrady cyjne
Ġznalaz ÅĤa
ĠMinister stwa
Ġu ruchamia
czni kiem
wÃ³ z
ĠS kÅĤad
Ġdo trzeÄĩ
mi nium
m ka
god ny
t nymi
ĠoÅĽwiad czenie
li ÄĻ
Ġtelewi zo
ĠwziÄħ ÅĤ
ka n
E X
Ġorga nÃ³w
Ġurodzi ny
ci d
ĠU l
ĠÅĽcia nie
Ġna przeciw
Ġa sfal
ĠP le
len ty
Ġkonkre tnego
Ġbu dzi
Ġwy eli
Ġwitry ny
Ġka dry
Ġsubstan cje
Ġme b
Ġod pada
ĠPo Å¼ar
Ġw rÃ³
dzÄħ cy
Ġskute cznoÅĽÄĩ
ĠDo ku
Ġdoko nuje
Ġs tereo
d niejsze
Ġreli gii
OÅļ CI
Ġinstytu cje
Ġsz ary
Ġobraz Ã³w
G ru
Ġstra sz
Ġciep ÅĤe
Ġosob owoÅĽci
sto k
ĠzaangaÅ¼ owanie
lo nÄħ
su d
Ġnieza pomnia
Ġsta ÅĤych
ĠÅĽwiad czenie
Ġka n
dnio nych
Ġre for
ĠInwe sty
spa n
Ġkapita ÅĤu
Ġwarsza wa
ĠPC V
me l
Ġpomy sÅĤu
Ġtere ny
Ġpozwo lÄħ
ĠStu dio
Ġbi lety
bu s
re i
ĠZbignie w
Ġsygna ÅĤ
Ġkata logu
ĠSztu ki
ĠmÄĻÅ¼czy Åºni
Ġ7 00
lu jÄħ
Ġsz Ã³
Ġprojekt owania
Ġmakija Å¼
Ta gi
rzo no
Ġpoda tek
ĠUS D
Ġprac owaÅĤ
mina rium
sk luzy
I ST
G ÅĤÃ³w
ĠÅĽredni ch
Ġhy bry
Ġsa kra
Ġusta wa
ta lia
Ġpu deÅĤ
Ġimpre za
Ġprofe sor
ĠIn te
Ġposiada nie
Ġgro na
Ġsp ie
ĠDyrek tora
u ge
Ġniesamowi cie
Ġu cho
ĠS portu
Ġpode sz
Ġspecja lny
prawie dli
jaw sko
Ġeg ze
ĠprÄĻd koÅĽÄĩ
Ġstaran nie
ĠZa miast
Ġsty lizacji
Ġzak ÅĤÃ³
Ġniko mu
Ġza jÄħÄĩ
Ġbo li
Ġpoli tyka
Ġw w
Ġszuka sz
Ġelemen tami
ro na
ĠNie rucho
Ġ ï¿½
Ġdob ÄĻ
Ġorganiza cje
Ġsp rÃ³bu
Je szcze
Ġutwo ry
Ġa re
Ġm owy
Ġnie sko
Ġpora dziÄĩ
Ġw las
ĠO SP
Ġzim no
Ġsa la
Ġofer owanych
Ġkompu terze
Ġby le
Ġpowie trz
Ġbro ÅĦ
ĠNau czycie
Ġhistor ie
Ġpod Äħ
Ġma ju
Ġjako ÅĽciÄħ
mu s
ĠprÄĻ dko
Ġprofi lakty
ne w
Ġdom owego
Ġniemie cki
owu jemy
Ġ9 00
ĠpoÅĤÄħ czyÄĩ
szy ÅĤ
Ġ199 0
Ġwy budowa
ĠT ri
Ġka mieni
in sta
Ġrejo nie
za tor
Åº nik
Ġpo mia
Ġwy mu
ber g
Ġme talu
ĠPozna nia
Ġdoj ÅĽÄĩ
Ġpartne rÃ³w
Ġkla wi
Ġok no
Ð¾Ð ²
ĠKsiÄħ Å¼ka
ĠÅ ¹rÃ³d
Ġloka lne
czy ki
ĠtwÃ³r cy
Ġrezer wacji
CZ NE
Ġpi z
ÅĤÄħ czenie
ĠI D
Ġogrze wania
kce soria
ĠUkrai ny
Ġa do
Ġzale ty
Ġsz li
ta ny
Ġobec ne
T M
ĠpÅĤy nÄħ
Ġde ter
C en
Ġznale zio
in forma
zaleÅ¼ nie
ĠXX I
ku lar
ĠpÅĤa ci
ĠpoÅĤo Å¼one
ĠG mina
Ġba wiÄĩ
Ġarchite ktury
Ġpotra w
Ġoficja lnie
ĠpoczÄħ tkowo
Ġnie sta
Ġf el
Ġob cych
ĠO B
sza wa
Ġkon systen
Ġrzu t
ĠSta nowi
ĠfaÅĤ szy
Ġdoda ÅĤ
bie c
O ferujemy
Ġsz ar
Ġo sza
S i
Ġtra ge
Ġgu zi
Ġza ÅĽwiad
Åº niej
Ġme lo
Ġnau kowe
ĠSprzeda Å¼
Ġzda rzeÅĦ
Ġpo ga
Ġ5 1
ĠpeÅĤno moc
d kÃ³w
k w
ĠprzedsiÄĻbior cy
Ġorgani zowane
Ġkla wia
Ġby cia
Ġre d
dza jÄħc
Ġfo te
Ġdba Äĩ
f fe
Ġzain west
Ġ19 45
ĠFo togra
P P
me j
wie ni
Ġpow raca
ĠzapÅĤa ty
Ġangiel skim
W W
li ca
ÅĤ kowi
Ġczerwo ny
P or
Za rzÄħdzenie
kie wicza
Ġsta dio
wi s
Ġproduk cjÄĻ
ĠMicro soft
nia ne
Ġdzia ÅĤo
ĠOgÅĤo szenia
Ġz gra
ĠÃ³w czes
Ġte stÃ³w
Ġpi Äĩ
sko p
Ġdelika tne
Ġa tak
Ġka mery
Ġ ÄĨ
wi ca
de x
ĠmÅĤo do
Ġk ÅĤam
Ġuda Äĩ
ĠMo sk
ĠbyÅĤa by
ĠAp ple
czo m
Ġcze le
ĠwspÃ³ÅĤczes nych
ĠjÄĻzy kÃ³w
mie siÄĻ
Ġf ur
ĠSzko da
Ġspo rzÄħdza
Ġzim Äħ
ĠÅļ wiet
ra Äĩ
Ġmo rze
Ġkomenta rzy
Ġdocho dÃ³w
Ġplatfor my
ĠdÅĤugo trwa
Ġsi ÅĤÄħ
Ġnie sie
ktÃ³ re
Ġma rzeÅĦ
ba ra
wa nym
ĠzÄĻ by
Ġsze ÅĽciu
Ġspo ry
ĠskÅĤada Äĩ
ĠNa si
Å¼ nÄħ
Ġdo mach
K ur
ĠplacÃ³w ek
Ġspo re
âĢĿ )
Ġprag nÄħ
Ġnadz or
ĠchÄĻ ci
Ġdrze wo
Ġutrzy muje
ona ch
tu ÅĤ
ĠtwÃ³r cÃ³w
P N
Ġprojek tem
Ġbia ÅĤym
Ġzapo mnieÄĩ
tk owym
Ġtrzyma Äĩ
T ER
Ġupraw nieÅĦ
Ġpali w
Ġkie szeni
ba l
w skie
EN IA
ĠwspÃ³l nej
Ġma nda
S M
Ġâ Ļ¥
Ġmi liar
Ġkom or
Ð½ Ð¸
Ġno ta
nowa na
men tar
Ġproble mami
Ġbezpie czny
p kÄĻ
Ġb iaÅĤa
Ġsprawie dliwoÅĽci
la cjÄĻ
ĠposÅĤu gi
dowa nych
Ġprzestrze nnego
ĠrÃ³ Å¼a
zu ry
Ñ ĩ
ĠFran cu
ĠKo munika
Ġpo czÄĻ
Ġf un
ĠzgÅĤa sza
Ġpo sy
ĠGa la
Ġopro cen
Ġjeste ÅĽcie
Ġkoncep cji
Ġwi th
Ġle ktu
gi ne
Ġrza d
ĠpoÅĤÄħ czone
Ġkonsu mentÃ³w
ĠXV III
ĠPro po
ĠN ar
ĠMe to
Ġaktyw nie
Ġprawdzi wÄħ
ĠTer min
chodzÄħ c
Ġpoli tycznych
Ġagen cji
Â ²
ĠstÃ³ ÅĤ
ĠF ry
Ġdecy du
Ġw pi
pol ski
tk owa
du Å¼y
ĠMie jskiego
towa ÅĤo
R Y
man n
ĠÅ» o
Ġskrzy dÅĤa
ĠcÃ³r ka
Ġkier owca
ĠFesti wal
Ġnieustan nie
ĠsÅĤ owem
ĠpowaÅ¼ ne
Ġwymia rach
Ġelektry cznych
Ġpunk tem
Ġmoc ne
I ON
ĠBa dania
Ġczerw cu
st ian
ĠO w
Ġ6 6
ĠOd dziaÅĤ
Ġu czÄĻ
Ġza jÄħÅĤ
Ġ Ø
Ġja z
Ġkup owaÄĩ
ja zdu
Ġpod stawa
Ġobjaw Ã³w
Ġba gaÅ¼
ĠS ha
Ġpo ez
Ġze ga
Ġuczestni czyÄĩ
ĠWykona wca
ĠPola nd
ka Å¼
Ġb el
M ia
t rzenia
Ġpoczu Äĩ
go m
ĠSko ro
Ġostat nia
Ġreprezen tacji
zu mia
Ġwych owania
Ġkontr ower
Ġz orien
Ġtrze ciej
Ġnowo two
Ġmia stem
ĠE gi
t w
Ġnarze ka
Ġopar te
Ġtworzy wa
dza my
Ġodpowiedzia lny
Ġ5 3
Ġu pra
Ġczy ste
Ġlep szego
ĠpoÅĤÄħ czeÅĦ
Ġdam skie
Ġsku tku
si gn
si s
ĠpiÅĤ kÄĻ
do l
C C
ĠWyda je
Ġa nio
Ġpew nej
Å ¡
Ġwa gÄĻ
Ġdoda jemy
gna cji
Ġutru dnia
Ġsku pi
ĠwÄħtro by
Ġvi deo
Ġwspania ÅĤy
ĠO twar
Ġkorzysta jÄħc
Ġdo ktor
ĠM en
Ġsa l
spe cjali
Ġ198 9
Ġpor no
Ġle wo
F il
W O
Ġoka Å¼e
Ġna wy
niÄĻ ciem
gÃ³ ÅĤy
Ġnaczy ÅĦ
ĠprawidÅĤ owego
po le
Ġwynika jÄħcych
Ġpomy sÅĤem
su l
Ġ5 9
O fer
ĠDa vi
a na
ĠO N
Ġko min
X X
Ġfa jny
kowa ÅĤa
ĠI sto
Ġeta pu
Ġu rze
Ġspecja lnego
ĠT U
ĠusÅĤu gÄĻ
Ġbli skich
T U
il le
ĠRe d
la ns
g Ã³d
Ġzaufa nia
Ġuli c
Ġ> >
ĠK le
Ġf ali
Ġzab Ã³j
mÃ³wie nie
Ġok ru
âĢ ĭ
Ġtru dniej
da ne
Ġprawdzi wa
Ġso k
ĠMu lti
Ġu pro
o pa
ĠJu lia
Ġposzuki waniu
Ġop cjÄĻ
Ġtre nera
ĠMa sz
Ġnaj niÅ¼
b ary
Ġeksp res
Ġwizy tÃ³w
ĠtoÅ¼sa moÅĽci
b ran
ĠTe re
Ġar ku
Ġsta rego
Ġwyja ÅĽ
Ġwynagro dzenie
ĠGdaÅĦ ska
ma li
dzia ch
Ġtrans forma
ĠPozosta ÅĤe
Ġpozna nia
ĠprzeglÄħdar ki
u ma
ĠOj ca
Ġdzisiej szym
Ġfizy czne
czy liÅĽmy
ĠRa dio
Ġe stety
Ġto p
ĠpiÄĻk nym
Ġprzekaza Äĩ
Ġkategor iach
Ġrodzi cami
u ra
Ġprzeciw dziaÅĤa
Ġop tymi
cha nie
Ġ0 7
Ġauto stra
ĠK L
Ġfunk cjonuje
al nÄħ
ĠÅ¼e l
g rÃ³d
ĠX L
ĠpeÅĤ nego
ĠwewnÄĻtrz nej
ĠZa wiera
Ġo puszcza
Ġnaczy nia
Ġpo py
la ne
ï ¼
szo nym
Ġwy twÃ³r
ge ra
Ġfarma ceu
Ġza mian
Ġle ku
Ġwybra ny
ĠPo mimo
ĠA D
se udo
Ġban kÃ³w
Ġg ard
ĠStu den
Ġkto s
Ma my
Ġzaku pie
ka na
Ġpo se
ne lu
Ġprzy zwo
ty czy
ĠMieszka nie
Ġza bytkÃ³w
Ġwyposa Å¼ona
ĠuÅ¼ywa m
Ġsi ÅĤa
Ġnie koniecznie
ĠU mowy
ra nia
ĠzobowiÄħza ÅĦ
Ġob rzÄĻ
Ġza rob
ĠrÃ³Å¼ nice
ĠP en
ĠDu cha
Ġfinan sÃ³w
Ġtrwa ÅĤe
ne dÅ¼e
ĠWy bierz
Ġru cho
Ġin tui
c ri
Ġfa zie
Ġgro nie
Ġwymie nione
Ġkom bi
Ġchole stero
ĠdÅĤugi m
Ġfunk cjonu
S A
Ġma pie
Ġnadzo ru
Ġwysy ÅĤki
ĠuÅ¼ytk ownicy
ĠZa tem
n ÃĦ
Ġpi s
ĠÅ¼ arÃ³w
Ġen tuzja
rÃ³w ki
Ġdo biera
Ġwie cej
cÄħ c
Ġgrani cach
ĠBy ÅĤy
Ġz ÅĤu
ĠwÅĤas noÅĽÄĩ
dni ka
rod Äħ
Ġza kÅĤadu
l kÄĻ
Ġzaku piÄĩ
Ġwer sje
rz an
Ġmini stra
ĠwyÅ¼ szych
Ġu niwersyte
ul t
ĠuÅ¼y wania
Na sze
Ġka pu
Ġlu Åº
Ġkoleg Ã³w
Ġna wiga
å¤ ©
Ġrozu mia
Ġdo rob
Ġma ter
ĠT ÅĤu
ĠS MS
ĠPoz wala
ĠTV P
Ġapli kacja
Ġtore bki
ĠPrzed mio
Ġdoskona ÅĤym
Ġodrobi nÄĻ
Ġzakwa ter
ĠksiÄĻ Å¼y
Ġoprac owania
Ġlicz bie
Ġno mina
ĠMo ra
Ġwybu ch
Ġpoja wiÄĩ
Ġsamocho dowych
d iu
Ġalkoho l
Ġmeta bo
ĠNa dz
Ġod nawia
Ġba wi
ch owie
ĠHo l
rowa nych
logi Äħ
g r
Å¼ nym
lin gu
Ġbu k
Ġkon tu
gi m
Ġko du
ĠNaj ÅĽwiÄĻt
ba n
ĠPre zesa
Ġpocz towy
ĠTowarzy stwo
ĠUniwersyte cie
czni ku
Ġdal szych
Ġ6 2
Ġpopraw nie
Ġz rÃ³wnowa
ĠRa zem
Ġprzyda tne
Ġstrze la
S Äħ
Ġkry teria
Ġrekru tacji
Ġkilo gra
Ġwy tÅĤuma
Ġsp u
Ġsukie nka
ĠNiektÃ³ rzy
Ġpo dziaÅĤ
Ġwe ÅĤ
ĠS en
Ġotwo rzyÄĩ
Ġgar dero
Ġprzy pisa
st kÄħ
ia t
c owe
Ġrobi my
Ġpoda nie
ti c
ĠBiaÅĤo ru
Ġroz powszech
szo ÅĽci
Ġpoprzedni m
ku ry
Pro gram
Ġbo les
Ġc ar
Ġdoty ku
Ġzach owaÅĦ
Ġnajlep szego
Ġ ]
Ġg ÅĤowa
Ġtowarzy stwie
Ġumie ÅĽciÄĩ
Ġsek cji
z osta
a nali
ĠnajbliÅ¼ szym
ĠuÅ¼y ciem
Ġnadz wyczaj
ry zon
Ġwy ga
nu jÄħce
ĠLi p
ĠÅĤy Å¼e
Ġbudy nki
e ro
Ġs Ã³l
ĠPe wnie
Ġpi wo
bo m
Ġpa trzeÄĩ
Ġminu tach
Ġ199 1
iaÅĤa m
Ġtematy ce
V I
Ð ¼
owa r
k ta
nowa nych
Ġta ne
dzÄħ cych
Ġpew nÄħ
Ġma s
Ġko ni
ĠuÅ¼y wany
Ġpomy ÅĽleÄĩ
Ġauto rÃ³w
Ġstara m
Ġpo dy
Ġwydaj noÅĽci
Ġna biera
c ra
piÄĻ cie
ĠCi ty
ĠZa sta
ĠXX X
Ġpowro cie
Ġde szczu
ĠumoÅ¼li wiajÄħ
ĠMikoÅĤa j
ĠK ON
Ġo Å¼y
Ġh al
si ÅĤek
Ġwykona nych
Ġmakija Å¼u
ĠRa faÅĤ
po zna
ĠMinister stwo
owi sko
Ġni z
gra f
ĠMicha ÅĤa
Ġzje ÅĽÄĩ
ĠPo zy
Ġorgani zuje
Ġstatu s
Ġba j
ĠW io
ĠBo Å¼y
Ġcy kli
Ġsta l
Ġobser wacji
Ġzosta jÄħ
ma ra
Ġbra ta
Ġsi li
Ġska lÄĻ
Ġbrzu cha
ĠPrze ciw
Ġprowa dzonej
Ġza pisu
ĠgÅĤoÅĽ no
ĠprzemysÅĤ owych
Ġwe ge
Ġza ma
ni ÅĤy
Ġpomy ÅĽ
Ġd re
ni czne
ĠÅĤa dowa
Ġpomieszcze niu
ĠczÄĻstot liwoÅĽci
Ġpowsta jÄħ
ÅĦ czo
Ġor gan
Ġpodzie m
Ġo mÃ³w
Ġsztu cznych
Y ST
Ġra cjona
ĠBia ÅĤym
Ġw budowa
Ġak cen
Ġtwo rzeniu
ĠMi strz
j ni
Ġczeka m
Ġdie cie
Ġnajnow szych
Ġhote li
Ġdal szym
Ġmg r
ĠWie lki
ĠbÄĻdÄħ cych
Ġni gdzie
rz wi
Ġka li
Ġod dycha
ĠPa try
Ġwy ba
Ġsu chy
ĠRo dzaj
dnio pomor
Ġubezpie czeÅĦ
Ġszko ÅĤÄĻ
ĠKla sy
Ġwynika jÄħce
Ġniez mie
G E
ĠwspÃ³ÅĤczes nej
Ġkiedy kolwiek
sku te
U CH
Ġpa sjÄħ
Ġszy i
ĠÐ ²
Ġul tra
Ġwz orÃ³w
= =
ĠP un
Ġwy prowa
ĠMa x
fi r
AN D
ĠPodstaw owa
ĠRe na
Ġh an
fo ny
Ġ14 0
Ġprywa tnoÅĽci
Ġde lega
ĠdruÅ¼y n
Ġoczeki waÅĦ
ĠF an
ĠUniwersyte t
Dla czego
KsiÄħ Å¼ka
Ġtka niny
rzo nego
sku tek
IA Åģ
Ġewiden cji
Ġnawie rzchni
Ġod waÅ¼
Ġzie lone
ter s
Ġdrog owego
ĠP owi
Ġsta wki
Ġroz leg
ĠPiÅĤ sud
Ġdzier Å¼a
Ġforma cie
Ġo ÅĤ
Ġcodzien nej
Ġswobo dnie
ĠF lo
ku jÄħc
Ġzapa chu
ĠokreÅĽlo nym
Ġza krÄĻ
Ġszko lny
Ġtema tÃ³w
cie lami
Ġu lep
å ½
ko ny
lowa nych
Ġre nt
res s
ĠT ek
czÄħ ca
Ġma le
Ġlek ki
czer wo
Ġm no
Ġprzewi duje
ĠÅĤÃ³ dzkie
ĠKodek su
kre dy
li ÅĤa
tni cy
Ġpo bo
Ġza czer
ĠS zu
er s
Ġka wiar
ĠJed na
Ġwi dziaÅĤ
sz czyÄĩ
ob by
Ġmniej szych
Ġwizy ta
Ġzna my
Ġwska zujÄħ
Ġboga te
czy mi
Ġzna ki
Ġwo kali
ĠO na
Ġisto tnych
Ġdro Å¼d
t owie
ĠokreÅĽlo nej
IE L
ĠLi ceum
ĠKraj owej
B an
Ġczar nym
ĠKre dy
Ġrodzi nnych
ĠrÃ³wno czeÅĽnie
ĠpiÄĻk no
Ġ/ /
ĠG lo
Ġro kiem
Ġdosta ÅĤ
Ġniesamowi te
ĠPR L
Ġa nek
Ġpozosta jÄħ
Ġoby cza
tyw ny
Sprze dam
Ġw chÅĤania
Ġprze nosi
Ġuz bro
Ġdo maga
Ġ Å¼ony
ĠFo to
Ġprze waÅ¼nie
Wszyst ko
Ġludz kiego
si k
Ġregu laminu
re mo
gi mna
Ġpoda nia
ĠW czeÅĽniej
kaza ÅĤo
Ġspowodowa ne
ĠbÄĻdÄħ ce
Ġjedy nÄħ
p sy
Ġpo ciÄħg
Ġk ciu
mor ty
Ġtra f
Ġdesi g
ĠskÅĤa du
Ġuwa dze
Ġnie pew
Ġprze noÅĽ
si ness
Ġotrzyma li
Ġorygina lny
si n
ĠKo lo
Ġwie rzÄħ
ĠSta nach
Ġle sie
un g
ĠWa sze
ĠElb lÄħ
wczy m
Ġod er
99 99
Ġpobra nia
ĠOgÃ³l no
co nej
ĠS M
ĠSz wajcar
di v
re f
Ġnaj taÅĦ
Ġroczni cy
Ġopa kowanie
Ġturysty cznych
taj cie
nau gu
ĠK ancelar
Ġhistor iÄħ
Ġide i
ro ba
Ġznajdu jÄħcych
Ġmy cia
ro id
ĠW Ã³wczas
Ġmechani zm
ĠJa giel
Ġse sja
Ġczerwo ne
ĠE N
Ġpodzi wiaÄĩ
à ¤
ĠPo moc
Ġwypoczy nek
jÄħce mu
ĠpÃ³Åº no
Ġprzyjem noÅĽci
ĠpÅĤy wa
Ġprzeprowa dziÄĩ
Ġnie obec
ĠA L
ĠT E
Ġznakomi cie
Ġn Ã³g
ĠKrÃ³ le
sta l
Ġje z
Ġko k
Ġwy brze
Ġod noszÄħ
le cie
Ġod m
ty zm
ĠwziÄĻ ÅĤo
Ġsta bili
ĠÅĽnie gu
Ġnie waÅ¼
sk y
Ġin try
ty cy
ĠP DF
Ġz o
ĠPol skÄħ
ĠRa j
kle ja
Ġwskaza ne
al nego
tu jÄħcy
Ġchwi lÄħ
Ġzmniej szenie
Ġczo ÅĤ
Ġra dia
Ġpozy cje
Ġniedaw na
ĠSej mu
ĠmiÄĻdzynarod owej
ndy na
to na
Ġspra wiÄĩ
ĠE dy
Ġnatura lnej
ĠE m
Ġadre su
Ġkomple t
Ġbibliote ki
ĠpoÅĤo Å¼ona
ĠL w
ĠKa pita
ĠogÅĤa sza
Ġe wange
Ġzazna czyÄĩ
Ġprzy wo
Å¼ owy
Ġmi sji
Ġminima li
Ġtrwa ÅĤy
ĠchÅĤop cÃ³w
Ġ199 4
ĠChe ÅĤ
ĠIS O
s che
ĠzÅĤo ÅĽli
lik wi
ĠJe rzego
tytu ÅĤowa
Ġjakie kolwiek
Ġco f
le ka
Ġszero kÄħ
Ġ7 2
Ġra na
Ġr i
Ġmazowie ckie
Ġchce cie
dz twie
ĠM B
Ġuzna nia
ĠWÃ³j ta
Ġmie szczÄħ
ĠKazi mierz
Ġf ron
Ġtable tki
Ġsko ja
Ġd ek
Ġpar ki
ÅĽli z
Ġprzygo dÄĻ
ĠpeÅĤ niÄħ
Ġpro si
al nym
IN G
ĠS tru
Ġzie lony
ĠtÄĻ sk
Ġzwycza jnie
Ġpo miaru
Ġne utra
Ġstre f
Ġpol ie
Ġspo czy
ĠZa kres
ĠÅĽcieÅ¼ ki
Ġza wiado
Ġzna jÄħ
ĠspÃ³ dni
pol ska
Ġpod ar
Ġegza min
Ġli ÅĽci
ĠgÃ³ rach
ĠpÃ³ÅĤ ki
Ġo strzega
Ġwspo mnie
Ġwi dowi
ĠzwiÄħz ki
S ie
ni my
Ġgru dniu
Ġpowsta ÅĤo
P ow
Ġmog ÅĤem
Ġbez wzglÄĻ
Ġznalaz ÅĤem
mi l
ĠczÅĤo nka
ĠN F
ĠposiÅĤ kÃ³w
je ÅĽli
cyj noÅĽÄĩ
Ġefek tem
Ġtrafi Äĩ
ĠzamÃ³w iÄĩ
Ġkom bina
sa l
Ġsa teli
Ġdo pÅĤa
Ġprofesjona lnych
Ġzespo le
ĠS ÄĻ
ĠwpÅĤy wajÄħ
ĠTob Äħ
Ġogrom nym
Ġnadzie i
ĠJapo nii
Ġnorma lne
Ġpo god
Ġkro ki
K to
Ġw Ã³j
be la
kowa nej
Ġmiejsc owo
ĠrÃ³wno leg
ĠWy niki
Ġsu che
z mai
Å¼e ni
Ġeduka cyjne
Ġjak Å¼e
ĠÅĽlu bu
ĠBu ty
Ġprze jÄĻ
w ro
rzÄĻ t
ĠchcÄħ c
ku m
ĠrÃ³w na
Ġpodmio ty
czy ÅĦskiego
Ġofia ry
Ġsku tkÃ³w
Ġpozosta nie
Ġse x
Ġosobi stego
Ġpom py
ĠMo im
ĠdziaÅĤ ce
Ġzale tÄħ
Ġ {
ĠnastÄĻp nym
ĠD ona
Ġspa Äĩ
Ġaktyw nych
Ġdo o
dze j
Ġagre syw
Ġtelefon Ã³w
Ġpa ste
Ġwyobraz iÄĩ
ĠnaleÅ¼ noÅĽci
kowa nym
Ġzna kiem
fi kowane
Ġzie mia
Ġ Ñģ
ĠC am
Ġodzyska nia
ĠF ak
d l
Ġwy ÅĽmie
Ġrozmawia Äĩ
ĠwysÅĤa Äĩ
ĠBo giem
Ġpodej muje
IE R
Ġreali zuje
grze wa
ta t
letni Äħ
ro zumie
Ġnauczycie le
ĠR zÄħ
Ġtempera turÄĻ
ĠRob o
Ġdyspo nuje
ĠV III
ne ta
Ġra dzi
Ġgrani cÄĻ
Ġzare zer
Ġpromo cja
Ġdodatk owÄħ
Ġru r
Ġdwu krotnie
Ġwy bierze
Ġsprze ci
d nÄħÄĩ
me ga
u jÄħ
Ġk in
Ġcie szÄĻ
ĠzasÅĤu guje
Ġzatrzyma Äĩ
Ġprzysz ÅĤo
ĠszczegÃ³ÅĤ owe
Ġfil tra
Ġkomputer Ã³w
de ÅĤka
Ġzasa dami
Ġprzypo mnia
ĠwypoÅ¼y cza
Ġga raÅ¼
war d
Ġuro zmai
Ġkie ÅĤ
Ġkonta ktÃ³w
Ġwykorzysta niu
Ġpo Å¼egna
Ġza miar
ĠJa va
Ġgrup Äħ
ct w
Ġzdr owego
Ġpozy cjonowanie
Ġopo ny
ĠTy p
co nego
je nie
Ġka m
ĠpiÄĻk nej
Au tor
Ġregu lami
Ġwizeru nek
b owe
dzie m
d wa
ĠzakoÅĦ czyÅĤ
Ġbile tÃ³w
lim pia
Ġna de
\\\\ \\\\
ĠchÄĻ tnych
ĠGÃ³ ry
n ni
m owej
ĠW ej
Ġzapro szenie
Ġwar stw
for mu
Ġop cje
cu s
Na sz
b log
Ġ0 5
ty lko
letni ch
owni kom
Ġmili ony
ĠzwiÄĻk szenia
Ġ; -)
ĠskÅĤada jÄħ
Ġroczni cÄĻ
Ġar mii
Ġprawdopod obie
ĠKa toli
Ġzga dza
Ġpacje n
ĠSzcze gÃ³ÅĤ
ĠkawaÅĤ ki
ĠAr tyku
Ġtem pie
Ġniewi do
ĠIz by
Ġobsza rach
Ġprofesjona lny
ĠrÄĻ ko
Ġasorty ment
Ġli tur
Ġeme ryta
cjo ni
b em
Ġs or
pa dzie
ĠPosiada my
Ġbiu rze
ĠMar iusz
Ġszu fla
Ġrozmia rÃ³w
Dzie ÅĦ
Ġprzy wÃ³d
ĠTrybu na
Ġko ta
ĠRe ad
Ġprze Å¼yÄĩ
Ġzaj mowa
ĠGÃ³ rze
Ġfrag menty
Ġinicja tyw
Ġkrwi o
ĠKo nie
Wie le
Ġog nia
Ġkontra hen
ĠpiÄĻ cio
Ġklasy fikacji
Ġfak tury
Ġprzedstawi ciel
Ġboga ty
ĠMikoÅĤa ja
Ġzjawi ska
ĠW raz
Ġinwestor Ã³w
Ġob licza
Ġzie leni
Ġ7 7
Ġda nie
ĠWo je
Ġwoj na
Ġinteresu jÄħce
Ġkto re
wa lne
ĠP al
czy c
Ġofer owane
szy my
ĠI X
s so
Ġi mienia
sa da
cho Äĩ
Ġta ÅĦca
Ġfryzje r
b lu
t te
Ġjesie ÅĦ
Ġmog liÅĽmy
Ġustaw Äħ
Ġu ch
Ġgrani ce
Ġtele komunika
Ġra ty
I B
Ġwy szedÅĤ
Ġostatni Äħ
Ġmo re
Å¼a nie
Ġpotencja lnych
ĠRze szÃ³w
Ġwystarcza jÄħco
Ġograni czeÅĦ
Ġpomieszcze niach
Ġprzygo dy
Ġstra Å¼
ĠF in
stawia my
Zd jÄĻcia
ĠA zji
Ġzrozu mienia
ĠDV D
Ġinterpre tacji
Ġra portu
Ġmi gda
Å¼y na
Ġapara tu
Ġty py
Ġek stre
le nder
Ġno siÄĩ
ĠWarsza wskiego
ĠÅĽre dnie
ĠPO D
wo ry
Ġznajo my
Ġdy sk
Ġpodstaw ÄĻ
Ġkra je
Ġfunkcjona lnoÅĽci
Ġpropozy cjÄĻ
ĠK tÃ³
Ġpo dziaÅĤu
Ġkredy ty
ĠupÅĤy wem
Ġte o
gru p
Ġwzo ru
Ġpisa ÅĤ
gar nia
Ġnie lega
Ġnajwy Å¼ej
Ġchwi la
Ġfunk cja
Ġk westi
Ġrozmia rze
Ġ6 1
Ġczar na
j one
S tu
Ġ199 6
Mie szka
k cje
R ON
ĠwnÄĻ trzu
Ġszko lnych
Ġze stawy
Ġwy jeÅ¼dÅ¼a
Ġmotory za
ĠÅĽwia tem
Ġzako cha
v y
trze bu
czÄħ Äĩ
Ġwice pre
Ġza biega
ĠpaÅºdzier niku
Ġroz puszcza
Ġban ki
J ÄĦ
w cza
Ġo ch
den ty
Ġ5 7
Ġu kÅĤadzie
Ġklik nij
Ġzesz ÅĤym
Ġograni czenie
? âĢĿ
w cÄĻ
Ġsil nie
Ġtwoje j
ĠgÃ³ rze
u d
Ġpotra wy
Ġkie rowaÄĩ
Ġko ry
wi t
Ġalu minium
da Å¼
Ġu to
ph p
ca ne
ĠProdu kty
Ġpo jecha
Ġdziedzi ny
towa nym
Ġwycie czkÄĻ
t wÄĻ
ro r
Ġwy prawy
Ġzapy taÄĩ
Ġ6 3
Ġwygra Äĩ
Sa mo
Ġbie gÃ³w
ĠG M
Ġstara ÅĦ
Ġprze two
Ġwyp rÃ³b
Ġna jem
Ġprosto kÄħ
ru p
Ġte stu
Ġmu ze
Ġmuzy cznych
f ar
Ġprzesz k
i da
ob serw
Ġta niej
Ġrywali zacji
ĠÅ¼y czÄĻ
pi n
âĢ ¡
ĠK wa
Ġpowro tu
dar noÅĽci
Ġu miar
Ġtra sÄĻ
ĠLe gi
Ġporo zumienia
ĠNie po
Ġstwo rzony
Ġpow strzyma
ĠKo szt
Ġprogram em
Ġstra ch
Ġklucz owych
Ġprzy na
ch nia
Ġ ....
Ġstycz niu
nie sio
Ġek strak
Ġprzej ÅĽcia
Ġpoja wiÄħ
ĠD owie
Ġnieda leko
ĠZamawia jÄħcego
Ġrozgry wek
x x
Ġszczy t
Ġpo szko
Ġu pew
Ġsp y
Ġli t
ĠKa ra
ĠMagda lena
Ġubieg ÅĤego
Ġwy pie
ĠSerwi su
Ġtwier dzÄħ
T P
Ġwygra ÅĤ
ĠKiedy ÅĽ
Ġpowo dem
ĠF la
ĠwÅĤaÅĽci wo
vi ce
ĠUÅ¼ytk ownik
Ġmo st
si l
ĠnajwiÄĻk szej
ĠwspÃ³lno ty
ĠChrystu s
Ġwy m
zy n
Ġprzedsta wienie
Ġgenera cji
Ġdosta je
D om
g mu
Ġf re
Ġpa trzÄħc
Ġz gu
ĠKon tro
tyw nie
Å¼e by
Ġza kÄħ
ĠU M
Ġmog ÅĤoby
ĠE r
ĠniezwÅĤo cznie
ri c
Ġwo lnym
ĠO R
Ġwszech stro
Ġzna czeniu
Ġhumo ru
Å¼e r
Ġu ÅĽwiado
B ie
Ġi P
ĠwspÃ³ÅĤ czyn
ĠÅ¼y czenie
logi cznÄħ
se ra
nu jÄħcy
Ġpopular noÅĽÄĩ
Ġja ch
k rze
ä º
Ġh am
ktu j
Ġwej ÅĽci
nowa ÅĤa
ĠKrÃ³ lew
Ġoku lary
Ġna sk
Ġwo l
Ġprze pie
Ġreklama cji
Ġosobi ste
Ġelektroni cznych
ĠN owej
AR Z
owi u
" )
tyw nych
Ġwy grywa
pa ÅĤ
in ter
Ġza rzÄħ
Ġre mi
ta my
Ġranki ngu
C IE
lo ad
Ġtechni cznej
ne ÅĽ
ĠT em
ĠAmery ki
Ġatmosfe rze
Ġs la
Ġrela ksu
Ġpi szÄĻ
Ġwyj dzie
Ġczy tam
g ÅĤÃ³w
o th
ĠmiÄĻk kie
rzo nej
Ġtym czasem
Ġubra ÅĦ
Ġzjawi sko
Ġcier piÄħ
ĠWiel kiego
ĠPro ble
wa cja
ne ko
un kÃ³w
Ġgospodar czych
Ġsub te
Ġn ow
Ġm undu
Ġmog e
ĠPoli cja
Ġintegra cji
Ġorga nu
t he
Ġwar stwa
Ġstwier dza
Ġranki ng
ĠLe a
Ġwyra Å¼enia
Ġcia ste
ĠÅĤa dne
Ġprze ÅĤÄħ
ĠRa dom
ĠPrzy j
ĠmaÅĤÅ¼e ÅĦstwa
ĠS al
Ġnapisa ne
Ġpodej rza
ĠkrÃ³ le
Ġludz kie
ĠLi gi
li ce
ĠzaczÄĻ ÅĤam
Ġsamopo czucie
Ġspo ns
ul l
ni cza
Ġludz kiej
tyw na
ĠÅ¼y jÄħ
Ġwst rzÄħ
lek cja
Ġprzy puszcza
sowa nego
ĠP ower
ĠC an
gra cji
ĠNau k
ĠzobowiÄħza nia
ĠGÅĤÃ³w nym
Ġprze test
Ġspecja lnej
Ġzmieni ÅĤo
Ġp seudo
Ġmo z
Ġwoj ska
Ġpod powie
O publi
Ġoce niÄĩ
ĠrÃ³Å¼ nym
Ġk lÄĻ
ĠGÅĤÃ³w ny
Ġpi sma
Ġco dzienne
ĠAktual noÅĽci
Ġoczywi ste
ĠrozpoczÄĻ ciem
Ġprowa dziÅĤ
Ġdodatk owy
Ġpotrze bÄĻ
gÅĤo szenie
ĠzakÅĤad Ã³w
Ġsiedzi by
ĠFundu sz
przy ja
Ġwo ka
Ġchoro bÄħ
Ġklasy czne
i sto
Ġniniej szym
T K
Ġkraj owych
Ġkli ka
w kach
Ġpi wa
Ġdoskona ÅĤa
Ġodku rza
Ġprze wie
Ġd enty
Ġrozdziel czoÅĽci
Ġjezio ra
Ġmie jskich
Ġ Å¼Äħda
Ġwidz Ã³w
Ġzasta nawiam
ĠogÅĤo szenie
ĠsÅĤucha Äĩ
Ġtrwa ÅĤa
Ġintensyw nie
U Å¼y
Ġpr owin
Ġpoinfor mowaÄĩ
Ġkur ier
Ġpar k
c owa
Ġwyda Äĩ
Ġprzew lek
pod oba
e ko
g owie
ĠporÃ³wna nia
ĠMo re
ĠPo cz
ĠSzero koÅĽÄĩ
ĠNau ki
Ð ´
owni kiem
ĠD ni
sz ÅĤam
Ġza zdro
ĠwiÄħ Å¼Äħ
Ġz wany
ĠzgÅĤo siÄĩ
ĠU czniowie
ĠpÃ³ÅĤ nocy
Ġroz wa
ĠH ali
Ġpre zesa
Ġ0 6
ĠrozwiÄħza Äĩ
Ġin du
Ġzaj mie
Ġmagazy nu
ĠPo m
Ġgi ta
Ġz wane
Ġresz tÄĻ
Ġtru ska
Ġpo ru
Ġsport owej
Ġprzyjem ne
ce ni
Ġusta liÄĩ
Ce lem
Cie ka
ra nie
Ġniemie ckiej
Ġe ven
Ġjas na
Ġblo ka
ĠpoÅĤu dniu
ĠSe na
Po l
ÅĤ owo
sty na
ĠH el
ĠEuro pa
ĠK sztaÅĤ
Ġlisto padzie
ÅĽ c
Ġkie p
Ġcodzien nym
Ġsze fa
Ġszyb ka
ĠZwiÄħz ek
Ġu mo
Ġlep sza
ĠJagiel lo
f ry
Ġzabu rzeÅĦ
Ġprojekt owanie
cha m
tu jÄħcych
Ġroz ciÄħga
Ġnaj prawdopodobniej
Ġk w
Ġimpre zÄĻ
Ġnie wÅĤaÅĽci
Ġzadowo leni
c tor
Ġzmia nami
Ġrozry wki
ta cyjne
ĠHo landii
Spo tka
Ġprzy jecha
Ġma sÅĤo
ĠurzÄħ dzeniu
Mo Å¼na
Ġna klej
te Å¼
ĠProdu cent
d wo
Ġzauwa Å¼a
Mi mo
ĠKo ÅĤa
Ġpodej rze
ro czne
wi czenia
Ġry ba
Ġpo peÅĤnia
ĠmogÅĤa by
Ġmar cu
Ġlip cu
Ġgo towa
Po za
Ġhu mani
kowa nego
no ra
szo nego
Ġsz we
Ġod dziaÅĤ
ĠBiu ra
trzy muje
Ġloka l
Ġna prawa
gimna zja
Ġ199 5
Ġdo pÃ³ki
Ġpotwier dzenie
Dla tego
ĠInter na
Å¼ noÅĽci
Ġdaw nych
ĠTro chÄĻ
Ġprzy kÅĤady
se nek
ĠÅļ redni
Ġro la
Ġnie korzyst
Ġpo jÄĻcie
Ġnajnow szej
ĠciÄĻÅ¼ kie
Ġoprac owanie
ĠWi to
Ġprakty k
Ġ: (
Ġefektyw noÅĽci
ĠPK P
ĠDziaÅĤa lnoÅĽÄĩ
sk owych
Ġdo Å¼y
szta ty
Ġkon trak
ĠXV II
Ġprzeprowa dzenie
ĠOsta tni
ĠpodÅĤo gi
ĠPa nu
Ġbra ci
go ryt
Ġdzia ÅĤu
ĠÅ¼y cz
ĠLondy nie
ĠÅĽla dy
cz kiem
Ġstowarzy szenia
ĠK O
Ġp rz
Ġgrafi ki
Ġwyna laz
Ġnie je
ĠCh ro
Ġnaro du
Ġczy szczenia
Ġza pis
ĠcÃ³r ki
Ġodby waÄĩ
Ġpo tom
ĠmÄħ ki
Ġumie szczo
Ġpodstaw owym
Ġni skiej
ĠCh in
Ġza mia
Ġapli kacje
Ġob ca
Ġko dek
ĠWy bra
Ġrozwo j
wi ÅĤo
ry s
OW IE
rze ni
Ġne w
sier dzia
ĠRegu lamin
S I
Ġpoli tycznej
ow skÄħ
Ġmoto cyk
Ġwyda ÅĤ
ĠTea tru
ĠE g
Ġprzyjem ny
p ce
Ġpostanowi ÅĤam
Ġla s
ĠKaro l
U E
m ba
Ġwy pi
Ġtrwa ÅĤoÅĽÄĩ
Ġinstru kcji
ĠdziaÅĤa jÄħcych
ĠZe bra
ĠÅļwia d
ĠU mie
Ġzde fini
Ġtabli cy
Ġna rusza
li s
Ġprzemy ÅĽle
Ġkt ÄĤÅĤ
Ġpoch waliÄĩ
ĠK rze
ĠWy posa
Ġbran Å¼
ĠBibliote ka
Ġod biÃ³r
Ġacz kolwiek
ĠP IT
ĠInforma cja
szo nÄħ
ĠÅ»y cie
Ġin Å¼
spek tora
dzÄħ ce
Ġprzysz ÅĤych
Ġkonsu men
Å¼a nia
ĠszczegÃ³l nym
Ġwi dziaÅĤam
Ġbud owaÄĩ
ĠchÅĤopa k
czÄħ cym
i zo
ak e
Ġsprawoz dania
J o
Ġrozmia rach
nio sÅĤy
gi czne
Ġwy czy
Ġegze ku
Ġstu dio
ĠGo rz
Ġek skluzy
Ġwygod ny
ĠT Y
ĠRy nek
ĠRoz dziaÅĤ
Ġszuka m
g owanie
Ġtyp Ã³w
Ġbrak owaÅĤo
ĠFina ns
Ser decznie
ĠN umer
Ġniebezpie czne
ĠdziaÅĤa niem
Ġwyda jÄħ
Ġa li
Ġpod po
Ġposze rza
ĠsÅĤy chaÄĩ
Ġszko lnej
ĠP P
ĠzaczÄĻ li
bo ta
Ġsygna ÅĤu
ĠSta nÃ³w
ĠPrezyden t
sty n
ĠC al
ĠSkle pu
Ġtrwa jÄħ
Ġokaza ÅĤa
Ġbra t
ĠdÅĤugi ch
Ġin dziej
st nia
Ġmedy czne
ĠpÅĤa ciÄĩ
bur g
OÅļ ÄĨ
ĠspoÅĤecze ÅĦstwo
N owy
ĠZa pro
Ġkonsekwen cje
ĠFinan sÃ³w
Ġ2 30
wa nÄħ
Ġro sy
wia jÄħc
W I
( ...)
Ġtor by
szy ÅĤa
Ġfar b
ĠLe ch
Pre zen
Ġnie chÄĻ
ĠG nie
Ġd wÃ³j
do ra
Ġa ng
Ġmuzy czne
Ġlotni ska
Ġde ski
Ġre ga
Ġa morty
Ġdekla racji
Ch ce
ĠzapÅĤa ci
Pier wszy
niÄĻ tych
Ġw tÃ³
ĠR ek
Ġwyda waÅĤo
c owy
Ġkibi cÃ³w
ĠCe ny
ĠLo tni
ĠAr mii
Ġopa kowaniu
sia k
G R
Ġinwesty cja
Ġce ry
Ġgwaran cja
ĠBydgo szcz
Ġspraw noÅĽci
Ġharmo no
Ġwyro by
ĠbudÅ¼e t
Ġwyna jÄĻcia
4 00
Ġpro mu
fi kowany
ĠbÄĻdÄħ cy
Ġt v
Ġz rze
Ġsierp niu
ĠKazi mierza
Ġdz iÄĻkujemy
S zy
Ġwy gÅĤo
ĠpÅĤa tni
st kÄĻ
Ġpodmio t
ĠY o
ĠMary i
Ġ ~
Ġz rzu
ĠBi sku
Ġma try
Ġmi le
Ġpobra Äĩ
ĠFranci szka
Ġspoj rzenie
Po siada
ĠAn ny
Ġszero kim
wa le
ĠpasaÅ¼e rÃ³w
ĠCh ÄĻ
P y
Dz iaÅĤa
Ġnierdze wnej
ĠmoÅ¼li wa
Ġa f
cz niej
Ġchle ba
Ġga ÅĤÄĻ
Ġmi strza
pro gram
Ġkli kniÄĻ
ĠO jciec
Ġwie ÅĽ
Ġspowo dowaÄĩ
ĠR an
ĠNaro dzenia
Ġzreali zowaÄĩ
ĠwÅĤa dzÄĻ
cze n
Ġna strÃ³j
Ġleka rze
hi te
Ġzaufa nie
ĠD is
pu n
Ġhydra uli
p ri
Ġzwyk ÅĤe
ĠKo men
ĠE li
szÄħ c
ĠZ im
Ġb rzy
ĠwÄĻ z
ce rt
Ġwizeru nku
ĠMÅĤo dzieÅ¼y
zy ka
Ġnume ry
ĠFacebo oku
W s
Ġod rÃ³Å¼
Ġzam or
Ġpio senek
Ġkolej ki
Ġsztach e
Ġ0 3
ĠprzedsiÄĻbior stwo
ĠW szelkie
Ġniemie ckich
prze strze
Ġg r
b ri
Ġwzo rem
i de
zio m
** **
pu s
o szczÄĻ
n owego
ĠLe cz
Ġwy ciÄħ
Ġulubi one
Ġsmart fon
Ġod miany
Ġrecen zji
Ġu ci
Ġogrom na
Ġkonce rty
Ġu twÃ³r
Ġmar che
sz kiem
Ġsio stry
Ġautor ka
ĠusÅĤy sza
Ġstosowa nych
ĠaranÅ¼a cji
ĠWy dziale
Ġz bi
Ġbal kon
Ġmo rzem
ĀĀĀĀ ĀĀĀĀ
ÅĦ scy
ĠOgÃ³lno ksztaÅĤcÄħ
Ġskonta ktowaÄĩ
ĠwÅĤa d
ĠSz czy
Ġurlo pu
Ġkomfor tu
Ġaktyw ny
ĠG wia
ĠCi Äħ
Ġnau ce
Ġzastosowa ÅĦ
ma nie
ĠOb raz
ĠCha raktery
lÄħ t
Ã Ĥ
Ġkon wen
ĠWo la
Ġrodzi nnego
Ġk l
ĠpoÅĤo Å¼enie
Ġcieka wÄħ
o ka
ĠA ktyw
Ġcho in
Ø§ Ù
ĠI za
Ġgo ÅĽÄĩ
end ium
N owo
-------- --------
ĠCo raz
Ġdelika tny
Ġkor po
Ġniespo dzie
ar ch
Ġspad ku
Ġcieka wie
Ġgru pach
Ġumie ra
ĠOp en
Ġsamocho dzie
sp la
ĠPo Å¼y
Ġk lej
Ġdy stans
tycz ki
K i
ia l
ĠMo ni
ĠH or
Ġnajpopular niejszych
Ġfe no
d nymi
ĠZa nim
Ch cia
ĠO kazuje
Ġucze ÅĦ
ĠTea tr
ĠTra dy
dz kich
Ġpew noÅĽci
Ġna raz
Ġ: ).
ĠWy bÃ³r
ĠA N
C on
t ÅĤa
Ġnowoczes nym
Ġpo krzy
Ġmuzy kÄħ
Ġwy ÅĤa
ĠzakÅĤad ce
Wy so
Ġtwo ja
ĠC Ã³Å¼
Ġkwa su
pe dy
ĠzdÄħ Å¼y
ĠR EG
Ġpowie dz
ĠTran s
Ġtem po
ĠU ro
20 20
ĠIm pre
Ġlo sy
ĠGo ÅĽci
Ġna bra
Ġpo ÅĽrÃ³d
Ġdodatk owego
Ġwymia nÄĻ
e du
ĠD obra
Ġmie dzy
sz kÄħ
ran ge
Ġumie szczone
ĠMÅĤo dzieÅ¼
ĠkrÄĻgosÅĤu pa
Ġdzieci ÅĦstwa
li wa
gla da
Ġjedno czes
Ġdobra Äĩ
ĠZw ÅĤaszcza
Ġwiary god
Ġzwie dza
ĠKo mor
Ġwspania le
ĠPod ob
ĠprÃ³ ba
lo ka
Ġnie ÅĽ
Å¼e Äĩ
lni cy
Ġuroczy stoÅĽÄĩ
Ġdo mi
ĠspÅĤa ty
kse li
ĠprzeglÄħdar ce
Ġprze rÃ³Å¼
Sy stem
D ro
tegor ie
ĠMi ro
rzo m
ĠwÄĻgl owo
si li
t su
ĠDziaÅĤa nia
ĠK rem
st ing
ĠZa u
ĠOpera cyjnego
ĠG rand
Ġzim owe
Ġniebie ski
ĠÅĽlub ne
ĠD em
ĠobrÃ³b ki
Ġroz kÅĤada
no Äĩ
Ġza gi
ĠA c
Ġjednost ka
t ti
sa mo
gdy ÅĽ
cti ve
ma nia
Ġrze czÄħ
Ġsil ny
Ġzaw dziÄĻ
ĠÅĽmia ÅĤo
Ġodci nka
ĠmiesiÄĻ cznie
Ġno sa
ĠWi do
ĠUrzÄĻ dzie
Ġprogra mi
ĠzÅĤo ty
ĠpÅĤy tÄĻ
dzi na
Ġnaz waÄĩ
Ġ6 8
ĠRekla ma
Ġzrobi ÅĤa
ĠPod karpa
Ġkil koma
Ġpoli tyczne
Ġza p
Ġpoja zdy
Ġsprzeda Å¼Äħ
Ġzwie dzanie
Ġa z
Ġrozgry wki
no szenie
Ġkana ÅĤ
nu m
ĠZa jÄĻcia
ĠpoÅĽwiÄĻ cony
Ġpolicja nci
Ġcywi lnego
Ġka dr
ĠTe ch
ĠbezpoÅĽre dniego
Ġrekla mowych
Ġoku pa
Ġin tym
ĠRy b
ĠK ÅĤo
ow nych
Ġopi nia
? )
z do
Ġza chodzÄħ
Ġod bija
ĠSo po
Ġje chaÄĩ
Ġw szy
g owym
ĠgÅĤ owi
ĠspeÅĤnia jÄħ
Ġn owymi
Ġ15 00
Ġkandyda ta
ĠH P
Ä¹ ÅŁ
Ġtren dy
Ġtrans mi
ĠE L
ĠSprawie dliwoÅĽci
Ġu si
ĠB re
da s
Ġro ck
n dzie
ĠmÄĻ skie
Ġkim ÅĽ
wo dy
Ġpi ja
200 7
ĠU chwa
da y
ĠpÃ³j ÅĽÄĩ
Ġb Ã³le
Ġprze pisu
N r
ĠOgÅĤo szenie
Ġchodzi ÅĤo
ĠKo le
ÅĤ gar
Ġrozwo jem
ĠG er
å½ ©
nk owego
Ġgru be
Ġuli cach
ĠwyÅ¼ szej
Ġbar wy
ĠpÅĤy cie
Mo ja
D nia
Ġupa miÄĻ
ĠokrÄħ Å¼enia
ĠCzar ny
Ġde kol
Ġma terii
ĠMa ja
Ġwyja ÅĽni
Ġnaby cia
re ali
ĠZ arÃ³wno
Ġkur sÃ³w
ĠY a
Ġpie czy
sek su
ĠsÅĤo i
Ġzrobi ÅĤam
Ġkilku dziesiÄĻciu
ĠZa mÃ³wienia
Ġudziela nia
Ġar cy
ĠÅĤu szczy
ĠNo c
Ġre zyg
Ġwy Å¼y
ĠAr ka
Ġcodzien nych
ĠÅĤatwo ÅĽciÄħ
Ġznalaz ÅĤam
zu ÅĤ
ĠKobie ty
sa rz
Ġprzyw rÃ³
Ġalkoho lizmu
Ġswoje mu
Ġwypad kÃ³w
200 6
ta ÅĤa
ĠLu bi
mi ÅĦsko
Ġn Ã³Å¼
Ġd Å¼
Ġczy te
ĠwÅĤaÅĽci cielem
Ġodse tek
Ġpo piera
ĠdziesiÄĻ Äĩ
gu e
Ġp Ã³
Ġprzemie szcza
Ġrobi ÅĤ
Ġrozmia ry
ĠSam sung
in fo
Ġzapotrzeb owanie
æ ľ
Ġzaka z
Ġpla nach
Ġra port
Ġlikwida cji
Ġsprawdza jÄħ
Ġba zÄĻ
ĠMa ster
Ġre zyden
Ġna krÄĻ
Ġsku piÄĩ
Ġpod chodzi
Ġw skutek
ĠTo p
ĠÅĽre dnia
Ġprezen ty
ĠpoczÄħ wszy
Ġspa lin
ĠKrzyszto fa
Ġstruktu rÄĻ
ra s
Ġcertyfika t
Ġpomie szczenie
Ġ6 7
Ġnie mu
Ġaktyw ne
Naj lep
Ġstro nÄħ
Ġbud owni
Ġnie raz
Ġklu bie
ma sz
ĠWÅĤady sÅĤaw
ĠprowadzÄħ cych
V i
Ġka lor
ĠCo ÅĽ
ĠTV N
wa liÅĽmy
ni sz
Ġce niÄħ
Ġkryter ium
Ġposta wy
Ġdrob no
Ġz mart
Ġlicen cji
Ġz ÅĤy
Pa ni
wa y
Ġwe tery
ĠO ku
Ġkonkre tnie
ĠMi ckie
Ġprawdzi wego
Ġopisa ne
Ġli niÄĻ
ÅĤa ga
Ġcy r
spo r
p ty
Ġpoe ty
ĠJoh n
Ġ( âĢ¦)
Ġpraw nÄħ
Ġwz gÃ³
Ġdom em
Ġroz mie
Ġzach or
Ġsprze dania
Ġli nki
Ġreali zowany
ĠÅĽwie tnÄħ
Ġdoo koÅĤa
Åģ a
Ġprze bo
Ġisto tny
ĠpeÅĤ ny
h an
Ġu mar
Ġnaci sk
ĠWia domo
Ġpo stÄĻpu
A rt
Mi ni
Ġwy noszÄħ
Ġopo n
Ġznajdu jÄħce
Ġkro kiem
ĠmÄħ d
Ġwysp y
Ġp rÃ³Å¼
Ġpi ÅĽmie
Ġwzro ku
Ġtelefoni cznie
Ġbud owania
ĠpoÅĽwiÄĻ ciÄĩ
Ġprzyjem nie
Ġprzy jeÅ¼dÅ¼a
Ġmodu ÅĤ
Ġinspi racji
cu re
ĠkÅĤopo ty
Ġpta kÃ³w
ĠrÃ³Å¼norod nych
C P
ĠpoÅĤu dnie
Ġdziewczy nki
lo p
Ġprzypo mnieÄĩ
ĠrÃ³Å¼ nic
ĠN IP
ar ium
Ġwy d
Ġgrun cie
Ġzmie niÅĤ
Ġkart ki
Ġko ÅĤ
Ġto m
Ġ3 50
Ġbi let
Ġusta wiÄĩ
ĠobowiÄħzu jÄħcych
Ġpy szne
nio s
Ġdoj rze
Ġspecjali ÅĽci
sz ard
ĠFacebo ok
ĠWy sp
Ġgwaran cjÄĻ
Ġzawiera jÄħce
ĠprÃ³ bÄĻ
Ġch rz
Ġkondy cji
Ġzu peÅĤ
p g
ĠprawidÅĤ owe
Ġ6 9
Ġproduk tem
Ġjesie niÄħ
Ġtara s
Ġkomplek sowe
Ġzw ÅĤo
Ġdal szego
Ġzro bienia
ĠPra ce
kie nka
Ġnie Åºle
Ġwo dnych
menta cji
Ġka wÄĻ
Ty lko
Ġprze raÅ¼a
ĠZy gmu
ĠB art
ĠE a
ĠspeÅĤ niÄĩ
Ġczyta nie
ta ni
Je dno
Ġzrobi one
Ġsta ÅĤego
u re
Ġgospodar cze
ĠspeÅĤnia Äĩ
ĠKraj owego
ĠU roczy
li li
ĠwskaÅº nik
ĠsÅĤone czne
sy stem
ĠPolitechni ki
ĠJa ck
ni cj
Ġoba wy
Ġmedy cznej
pÅĤa ta
zu jÄĻ
pi tu
ĠWÅĤo ch
Ġ9 8
! âĢĿ
Ġzach owaniu
Ġklima tu
ĠkrawÄĻ dzi
ĠWa ÅĤ
WA GA
ĠMo nika
Ġprze ra
ĠB MW
Ġg rz
Ġt ri
Ġdek lar
ge s
Ġstandar dy
st rzÄĻ
Ġtwo im
Ġprzyja ciel
Ġwy godnie
Ġza nu
ĠSk rzy
Ġwarszta tach
Ġza strzega
dzie c
Ġczy sto
Ġpo rzu
ĠJed nÄħ
ĠprowadzÄħ cy
Ġzdrowo tnej
Ġuzy ski
ĠskÅĤad ki
kre m
Ġp w
ĠsÅĤa by
Ġuzyska ÅĤ
Ġprzer wie
Ġpa sie
Ġkwiet niu
pu ter
Ġrezulta ty
kÅĤa dniki
ĠDu Å¼y
owi cach
Ġpom or
C zar
ĠBar ce
Ġbuk mach
ĠBiaÅĤym stoku
ĠnajwyÅ¼ szy
ĠmiÅĤoÅĽci Äħ
Ġinsta lacje
ĠPowia towego
Ġdostar czyÄĩ
Ġ1 01
tycz no
Ġgru b
cebo ok
ĠKo per
ty zmu
Ġkonce rtu
Ġzosta wiÄĩ
Ġkrze sÅĤa
Ġbrze gu
Ġszuka jÄħ
dy spo
Ġtwoje go
Ġurodzi n
Ġza glÄħda
C y
Ġakty wi
E P
Ġchro niÄĩ
Ġtere nach
ĠOj czy
Ġde ser
pu je
Ġdzie ÅĤ
ĠobciÄħ Å¼enia
ĠL O
ĠTele wi
kowi ce
Ġinforma cyjny
Ġwy li
Ġzorgani zowaÄĩ
ĠspoÅĤecznoÅĽci owych
a cu
ĠZd jÄĻcia
ĠN AT
ĠKsiÄħ Å¼ki
A G
Ġmo da
owi cza
Ġby l
ĠS hi
Ġreali zowaÄĩ
ĠSe ba
ĠO str
ĠmoÅ¼li wy
Ġdo czeka
ĠU K
Ġspecja lnÄħ
Ġta len
Ġogrze wanie
Ġunika Äĩ
Ġprzemy ÅĽla
Ġbru ta
Ġwyko nujemy
Ġczyta my
Ġznale Åºli
Ġkonfigu racji
Ġsto ÅĤu
peÅĤnie niem
Ġopisa Äĩ
Ġzdrowo tnych
Ġniez miernie
Ġameryka ÅĦskich
Ġka se
Ġkar to
Ġzwyk ÅĤy
Ġpsy chia
ĠK al
w raca
Ġdofinans owania
do ÅĽÄĩ
Ġstandar dÃ³w
ĠTy le
ĠwspÃ³l nych
ra tor
ĠMo to
daw cÄħ
Ġza kon
pie niem
Ġprzedstawi one
dz kim
Ġgo t
Ġka bel
Ġprzy bywa
Ġdrewnia nych
Ġspecja lnym
cz nia
Ġpora d
Ġobej rzenia
Ġnierucho mo
Ġproducen ci
Ġce nne
owa c
Ġwyk walifikowa
ĠzaangaÅ¼ owania
Op rÃ³cz
ĠS ier
ĠZa zwyczaj
Ġzawo dnik
Ġokoli czno
ĠmÅĤo da
Ġwie czy
ĠMistrzo stw
Ġprze jazd
ĠprzepÅĤy wu
Ġmniej sza
N O
Ġpora dni
ÅĤo Å¼enie
e le
l sze
sty ce
Ġre szty
Ġna rzÄħ
Ġosobi stych
ĠgÃ³r nej
Ġ0 4
da ÅĤ
Ġistnie jÄħcych
wÃ³ rz
Ġoka zje
ĠsiÄĻ g
Ġnatura lna
Ġlat ar
Ġpodej ÅĽcia
ĠuÅ¼y cie
ni czej
W spÃ³ÅĤ
ĠNie mniej
ĠÅĤa god
Ġpowo dowaÄĩ
nefi cje
Ġniejedno krotnie
ĠCa ÅĤa
Ġdu m
Roz po
Ġwyobra Åºni
Ġrozumie Äĩ
Ġuprze j
Ġmater iaÅĤa
ak tual
Ġpa sji
Ġje Å¼d
ĠdziaÅĤalnoÅĽci Äħ
N owe
Ġfizy czna
Ġpraw na
Ġtrans fer
Ġna gry
w szyst
Ġsio stra
N owa
Ġotwo rzy
na cji
ĠoÅĽrod ka
Ġobo zu
Ġide o
Ġzez na
ĠPoli tyki
Ġme nedÅ¼e
Ġzwyk ÅĤych
Ġnie mniej
Ġstwo rzyÅĤ
Ġu raz
so lwen
ĠDu ch
Ġko li
Ġli ceum
Ġfil tr
Ġkontro la
Ġturysty czne
Ġog ie
Ġt rz
ĠbezpÅĤa tny
Ã³w ek
Ġboi sku
ĠÅĤo Å¼y
Ġja jka
Ġod pu
A F
ĠksiÄħ Å¼e
Ġpane lu
ĠwskazÃ³w ki
Ġpodatk owych
Ġkaden cji
ĠKto ÅĽ
sta wiÄĩ
Ġpraw nego
kow skiej
Ġpa pry
Ġar cheo
Ĥ ¬
fe rze
Ġpubli cznoÅĽci
Ġsz kie
Ġro le
Ġdy rekty
Ġza Å¼y
siÄħ ÅĽÄĩ
Ġpracu jÄħcych
Ġpodlega jÄħ
ĠO t
Ġobec nym
ĠRa dia
ia mi
Ġnaby Äĩ
ĠKo sza
ĠMar ta
Ġprzypad ki
za nia
å ı
Ġbe st
uch ary
ĠPi Äħ
Ġstu di
Ġwydawni ctwa
Ġme tro
Ġ Ã³
ĠI le
ĠSu b
Ġprawdzi wym
Ġwese la
Ġserwi sÃ³w
ĠmÅĤo de
czo nymi
ĠB razy
Ġwido kiem
Ġtea tru
Ġza par
ĠmoÅ¼li wych
Ġa wans
Ġpo su
ĠPor tuga
ĠB R
Ġrobo czych
Ġso ju
Ġta pi
Ġaktuali zacji
ĠE fek
w no
Ġpa sek
Ġobu dowy
Ġpu ÅĤa
pi sem
ĠokreÅĽlo nego
pa k
Ġsza fy
Ġrozm owÄĻ
Ponad to
Ġjed ne
Ġwyro ku
ĠDzie dzi
Ġawar y
ĠszczegÃ³l ne
Ġne o
ciÄħg nÄħÄĩ
Ġawar ii
gie ÅĤ
Ġludz kich
c la
ĠpoÅ¼y czek
Su per
ĠPe dagogi
Ġdeko racji
Ġprzedsta wienia
Ġu ciÄħ
ĠWojewÃ³dz kiego
nia r
Ġprze cie
Ġza tytuÅĤowa
Ġch cie
ĠOd dziaÅĤu
Ġ Ù
Ġprze szedÅĤ
pa trz
Ġpodatk owego
ĠZ i
Ġkwalifika cje
ĠDostÄĻp ne
ka nia
ĠA P
Ġprzyzna je
Ġudzie lenia
Ġcel lu
Ġroz bu
Ġob szary
sk owy
ĠPaÅĦstw owej
Ġfil mi
ĠwÅĤaÅĽci wym
ĠRy nku
ĠUczest nicy
Ġbadania ch
nos c
Ġ12 5
Ġpoczu cia
Ġpobu dza
owie nie
Ġw kÅĤada
Ġni Å¼ej
Ġor kie
ĠzwyciÄĻ stwa
ÅĤu dnie
ĠX II
za pa
ĠzachÄĻ camy
ci ny
Ġkana ÅĤÃ³w
Ġnarod owej
ĠÅ¼o ÅĤÄħ
Ġzd je
S ze
Ġho ryzon
Ġzna ku
Ġdowo lnej
Ġprze mawia
Ġhote le
ĠA kcesoria
Ġza sÅĤo
tk owego
Ġmetal owe
Ġprzyzwo i
Ġsce na
Ġinten cji
Ġskute cznoÅĽci
Ġszko lne
Ġko stki
Ġkocha m
Ġv on
Â §
Ġprezen tujÄħ
Ġza obserw
Ġface t
Ġwyj ÅĽci
Ġprzy je
Ġan kie
Ġauto rem
Ġprzy chodzÄħ
ĠToru ÅĦ
Ġpra cach
AD Y
Ġkto ry
Ġinstru mentÃ³w
âĢĿ ).
ĠRo man
Ġprzej ÅĽcie
Ġmo dne
Ġszy by
ĠD am
Ġtra w
ĠrÃ³wnowa gi
ĠO kazaÅĤo
Ġcharaktery styczne
Czy taj
Ġroz pu
Ġlep szÄħ
Ġpotwier dzenia
Ġwykona wcy
Ġjo gu
Ġmiejsc owego
ĠP AN
Ġprofi lak
Ġgodzi na
ĠwypÅĤa ty
Ġprze li
Ġwy cho
ĠÅĤÄħ cznej
bie j
ve ry
Ġener gia
Ġinter nau
Ġzarezer w
ĠsÅĤa be
Ġwyro k
ĠdÅĤuÅ¼ szego
nik owi
Ġkier ownik
Ġre per
z owy
Ġum owie
Ġspraw dzÄħ
g lar
ĠwÅĤa dza
sty kÄĻ
ĠÅ¼y la
wi ja
Ġwy ciÄĻ
ch er
Ġle ni
Ġposiada m
Ġwie kÃ³w
ĠdÅº wi
ĠO ce
li c
Ġsz kÅĤo
Ġstar cie
Ġmi ÅĤe
rza dko
ĠskÅĤa dek
ĠZ wyciÄĻ
t rÄħ
Ġpole ciÄĩ
ĠogÃ³l nej
Ġhistory czne
Ġna stro
Ġtrady cyjnie
Ġhand lowe
Ġwywia d
Ġra miÄĻ
Ġo ty
Ġwar te
Ġreali zacjÄħ
Ġg rzej
ĠWy glÄħda
Ġod ro
Ġpod wo
ĠzajÄĻ ÅĤa
Ġf ru
ÅĦ cem
Ġcho re
I X
Ñ ħ
ro nt
pÅĤy wa
Ġustawie ÅĦ
Ġelegan ckie
Ġpa ÅĦ
Ġfa so
t in
ĠCzy m
c owej
Ġprzy kÅĤadzie
Ġrado ÅĽciÄħ
Ġobni Å¼a
ĠToru niu
Ġnegocja cji
Ġsza cu
Ġtygod niach
Ġprzygotowa na
se czki
ĠdÅĤugo termin
j owy
no mia
Ġod mawia
Ġze ch
Ġpi k
Ġda tÄĻ
w cÄħ
tu be
Ġw ciÄħga
t kie
Ġodcie ÅĦ
Ġser iÄĻ
Ġdora dztwo
Ġnie wo
Ġwie dziaÅĤam
Ġsied miu
Ġku kury
ĠBiaÅĤy stok
Ġdemok ra
sz czki
Ġucz niom
Ġsamo bÃ³j
Ġka no
ĠCze ch
ĠL G
ĠR ez
ĠsÅĤowa mi
Ġzmniej szyÄĩ
Ġkosme ty
Ġfar by
Ġpotrzebu jemy
ĠNa szym
Ġkorzyst ne
Ġroz ja
ĠksztaÅĤ tu
ĠÅĽmier te
szcze niem
ĠwÅĤaÅĽci wej
Ġre kon
Ġak ry
ĠÐ ¸
Ġ9 6
Ġ199 2
fo rum
Ġme dal
T C
Ġw nu
Ġkieru je
Ġzna nego
ĠO rze
ĠW WW
Ġre gene
Ġprzysz ÅĤa
Ġprze ba
towa nÄħ
Ġwysta wa
ĠA posto
re dnia
Ġobra mowania
ĠBu dowa
Ġwy sÅĤucha
Ġpoda ny
Ġprzy jÄħÅĤ
ĠwykoÅĦ czenia
Ġwery fikacji
Sk lep
Ġpodkre ÅĽliÅĤ
Ġm em
Ġopar ty
Ġg Äħ
u zu
Ġza szczy
ĠW ier
Ġwa sze
Ġleka rzem
Ġze ro
B C
Ġhistory cznych
Ġgi gan
Ġbia ÅĤego
ĠÐ ½
Ġwykony wanych
Ġna rodzi
Ġhi p
Ġza wia
Ġprzypo m
ĠLu dwi
ĠG rze
Ġroz um
Ġre da
Ġprzyczy nia
Ġkwo cie
i ÅĽcie
Ġprzewo Åº
M Ã³j
ĠâĢ º
Ġsp ry
D S
ĠuwaÅ¼a Äĩ
glÄħ du
Ġni skich
Ġpostanowie nia
ĠuczÄĻ szcza
B ÄĻ
Ġusu wania
Ġstwo rzone
Ġpo chy
ĠRa dzie
Ġnaukow cÃ³w
Ġw Ä¹
Ġa systen
Ġpie ÅĽni
Ġutwo ru
i ca
Ġfir mach
Ġprze py
Ġpen sjona
ty bi
Ġmagi ster
Ġsukce sem
ĠponiedziaÅĤ ku
Ġlegen dar
Ġpopular ny
Ġer go
sÅĤa nia
Ġremon tu
lowa ÅĤ
Ġpo gar
ĠĠĠĠ ĠĠĠĠ
Ġwskaza ny
Ġuzna nie
Ġper fu
ĠA kademia
Ġpropo nujemy
Ġpotra fiÄĻ
Ġdys kre
Ġzakup em
Ġkola na
ĠSÅĤa wo
ĠPor tal
Ġrozmia ru
Ġwskaza Äĩ
ĠT O
Ġsh ow
Ġo z
ĠA dr
wa Å¼y
ĠJa cka
strze m
ĠJez io
Ġfunkcjona lnoÅĽÄĩ
Ġanty bio
ĠdokÅĤad ne
Przy go
ĠAu di
Ġrehabili tacji
Ġreali zowanych
Ġstara my
s le
fe sjona
Ġroz kÅĤad
Ġwyobra Åº
Ġzatru dni
ĠpÅĤu c
um or
W ÅĽrÃ³d
Ġdo me
War szawa
Ġtru dny
ĠuwaÅ¼a jÄħ
Ġpodmio tu
ĠwspÃ³ÅĤpra cuje
Ġpoprze dza
Ġprze k
Ġwyso kiego
li sta
c owych
Ġkul turze
wiÄħza nie
Ġu regu
Ġbak terii
ĠDar iusz
Ġinsta lacja
Ġniewiel ki
ws let
Ġzmy sÅĤ
szcze m
sta nia
Ġpoz or
Ġobec nego
Ġpod jÄħÅĤ
ĠwyÅ¼ sza
Ġspek ta
za ne
ĠB ÅĤo
Ġa spekty
Ġsu kien
Ġusu niÄĻcie
ĠO ni
ĠGdy nia
ĠR OZ
Ġdo li
Ġkolum ny
P G
Ġgospodar czego
war y
Ġodpoczy nku
ĠMy ÅĽli
Ġzmar ÅĤ
Ġpowinie neÅĽ
Ġuz godnie
ĠtrÃ³j kÄħ
nce nt
Ġe go
Ġekstre ma
Ġob raca
ĠOlszty n
ĠU da
pe ta
ĠpÅĤy nie
ĠspoÅĤe cznym
Ġorgani zowanych
ĠspeÅĤ nienia
ĠnastÄĻp ne
ĠNa prawdÄĻ
ĠTa j
Ġumy sÅĤu
czÄħ t
Ġrezer w
Ġwysta wia
ĠRzesz owie
E A
Ġsiedzi bÄĻ
ĠBibliote ki
kre ÅĽla
ĠniÅ¼ sze
ĠrÃ³Å¼norod ne
Ġroz ko
Ġprze nika
ĠInterna tional
Ġze j
ĠsÅĤu sz
den sa
Ġproduk cjÄħ
Ġw try
Ġgo towych
ĠÅĽcia nÄĻ
Ġ8 3
Ġprzewo du
Ġwa lory
ĠMini strÃ³w
Ġcze ÅĽÄĩ
ĠwystÄħpi Äĩ
K U
pa nie
Ġpoprze dniej
Ġotrzyma sz
Ġli te
Ġkonta kty
ÅĽ nicy
ĠÅĽwie tnym
gna cja
Ġroz graniczenia
li on
ĠgÅĤÄĻ bi
ĠCieka we
ĠÅ¼ on
Ġupo rzÄħd
k nÄħÅĤ
ĠmÃ³wi my
Ġodszko dowania
ĠA Å¼
sowa ÅĤa
TA J
Ġnie czy
ĠmoÅ¼li wie
Ġbur mistrz
Ġskierowa ne
Ġpokry wa
Ġpane le
cz Ã³w
Ġogie ÅĦ
Ġsz o
ĠJor ku
Ġko pi
ĠNa cze
ÅĤ kiem
ta ge
Ġoto czenie
ĠwiÄĻ zienia
ĠoddziaÅĤy wania
ĠmÅĤody m
ĠPo prze
O soby
ĠwyÅ¼ szy
ĠporzÄħ dek
Ġprofesjona lnie
ĠpamiÄĻ taj
ĠWi ktor
Ġzy sk
ĠwspÃ³ÅĤ finan
A n
Ġpier ÅĽcie
ĠWi sÅĤy
Ġwia tru
ĠKa tegoria
Ġu czÄħ
Ġwieczo ru
ĠobjÄĻ te
ĠGro up
Åģ O
Ġsyl wetki
Ġproste j
zu jÄħca
Ġzy ski
mu no
Ġte ni
P ar
cri pt
p p
Ġtelewi zor
Å¼ noÅĽÄĩ
su s
Ġ ),
Ġwo dne
Ġim pul
ĠDoskona le
ĠjeÅº dziÄĩ
per ium
Ġdeko racje
Ġsza ro
para t
ci c
Ġregula min
Ġwymia rze
Ġ7 4
Ġbra kiem
ĠS mart
Ġzbu dowaÄĩ
te t
Ġkupi ÅĤam
Ġfi tness
Ġwynaj mu
ĠParla mentu
ĠporÃ³wna nie
Ġnie mo
z ow
Ġjakiej kolwiek
Ġmo cz
Ġzasa da
Ġal goryt
ĠzÅĤo to
ĠPoczÄħ tkowo
f ak
Ġuro dzenia
Ġwybra nego
Ġpokona Äĩ
ĠÅļwiÄĻ tej
Ġopar ta
Ġkier ow
sza mi
ĠÅ¼y ÅĤ
ĠukÅĤad Ã³w
Ġdystrybu cji
ĠStra te
ĠAn toni
ie rze
li wy
czes na
Ġkom promi
Ġwy wie
Ġso ku
ĠAr tur
ĠD re
Ġzach owaniem
Ġsu szar
dek wa
Å¼ nego
ĠSzcze gÃ³ÅĤy
Ġna rzu
ĠlodÃ³w ki
Z ie
Ġzdr owiu
Ġzagadnie ÅĦ
rzy j
Ġrestau racja
Ġra m
wy kona
Ġauto ry
Ġinfor mujemy
Ġdewelo per
li ÅĦski
Ġinforma cjami
Ġotwar ta
Ġpoli tykÃ³w
Ġzwie rza
Ġlo ja
Ġprodu kowane
ĠusÅĤy szeÄĩ
Ġrozsze rza
ĠobsÅĤu gÄħ
Ðµ ÑĢ
Ġs tery
Ġprzepisa ch
czÄĻ st
ĠF re
ĠAgen cja
Ġprzewodni czÄħcy
AC Y
Ġko tÃ³w
Ġka b
ĠWÅĤo szech
Ġja zda
Ġaplika cjÄĻ
F A
Ġener go
ĠA pli
Ġjas ny
Ġ20 20
zy jne
ĠdÅĤo ÅĦ
Ġsukce sÃ³w
Ġposi ÅĤki
ĠbÅĤÄĻ ki
ĠOlszty nie
Ġo stry
ĠFranci szek
Ġpar terze
Ġfesti wal
ĠzamkniÄĻ te
Ġzainteresowa ny
ĠÅĽwieÅ¼y m
Ġfak tem
Ġrozpa try
Ġarty sty
Ġni szczy
ĠwypeÅĤ niÄĩ
ĠsiÄĻ gnÄħÄĩ
now skiego
Ġha f
ĠmÄħ dro
Ġsukce sy
Ġprzygot owuje
Ġwia rÄĻ
ĠBe ski
ĠMar ket
ĠuÅ¼ywa nych
ran t
Ġna pisz
ĠAG D
ĠC R
Ġuczestni czyli
Ġzach owuje
Ġza pÅĤo
. /
Ġpo g
zie niu
Ġzaawan sowanych
Ġmuzy czny
Ã³b r
tor skie
acu te
ĠpasaÅ¼e r
Ġpodstaw owy
Ġprze glÄħd
Ġsta rej
ĠÅĽ rÃ³d
ĠWiel kie
ĠHi story
Ġusu wanie
ĠUkrai nie
w szych
Ġkomputer owych
ĠG ali
Ġskon stru
Ġfina ÅĤ
ĠToma sza
Ġchemi cznych
Ġp ri
Ġtole ran
ĠMa c
Ġru chÃ³w
Ġkobie tÄĻ
Ġdosta wa
Ġg daÅĦ
ĠwzglÄĻ dÃ³w
Ġzro biÄĻ
ĠBu dow
Ġosie dla
Ġspraw dzone
ĠP obie
Ġa mi
ĠP hi
Ġpa nuje
lu stra
o pera
Ġz likwi
ĠOb ec
ĠT wÃ³r
Ġpo j
Ġstar szy
Ġusta ch
ba k
nk owie
Ġda jÄħc
ĠÅĤy Å¼
Ġzagro Å¼eÅĦ
Ġd owia
Ġwi dzieÄĩ
Ġkonkre tnej
Ġkonsoli da
ĠKonta kt
Ġzdrowo tne
ĠSta ndard
ĠgÅĤo sy
n do
Ġdzisiej szego
Ġspo rÄħ
budow ÄĻ
?? ??
ĠGaler ia
Ġwymie szaÄĩ
i ÅĤa
Ġka mieÅĦ
an s
Ġwy szÅĤa
Ġwej ÅĽciu
Ġ8 6
Ġokra towania
mia ÅĤ
Ġpoje dy
ma x
Ġauto ryte
ĠC V
ĠFi li
Ġscenar iusz
Ġdzia ÅĤka
Ġwi d
Ġniezwyk ÅĤe
ko bie
ĠDa lej
Ġkobie tÄħ
Ġse ry
Ġpoka zy
Ġmasa Å¼
Ġobej mujÄħ
Ġkolek cja
ĠDÄħ b
eli ng
Ġda j
Ġrobi sz
Ġre sor
Ġo pada
Ġza pina
ĠROD O
Ġsto jÄħ
I m
ĠDzie cka
Ġusta nowi
tan ci
Ġodpowiada jÄħ
ĠLe czenie
siÄĻ g
Ġby ÅĽ
e ner
ĠPola k
Ġminu cie
Ġdecy dujÄħ
Ġgrun tu
ĠÐ ¾
Ġstra t
Ġperso na
ĠpoÅĽwiÄĻ cone
la ÅĤ
zowa no
dowa na
ĠbÅĤy szczÄħ
Ġatu tem
Ġpisa ÅĤem
ĠSÅĤu p
cho dniej
Ġobro nie
ĠN y
sza ÅĤek
ĠÅĤy Å¼ki
B N
star cza
Ġty lu
Ġkosz tem
Ġkry je
Ġodbior cy
Ġproduk tach
ĠArchi te
Ġso lÄħ
ne ntÃ³w
Ġim por
ĠRe a
Ġprzepie rzenia
Ġi dio
ĠKo l
k wa
ĠWnio sko
Ġze psu
nu j
ĠS ony
Ġprze grodzenia
Ġmobi lnych
lew ski
ĠUsÅĤu go
ĠÅĤa dowania
le ry
Ġnie cier
Ġmateria ÅĤem
Na leÅ¼y
pi on
Ġbro niÄħ
ĠCzÅĤowie k
Ġkonsu mp
Ġalkoho lizm
ĠcaÅĤkowi ta
ĠChce my
ĠmaÅĤÅ¼ on
Ġdo ÅĤu
ĠKrÃ³ l
ĠwrÃ³ci ÅĤ
Ġwpisa Äĩ
Ġod two
ĠdziewiÄĻ Äĩ
ĠPro kura
ĠprÃ³b owaÅĤ
Ġwra Å¼eÅĦ
Ġka ja
pa t
ĠEuropej ska
Ġkompozy cji
Ġstandar dzie
Ġklub Ã³w
Ġno Å¼nej
Ġocze kuje
P rowa
Ġbu du
ĠS pra
ĠBar bara
Ġwytrzyma ÅĤoÅĽÄĩ
Ġod grodzenia
Ġeki py
ko lor
âĨ ĳ
Ġskute czny
R u
ĠzakoÅĦ czyÄĩ
ĠG PS
ĠprzesÅĤa nie
ĠÅĽwiÄħty ni
Ġbram kÄĻ
Ġz nu
ĠX III
ĠwyÅĽmie ni
Ġobu wie
co nym
Ġprze ÅĤa
Ġprzysz ÅĤego
Ġpakie tu
Ġgnia zd
lo ty
Ġprzeciw nika
Ġdrob nych
Ġzaprojekt owane
Ġprzeprowa dzone
ca nia
parta ment
ĠZachÄĻ camy
Ġlu tym
Ġkar ierÄĻ
Po zna
ka nie
Ġodwro tnie
ĠKa mie
F e
Ġtra sa
ge l
Ġwi szÄħ
Ġko me
Ġd lu
Ġodpowie dnia
Ġkuchen ne
for t
Ġdzie lÄħ
ĠweÅº mie
pa n
ter iÄĻ
Ġzmienia jÄħ
Ġt kwi
T O
ĠUni versi
rzy ny
Ġz du
Ġatrak cyjnych
Ġto ru
Ġo ca
ca jÄħ
K ra
ma sa
Ġglu ko
Ġwywo ÅĤu
Ġsystema tycznie
Ġspowo duje
Ġsymbo l
ĠK S
ĠiP hone
ĠÅ¼y wie
Ġsma czne
Ġwier szy
ĠH am
Te go
Ġprzy glÄħda
Ġ8 8
Ġda ÅĤa
Ġopubli kowany
Ġotrzy mujÄħ
Ġwyka zuje
Ġwizy tÄĻ
ĠZie lona
ĠIn Å¼ynie
Ġsk ro
ĠBezpie czeÅĦstwa
Ġwin dy
Ġspecjali styczne
Ġdopa sowaÄĩ
ri ve
Ġfor te
Ġpokaza ÅĤ
te ns
Ġfa jna
Ġ7 8
z in
ter dzie
Ġhigie ny
Ġpa niÄħ
ĠchÅĤo dni
ĠZ miany
Ġ199 3
Ġpo sto
Ġod pÅĤa
ĠWo jska
Ġcie pl
nu jÄħcych
Ġserwe ra
ÅĽci ÅĤa
Ġsz czycie
Ġwygo dÄĻ
m g
ĠKon stan
ÅĽwiet lenie
Ġwy bie
Cho Äĩ
S praw
ĠÅļlÄħ skiego
Ġmeto dÄĻ
Ġkost kÄĻ
ĠC ra
cu jemy
Ġrza dziej
Ġprze nieÅĽÄĩ
ĠW rze
ĠKie lce
Ġka ka
Ġma la
Ġstra ciÅĤ
Ġnowoczes nej
Ġsa le
Ġko szta
Ġposta ciÄħ
pe dia
Ġzapewnia jÄħc
Ġzach owy
Ġdok tora
ĠoglÄħ dania
ne rem
ĠÅ¼y wio
ko rzysta
wu je
Ġtrze cia
ĠdoÅĤÄħ czyÄĩ
Ġloka lnego
ĠT rum
Ġi ry
Ġspoj rzeÄĩ
ĠU rzÄħdzenie
Ġka psu
Ġs formu
ĠFir my
ĠTade usza
Ġnor m
Ġzbro dni
Ġochro nÄħ
Ġpraw ny
Ġsko ncent
Ġza kry
Ġcytry ny
Ġprzetwarza ne
sty k
oba mi
ru ch
Ġab sur
Ġdom owej
de racji
Å¼y my
da c
Ġopa kowaÅĦ
P raca
ĠsÄħsie dztwie
stawie nia
Ġzapa lenia
Ġsche ma
dziesiÄħ tych
Ġprzygotowa niu
K ilka
Ġi gno
ĠpÅĤy n
ĠnajwiÄĻk sza
ĠdÅĤu ga
b owiem
Ġau di
p ta
% ),
Ġbe tonu
Ġlapto pa
Ġdosto sowaÄĩ
Ġu moc
Ġameryka ÅĦski
dÅº cÃ³w
Ġwymia ru
ĠDru ga
Ġtech nika
Ġkon te
Ġmi ÅĤa
si c
m b
to logii
wo ÅĽÄĩ
ĠAnd roid
Cza s
ĠDu Å¼o
Ġstuden ci
pa ge
Ġsprzeda Äĩ
ĠK N
Ġch lo
ĠK rysty
Ġw strzyma
ma tyka
Ġpisze sz
Ġpa rze
Ġwi bra
ĠDoda j
Ġkryter iÃ³w
p df
Ġsek torze
Ġzab ru
Ġw czeÅĽnie
ĠdzieciÄĻ ce
cj um
sowa nej
grafi czne
ch al
Ġwy specjali
Ġpodob nym
Ġskierowa na
ĠU chwaÅĤa
Ġupo mi
Ġkolej ce
wen cja
Ø ±
Ġli dze
t rzÄĻ
trze nie
Ġre Å¼
Ġust nej
AC JI
Ġtowa ry
zowa niu
C i
Ġnasi ona
Ġpo szedÅĤ
Ġdom ku
Ġda chÃ³w
Ġow szem
ĠupÅĤy wie
ĠGe or
b owych
ĠRu chu
Ġ3 60
Ġzaintere sowane
Ġpoda tkÃ³w
Ġorganiza cyjnych
Ġchary ta
p x
Ġzale t
Ġlotni sko
bu m
ĠÅ¼o nÄħ
ĠO ÅĽwia
w kami
Ġprze szÅĤo
Ġs eme
ĠT ho
Ġlek ka
wa ni
Ġkonkur sy
Ġpie szych
Ġdie tÄĻ
Ġsport owy
Ġbada niu
Ġla ty
Ãĵ Åģ
ĠHi stor
ĠSk y
Re gu
E k
Ġszero kiej
b ow
ĠRy szard
Ġprak tycznych
ĠLe g
Ġznie chÄĻ
ĠwyjÄħtk owÄħ
ĠS ur
ĠM eksy
Ġtre ÅĽciÄħ
Ġkok taj
Ġgru ntÃ³w
Ġprowa dzony
Ġz wery
Ġdokona ÅĤ
ĠB roni
Ġw la
d liwoÅĽÄĩ
ĠzuÅ¼y cie
Ġgeo de
Ġdu zo
Ġwy kro
FOR M
Ġsymbo lem
Ġelekt r
Ġw szak
Ġkie rowa
Ġkryzy s
l cach
Ġza mo
Ġniepo Å¼Äħda
ĠZa ÅĤÄħcznik
ĠWarto ÅĽÄĩ
Ġpraw dÄħ
Ġno szenia
ĠNa grody
ĠPosta nowi
Ġpoka Å¼e
Ġob da
ĠWo li
Ġwielo kro
ĠÅ¼eby m
Ġkomfor towe
ze j
ĠKaro la
ĠmÃ³wi ÅĤa
sp Ã³l
sz en
ĠWy na
Ze spÃ³ÅĤ
Ġza ra
Ġrady ka
Ġodpowie dziaÅĤ
Ġf ree
Ġtr waÄĩ
Ġstosowa na
Ġu tr
Ġeli mina
ĠniezbÄĻ dny
ĠS cho
B O
Je dnym
Ġelektry czny
ĠKo menda
Ġnabo Å¼e
Ġzawar ta
Ġarchite ktu
dzie ÅĽcia
szem u
ka rze
Ġpartne rem
du m
Ġporoz mawiaÄĩ
Ġniewiel kÄħ
ĠnajwaÅ¼ niejszy
Ġimpre zie
Ġno n
Ġwywo ÅĤuje
Ġtyp owo
ĠpiÄħ tku
ĠwÄħ tek
ĠÅĽcia nach
Ġuzna ÅĤ
Ġko pii
sze dÅĤem
Ġcharaktery zujÄħ
k si
Ġkategor ie
Ġkieru nkÃ³w
da ny
ĠmogÅĤy by
ĠpochodzÄħ cych
Ġsa u
do ry
S tra
Pier wsze
Ī Ĵ
co nÄħ
ĠMu simy
Ġnaj korzyst
[ /
Ġna ÅĽla
Ġstudia ch
ĠB log
Ġprzy rzÄħ
Ġkwar ta
ĠBea ta
ĠMia ÅĤ
Ġobywa te
Ġpa ski
ĠKul tura
ĠspoÅĤe czno
H D
Ġkomputer owe
Ġ7 6
Ġtrzecie go
ĠKomite tu
Ġkla tki
ĠKR S
Ġu pie
Ġnaj tru
Ġpojedyn cze
dÅº wie
Ġgi neko
Ġopera tora
Ġprze cho
ÅĦ sku
Ġprzedstawi ÅĤ
ĠÅļwiÄĻto krzy
Ġroz bi
Ġwyda ne
Ġ7 1
Ġmuzy ce
Ġpolity kÄĻ
ffi ce
ĠchÄĻ ciÄħ
ĠWojcie cha
ĠBry ty
Ġzdarza jÄħ
Ġso cjo
ĠrozpoczÄĻ cie
Ġzainsta lowa
Ġzaprezen towaÄĩ
wi ÅĤy
ĠS ar
Ġto ku
de na
Ġmniej szy
ne dy
Ġla mpa
a s
Äħ Å¼
Ġle ci
Ġcholestero lu
ĠuniemoÅ¼li wia
ĠMa sa
Ġzauwa Å¼yÅĤ
ĠMu szÄĻ
Ġjubile usz
201 9
Produ cent
Ġgra ÅĤ
Ġelemen tu
Ġof f
ĠKoÅĽcie le
zja ty
Ġprze chodzÄħ
Ġautor skie
j niki
ĠU su
Ġzgod noÅĽci
Ġstar sze
Ġnapo jÃ³w
ĠM sza
Ġdoj dzie
rzy stÃ³w
Ġgo rz
Ġb rzo
Ġpromo cje
Ġmili ona
lek cji
Ġw szczÄĻ
ĠproÅĽ bÄħ
Ġna tÄĻ
Ġda ÅĦ
ĠmÃ³z g
Ġpa sujÄħ
ĠzdjÄĻcia mi
ĠwÅĤÄħ czenie
ĠpodziÄĻk owania
ĠpaÅĤa cu
Ġnie pa
ĠPary Å¼u
Ġfa zy
Ġfak ty
Ġnapo je
S L
Ġw prawdzie
Ġsche mat
ĠNajlep sze
gÅĤo szenia
Ġprzyja z
ĠÅģ ÄĻ
Wy kona
ĠJa dwi
e p
ĠZa czyna
Ġherba ta
ĠpodÅĤo Å¼a
lega n
pe t
Ġwy pro
ĠK W
Ġu ksztaÅĤ
Ġprzewo dnik
Ġzrezyg nowaÄĩ
Ġzmia nÄħ
Ġtechni cznego
Ġposta cie
Ġna szy
Ġszyb kÄħ
Ġarty styczne
pe la
A A
ez on
ĠI wo
Ġmody fikacji
Ġzmie rzyÄĩ
Ġnieba wem
za m
Ġpa su
ĠF M
Ġod prowa
Ġnaj mu
ĠWielkopol ski
ia na
ĠStu dia
ste my
wi cach
ĠÅļwiÄĻ ty
b lon
Ġprze bu
ĠElÅ¼bie ta
Â «
Ġeko logiczne
NY CH
Pra w
Ġprzetar g
B I
Ġpisem nej
Ze staw
Ġgenera lnie
ĠAktual nie
Ġpor tu
na ry
te czne
Ġokoliczno ÅĽciach
Ġwielo funk
Ġkie li
ĠPrze j
Ġkontra kt
ĠW stÄĻp
ĠHen ryk
Ġjakie s
Ġuwie rzyÄĩ
Ġpe dago
ĠZa kÅĤadu
c to
Ġ2 20
Ġmieszka lnych
Ġzainteresowa ÅĦ
Ġwa ch
M ÅĤo
ĠK rÃ³t
ste d
ç ¥
ĠB ob
Ġrowe rze
Ġklien tami
ĠpielÄĻ g
Ġsta ÅĤej
ĠÅĽmier ciÄħ
v in
Ġbez dom
Ġintere sÃ³w
Ġpodatk owe
Ġpe re
Ġszac unku
Ġwykorzysty waÄĩ
Ġwido ki
Ġnie dostÄĻp
B iu
Ġuro dziÅĤ
Ġproduk tami
wo da
ÅĦczy k
Ġ7 9
Ġprze bar
ĠJe steÅĽ
dz u
Ġpojawi ÅĤo
Ġ19 44
Ġpomia rÃ³w
Ġnume rze
ĠzastÄħpi Äĩ
ĠMer ce
pi l
ro zo
Ġma new
K M
Osta tnio
Ġjed wa
re br
Ġspotka niach
Ġszyb kim
Ġspecjali sta
Ġgdy bym
ÅĤÄħ cz
ĠZ miana
Ġograni czyÄĩ
ĠZdecy dowanie
Å¼ szy
ĠszczegÃ³l ny
Ġmili on
wych w
ĠDanie l
sz liÅĽmy
Ġry Å¼
k tora
u ry
M iÄĻ
Ġproce sor
Ġpogo r
ĠÅĤÃ³Å¼ ko
ĠG P
ĠdotyczÄħ cy
b nie
Ġtea tr
Ġdzisiej szy
Ġda wki
ĠO cho
ĠAn ty
Ġprezen tacja
Ġfizy cznego
Ġposi ÅĤek
H e
d wu
S cript
Ġw lo
ĠrÃ³Å¼ nicy
Ġsia tkÃ³w
rza ÅĤa
trzy Äĩ
czu k
Ġprowa dzeniu
Ġgar ni
ĠKolej ne
t ler
ĠMe di
Ġnaj prost
Ġkon densa
Ġoka zjÄħ
mu r
Ġspraw dzenia
Ġeuropej skiej
Ġp ÅĤÃ³
Ġbran sole
Ġ17 0
Ġspecjali stycznych
ĠSzyb ko
Ġpom p
Ġstre fa
Ġnie gdyÅĽ
ĠogÅĤo szeÅĦ
wa c
Ġja my
Å¼ liwoÅĽci
Ġre cy
Ġwy ruszy
Ġdob Ã³r
IW Z
Ġodkry Äĩ
ĠÅ¹rÃ³d ÅĤo
Ġzmu sza
Ġnie ca
Ġport re
Ġgra cz
ta cyjnych
Ġmasa Å¼u
V C
ĠZarzÄħdza nia
ĠDe sign
Ġsil nikÃ³w
Ġzanieczy szczeÅĦ
Ġturysty ki
Ġnapraw de
Ġprzyw raca
ĠÅĽpie wa
dopod obnie
ro ku
Ġodchu dzanie
Ġra nd
za i
ĠAfry ki
ĠWy biera
ĠodsÅĤo n
ĠwÅĤaÅĽci ciele
ĠOr kie
Ġde pozy
Ġlabora tory
Ġzapisa Äĩ
f ona
Ġobie tni
Ġobserw owaÄĩ
A ktual
Ġser de
Ġinforma cjÄħ
ĠÅĽ mi
Ġwo ÅĤa
Ġwie rzyÄĩ
ĠKo szu
ci ÅĤem
Ġkoszu lki
Ġza bro
Ġb ier
Ġkre mu
ĠPiÅĤsud skiego
Ġo su
Ġkur czaka
wie szczenie
Ġsur owcÃ³w
tek st
feru je
em ent
Ġperso nel
ĠSamo cho
ĠÅĽwiÄħte czne
Ġpisa nie
C u
ĠMa zur
ĠDru gi
Ġprzycze p
200 5
ĠD an
Ġda na
ĠHo me
Ġce remo
cz kowe
Ġisto ty
Ġka t
Ġrodzi com
Ġmai la
ĠT rwa
ĠTe mat
rÃ³w ka
ĠNarod owy
ĠOb owiÄħ
Ġo ÅĽrodek
ĠWy jÄħ
ĠD el
wo j
sto ÅĽciÄħ
Ġli trÃ³w
Ġpozytyw nych
Ġfilozo fii
Ġplan owania
Ġki no
Ġtwar dy
Ġmar ke
e mi
ĠWe wnÄĻtrz
Ġtele dy
Ġu biera
Ġorygina lnych
li my
Ġok rop
Ġzmia nach
Ġposie dzenia
sk owej
Ã³w kÄĻ
ĠbieÅ¼Äħ ce
ĠG T
Ġwidzi sz
Ġobra d
ĠBo ha
Ġwy kÅĤa
Ġwios nÄħ
mowa na
Ġwarst wÄĻ
ĠCie szy
ĠdziaÅĤa niach
Ġnie rÃ³w
ĠWykona wcy
Z S
Ġpolity ce
Ġwy spie
Ġspekta kular
Ġna ma
ĠnarzÄĻdzie m
ĠwÄĻ g
Ġcechu je
bar dzo
Ġreko menda
Ġnaj dro
ĠKobie t
ĠnastÄħpi ÅĤo
Ġzbior Ã³w
ĠRodzi ny
Ġra dnych
ĠusÅĤu ga
ec k
Ġwie rzÄĻ
Ġtechno logiÄĻ
ST AW
Ġwy wal
ĠU waga
rzo nym
ĠprzeÅĤo mie
Ġso cjali
ni cznej
ĠÅ¼Äħ dania
Ġniewiel kich
Ġmotocy kli
sa t
Ġpoch ÅĤania
Ġdu szpa
ĠzaÅĤo Å¼enie
lni ctwa
Ġlep szych
ĠOb szar
ĠSta tu
ĠPart ner
ĠÅĤÄħ czyÄĩ
sz pania
Ġmie r
Ġgwaran tujÄħ
u e
ĠWszyst kich
ĠspoÅĤecze ÅĦstwie
ĠM IE
Ġdowo dÃ³w
Ġbizne sowe
ĠU stawy
Ġtrakt owaÄĩ
Ð ¿
Ġinfrastru ktu
Ġdowo lny
ĠÅĽwiÄħ t
ĠPa niÄħ
Ġby ÅĽmy
ĠL CD
ĠmiÄĻdzynarod owe
D Y
Ġni ska
ĠFran k
Ġzacho dniej
ĠPo go
ĠO prac
ĠWi daÄĩ
Ġlep szym
Ġsku r
Ġkompa kt
gre ga
Ġtrzeci ch
Ġuczu Äĩ
ĠszczegÃ³ÅĤ owych
ĠKaro lina
Ġto bie
Z P
Ġsz lach
ĠprzyjaciÃ³ÅĤ mi
ĠV al
mie ra
sto n
Ġzdoby ÅĤa
Ġkup na
Ġpomi dor
Ġspecjali zuje
di on
ĠwziÄĻ ÅĤa
ĠE C
ĠciÄĻÅ¼ arÃ³w
Ġseria l
Ġzd obie
Ġprzedszko lu
W czoraj
ĠspoÅĤe czna
Ġ3 000
ĠgÅĤo sem
za sa
ĠProfe sjona
ĠPoÅĤudni owej
Ġelasty cznoÅĽÄĩ
ĠzewnÄĻtrz nej
ĠSzwe cji
ĠPa cje
ĠwyglÄħda ÅĤ
Ġce r
Ġprepara t
je wski
gro dzenie
Ġegza mina
Ġe mail
ĠI gna
Ġsu k
Ġs sa
Pod staw
fika cjÄĻ
ĠOgÃ³l nie
ĠOs oba
ĠDzia ÅĤ
Ġzaprojekt owany
ĠKaÅ¼ de
lek cje
c ow
ĠAu str
Ġru chem
Ġmagazy n
nij my
Ġwier nych
ĠGaler ii
Ð¾ ÑĢ
Ġpol sku
ĠP rywa
Ġjednozna cznie
Ġa s
Ġstanowi sk
ru jÄħc
Au to
So li
sz la
Ġameryka ÅĦskiej
Ġzatru dnienie
s kowa
ĠPo dej
ĠÅĤa mach
Ġwyeli min
Ġusu wa
ĠZespo le
ĠKami l
ro dy
Ġcu dzo
ri ght
Ġpane l
ĠciÄĻ cia
Ġparki ngu
ĠBu siness
Ġzbior nika
ĠPo maga
Ġniewiel kiej
Ġdal szy
Ġpracowni kom
Ġa pety
Ġna pis
Ġnatura lnÄħ
Ġprzekona nie
Ġkla sz
Ġgnia zda
te o
Ġbez pro
Ġnie wia
Ġmu zuÅĤ
ĠXI V
ĠMar cina
Ġroz grza
le a
Ġewentual ne
ĠÅĤÃ³Å¼ ku
ĠR AM
wi i
ĠU sta
Ġwsze dÅĤ
ĠP iÄĻ
ĠZ robi
sie nia
Ġeksp re
ck er
Ġn ÄĻ
Mo je
ĠPowie rzchnia
Ġrodzi nny
Ġwytrzyma ÅĤoÅĽci
skie mu
ĠzaoszczÄĻ dziÄĩ
Ġle czyÄĩ
ci ng
ca ÅĤ
Ġinwesty cyjnych
Ġka d
Ġst rzaÅĤ
Ġkart Äħ
Ġauto maty
i c
daw no
Ġod par
ĠLe ÅĽ
Ġfunk cjÄħ
Ġdostrze c
Ġwy szuka
Ġ7 3
Ġkwesti Äħ
Ġsu my
ĠOn line
Dz iÄĻkujÄĻ
Ġli czÄħc
Ġta ÅĽmy
Ġspi sa
Ġpo czekaÄĩ
1 50
Ġkompeten cje
Ġniewiel ka
ÅĤÃ³w ki
l ca
Ġreje strowa
le x
Ġkola gen
ĠÅĽnie g
Ġ8 9
Ġpodej mowania
D ÅĤu
Ġmi k
b s
Ġmistrzo stwa
Ġna p
ĠnastÄĻp ny
Ġ8 7
Ġczytel nika
ĠwskazÃ³w ek
Ġcieka wego
Ġprzechowy wane
tni ki
Ġtore b
Ġbibli o
Ġfina ÅĤu
Ġposiada jÄħcych
ĠpoczÄħtku jÄħcych
ĠinÅ¼ynie r
ĠKo t
Ġb er
Ġ8 4
Ġser cem
Ġproduk cyjnych
Ġakumula tor
ĠS ia
Ġrozli czenia
Ġprzekaza nia
Ġszkla nki
ĠdÅĤo nie
Ġroz ka
Ġo cen
s owym
Ġzaprasza jÄħ
ĠO stro
Ġpie c
Ġstwier dzenie
Ġdyplo ma
Ġci cho
ĠwystÄĻp owania
k cjÄĻ
Ġpa telni
ar cie
Ġwy se
Ġroz pro
Ġtrafi ÅĤa
ĠDz iÄĻkujemy
Ġni skim
ĠciÄĻÅ¼ kich
Ġ8 2
Ġja ski
ĠL os
la tek
Ġra my
Ġb re
Ġzanie dba
Ġbez sen
Ġorga ny
ĠZosta ÅĤ
Ġwy re
ĠRÃ³ Å¼a
Ġka sa
Ġok nem
e uro
ĠÅĽwiad czonych
J Äĺ
Ġu podoba
ĠP ho
ĠmusiaÅĤa m
ĠzgÅĤo szenie
Ġpowsta wania
Ġpopu lacji
Ġma ra
ĠStefa na
Ġb or
Ġser c
skry p
Ġsze ÅĽcio
Ġju Ä¹Åº
Ġlo tu
ĠÅĤa ski
sza ÅĤka
Ġdysku sja
Ġk ÅĤÃ³
Ġdostaw cÃ³w
Ġniemal Å¼e
ĠwyksztaÅĤ cenie
Ġstra chu
Ġpilo ta
mie szka
Ġjesie ni
Ġstaty styki
Ġpach nÄħ
Ġtytu le
ĠmÄĻ Å¼em
Ġupad ku
Ġspektak l
Ġepo ki
czes ny
ĠwyglÄħ dem
Ġelegan cki
Ġnie roz
T wo
tua cja
Ġobcho dÃ³w
ow nym
ĠprzestÄĻp stwa
bia z
ĠzasiÄĻ g
Ġko nia
ĠS ak
Ġob dar
ktu arium
Ġjaki s
pa li
Ġczy sty
Ġw ek
Ġsztu kÄĻ
Ġtajem nicy
Ġanali zÄĻ
Ġzdoby cia
ĠpÄĻ che
Ġpo kre
Ġsie dzÄħ
ĠÅĤazien ce
po n
ĠKo sme
ĠzakoÅĦ czyÅĤa
we i
ĠchÅĤop ca
Ġszli f
ĠoÅĽrod kÃ³w
ĠMickie wicza
ĠGre en
Ġtrady cyjnej
Ġprze ch
Ġdosta ÅĤam
logi czno
ĠJo an
ĠPrze wo
Ġdaw nej
ĠgÅĤÄĻ b
ĠuÅĽmie chem
Ġgra cze
Ġana log
ĠdoÅĽwiad czonych
Ġ ^
ĠCy wi
Ġterytoria lnego
ĠWÅĤo chy
Ġba jki
Ġkro kÃ³w
i ÅĤam
Ġst rÃ³j
wa ku
t zw
Ġen do
ĠÅĽrod kami
lo s
ĠS IWZ
Ġsz or
Ġtam tych
ĠPrzy zna
Ġaktyw nego
ĠzuÅ¼y cia
lar ne
ĠzÅĤo Å¼onych
gniÄĻ cie
wa z
ĠTe ra
Ġtrak tuje
Ġod dziaÅĤÃ³w
Ġkolor owych
Ġwykorzystu jÄħc
ĠMa tka
Ġpr owo
Ġpla tforma
ĠR E
ĠWi ce
Ġforma lnoÅĽci
ĠD er
Ġsi Ã³d
ĠgwaÅĤ tow
Y CH
Ġpo dziÄĻ
ru jemy
Ġmoc ny
Dz ien
Ġalbu mu
ĠuÅ¼y wanie
Ġboga tÄħ
ba ck
zowa nÄħ
Tu be
po Å¼y
ĠDo lnoÅĽlÄħ
ĠRu mu
Ġpo ciÄħga
ÅĤu jÄĻ
Ġameryka ÅĦskiego
Ġole jek
Ġus prawiedli
Ġo pe
ĠpoÅĤo Å¼onej
den t
Ġznaj dowaÄĩ
ĠKowa l
Ġmiejsca mi
Ġma ci
Ġwi dzÄħc
Ġda nymi
Ġd Ã³br
Ġszacu nek
Ġzwo l
Ġwywo ÅĤy
ĠSP A
Ġinterfe js
/ .
Ġjakich ÅĽ
Ġ va
Ġdo rÄĻ
ĠZa war
ĠmieszkaÅĦ com
Ġzdecydowa ÅĤ
Ðµ Ð½
Ġwy lo
Ġpostanowi ÅĤem
so l
Ġsta now
Ġd is
Ġprze do
ĠS two
Ġla da
Ġisto cie
ĠÅĤa dny
Ġwarszta t
ĠgÃ³ ra
Ġsamolo tu
ĠÅĤa twa
Ġtru dna
Ġby ÅĤego
ĠMar szaÅĤ
ĠÅĤa go
ĠE fekt
Ġpubli ka
so ry
ĠObo k
Ġistnie Äĩ
zyden t
Ġludz koÅĽci
Ġpoko jach
Ġpozwala jÄħce
ni owym
sto no
c ke
Ġszla k
ĠwyjaÅĽ niÄĩ
Ġza soby
U waga
ĠszczegÃ³ÅĤ owo
Ġczar nej
Ġnieod pÅĤa
ĠumoÅ¼liwia jÄħce
ĠDob ry
Ġwa dze
Ġple ner
ĠWil lia
ĠCo lle
Ġpraco dawca
wa niom
tk owÄħ
200 4
Ġzali czyÄĩ
ĠChce sz
Ġniemow lÄħt
Ġde l
ÅĽ redni
Ġprocedu r
ĠKobie ta
myÅĽ l
Ġznale zienie
Ġgatu nki
Ġzajmu jÄħcych
t tle
AN E
Ġchoro bÄĻ
ĠK OM
Ġpremie ry
Ġzach owa
v ar
Ġwy cina
leg ÅĤoÅĽÄĩ
Ġdo chody
Ġuwa ga
Ġsta nem
Ġelektroni czne
Ġkomunika cja
ĠMo de
ster ki
p Ã³Åºniej
ĠwspÃ³l ny
ĠZako pa
Ġwspania ÅĤych
ĠIn nowa
ĠBo gda
Ġfina le
Ġopowia dania
ĠdziesiÄĻ ciu
Ġza gÄĻ
ĠmiaÅĤ by
bo ry
nie my
Ġlisto pad
Ġzga dzam
spe ktyw
chÄĻ tniej
2 000
bie niu
dzi u
Ġzna nej
ĠZ oba
ci ÅĤo
Ġno gach
t ha
Ġzain spi
Ġodczu wa
ĠF ree
Ġgwaran cjÄħ
Ġwersja ch
Ġs teru
Ġpi smo
ĠAdministra cji
ĠChi nach
Ġs ing
ku men
Ġsprowa dza
Ġspo strze
Ġf ra
ĠcaÅĤkowi tej
Ġmiejsc owoÅĽÄĩ
Ġwyzna cza
menta cja
ĠT an
Ġs owie
mi nÄĻ
Ġter miny
ĠT ÄĻ
Ġpier wia
Ġpa sja
Ġwie Å¼y
Å¼a ÅĤo
Ġbo j
Ġizo la
ĠzaczÄħ ÅĤem
ĠDo tyczy
pi one
Ġniewiel kim
stÄħ pienie
g ary
Ġz za
Ġs ÃĦ
Ġdo czekaÄĩ
Ġczy niÄħ
KaÅ¼ da
Ġprzy lega
ĠW an
ĠwspÃ³l nym
Ġh obby
Ġdo prac
wÃ³ l
Ġkonferen cja
Ã³r ki
ĠRoz wÃ³j
Ġbudy nkach
Ġwy trwa
Ġzi Ã³ÅĤ
no p
Ġpod jÄĻcie
Ġprzy kÅĤada
ĠE R
Ġodpor ne
Ġra dzie
ĠwyksztaÅĤ cenia
wie cieÅĦ
Ġprofesjona lnÄħ
ĠzÅĤo te
Ġzagra Äĩ
Ġkonkur sÃ³w
Ġli dera
Ġpor ta
ĠGo l
Ġspecjali sty
Ġma jÄħcy
Ġpi cia
Ġzabrak nie
ĠF al
gimnazja lnych
Ġprzeko ny
zy wany
Ñģ Ðº
Ġloka lnym
Ġskierowa ny
Ġz ma
Ġrozpo rzÄħdzenie
ĠzÅĤo Å¼enie
Ġkorzy ÅĽÄĩ
ĠpiÄĻ tro
ĠkoÅĦ cem
Ġdziewczy n
D i
ner w
Ġzapo biec
Ġwal k
Ġpia sk
Ġza rea
Ġtytu ÅĤÃ³w
M Z
Ġcen ty
bur gu
Ġmart wiÄĩ
Ġklasy cznych
Ġfizy cznÄħ
ch Äħ
ĠwspÃ³ÅĤczes nego
Ð ±
Ġkwa sÃ³w
Ì ĩ
? ,
Ġka zdy
Ġli derem
Ġzdecy duje
ĠO pi
Ġpraco dawcÃ³w
ĠwyglÄħda ÅĤo
ĠB ran
Ġbrz mienie
ĠnaleÅ¼a ÅĤo
Ġdzien nik
ĠCzÄĻ ÅĽci
Ġprze pada
Ġ9 2
z owe
ĠzÅĤo Å¼ony
Å» e
Ġuczest nik
Ġda la
Ġzawo dzie
ment s
Ġwa lo
Ġa ktu
Ġbu duje
Ġagen cja
Ġprzyzna ÅĤ
Ġindywidual nego
Ġogro dni
Ġsia tki
Ġpojem noÅĽÄĩ
Ġsku tkiem
ĠDomi nika
sie m
Ġty ÅĤ
ĠuzupeÅĤ nienie
Ġwios ny
Ġdoda j
ĠwewnÄĻtrz nego
\ "
Ġper ku
rzÄĻ dzia
ĠpochodzÄħ ce
cza sie
Ġczerwo nym
ĠZ mar
Ġbohater owie
Ġpre ze
OR T
Ġzestawie nie
Ġnasi on
R Ã³w
Ġra sy
ĠSe kre
Ġfotogra fie
Ġwi dzÄħ
Ġprze twor
n no
ÅĤ k
Ġsamodzie lnego
Ġklien tem
ra r
ĠÅ» u
dar noÅĽÄĩ
Ġli czÄħ
Ġukry Äĩ
ĠskrÃ³ cie
ĠWi s
Ġpoda tki
ĠK Äħ
Ġprzeciw nym
Ġnad miar
Ġaler gi
Ġwspania ÅĤÄħ
Ġnagra nia
pi ÅĤ
Ġcie ÅĦ
Ġprzewo dÃ³w
ĠpoÅ¼y tku
wi na
Ġprzy niesie
ĠBa zy
Ġprzyja Åºni
Ġodwie dzenia
Ġstwier dzenia
cjona lnie
ĠpowyÅ¼ szych
tyw nej
Ġza je
z ona
ĠAustra lii
Ġjaki kolwiek
ĠGo ld
Ġpie prz
Ġprzej ÅĽci
Ġodda je
Ġwykorzysty wany
Ġprzy gÃ³d
har mo
Ġpa nce
Ġzanieczy szczenia
Ġzaa ta
Ġdo lnej
Ġgrz bie
Ġo limpi
Ġsta ny
Ġpomaga Äĩ
rÃ³ Äĩ
ĠPole camy
s ha
ĠSta ra
Ġsuch ej
ch en
ĠSwo jÄħ
Ġzjawi sk
ĠdostÄĻp noÅĽci
ĠNiem cÃ³w
za n
ĠodÅ¼y wczych
so rem
Ġzna sz
Ġni ski
Ġkomunika t
iu s
ĠSamo rzÄħd
lni Äĩ
Ġma kro
ĠsÄĻdzi Ã³w
Ġobu wia
Ġru chy
go v
ko ntro
ĠobjÄĻ tych
Ġ( "
Ġdo ga
ĠM O
Ġprzeka zuje
Ġkryzy su
Ġko ÅĤnie
Ġza kÅĤady
log y
ss en
ĠprÄĻ dzej
Ġprzyna leÅ¼
ĠprzepÅĤy w
dnie niu
ĠS ien
Ġcu da
Ġtale nt
Ġrowe rÃ³w
ĠBu dynek
Ġekspo zy
Ġlabora torium
Ġniemie ckim
Ġspo nta
ĠJava Script
ĠtysiÄħ c
Ġzbudowa ny
Ġdosto sowane
Ġza wÃ³d
Ġangiel sku
D D
Ġpod wÃ³r
ĠÅ¼yw noÅĽÄĩ
Ġodchu dza
Ġwraca Äĩ
Ġli tery
Ġpro ro
ĠsÅĤuÅ¼Äħ ce
Ġgo towania
Ġw stÄĻpie
ĠÅĽ pi
Ġh emo
Ġzastosowa niem
Ġcywi lizacji
ĠzewnÄĻtrz nego
Ġna duÅ¼y
l nika
ĠnastÄĻp nych
h r
dy scypli
ĠsprzÄĻ tem
Ġim pla
Ġotrzyma jÄħ
li nd
Ġniemow lÄĻ
ĠKar ty
ĠM in
bi i
Na d
ĠD C
ĠW P
Ġpunk tach
Ġlek cje
Ġtworzy w
K IE
ĠOrgani zacja
liza cje
ĠSÅĤo ne
n r
Ġnadru kiem
Ġschu dnÄħÄĩ
Ġrezulta cie
Ġwia ra
Ġp Ã³l
Ġcz terdzie
Ġru sz
ĠIzra ela
go ÅĽÄĩ
r owe
ĠMa ÅĤe
dze spo
ĠDzie wczy
Ġkapita ÅĤ
Ġbud owanie
Ġwyja zdy
Ġma p
me t
Ġza dziaÅĤa
Ġprzy mu
ĠopÅĤa ta
ĠA T
Ġaparta ment
ĠwyglÄħda ÅĤa
kur s
Ġma tura
Ġdziedzi n
ĠKsiÄĻ Å¼y
ĠSt art
ĠpiÅĤka rzy
Ġbia ÅĤej
ĠIn dy
Ġklasy czny
ce zja
Ġpi sar
Ġrodzi nnym
Ġod ez
Ġutrzyma niu
ĠsÄħ dzÄĻ
na wet
Ġroz dzie
Ġauto rzy
Ġmar kÄĻ
Ġa ne
Ġperspekty wie
s nych
w czyna
ĠO by
Ġtechni czny
Ġka nalizacji
Ġorganiza cjÄħ
Ġb ÃĦ
Ġse niorÃ³w
Ġwycie czek
Ġdru k
Ġcu krem
H u
Ġco ro
Ġroz ÅĤa
Ġza no
ĠP E
sowa nym
ĠProje ktu
Ġra da
Ġs wie
Ġpo siÅĤku
ĠÐ º
ro nika
Ġfi li
Ġcz wo
Ġtu re
Ġm er
Ġprzycze py
p cie
l owym
ĠRo ma
Ġ12 00
Ġdowo lnego
l t
Ġado p
Åļ wiet
ĠwÅĤÄħ czyÄĩ
Ġgra ma
Ġsta tku
ĠCzy telni
Ġsztu czne
Ġprogram owania
Ġroz sta
Ġwyz waniem
ĠÅļwie tnie
Ġwy glada
Ġdopa sowane
ĠMa gi
Ġwynika ch
ĠO cena
ĠZa sady
zo ry
Ġpostanowie ÅĦ
Ġmo czu
lo nie
Ġs chro
ĠFran cja
ĠbezpÅĤa tnie
ĠwpÅĤa ty
m owÄħ
Ġwyj ÅĽciem
w nym
sie nie
Ġreflek sji
Ġdo chÃ³d
Ġwej ÅĽciem
Ġuzna je
kowa nÄħ
ĠuÅĤat wiÄĩ
Ġfundu szu
Ġwizu ali
ĠzÄĻ ba
ĠsÅĤod kie
gÅĤo ÅĽnie
Ġprze ÅĽla
Ġaktual nych
Ġpowia da
Ġy o
Ġnie praw
Ġplasti kowe
Ġczekola dy
b owa
Ġkilka set
Ġg la
1 20
ga nie
Ä į
Ġtera pia
Ġskompli kowane
W ia
ĠdotyczÄħ cÄħ
Ġuczestni kom
Ġfo lii
ĠporÃ³wna Äĩ
czni j
ĠOrgani zacji
ĠNajwaÅ¼ niejsze
ĠwyrÃ³Å¼ nienie
ĠPro fi
ĠWielka noc
u nek
Ġhi per
ĠsamorzÄħd owych
Ġpod la
ĠoÅĽwia ty
Ġw sa
ĠnajwyÅ¼ sze
Ġchro niony
Ġorganiza torÃ³w
ĠwyjÄħtk owa
ĠOsta tecznie
Ġpostanowi ÅĤa
Ġzwolnie nia
nowo czeÅĽniej
Ġza dzi
Ġpomi ja
Ġo pra
Ġenergo oszczÄĻ
!!!! !!!!
H ej
Ġdro biaz
szu kaÄĩ
ĠGre cji
ĠspoÅĤe cznoÅĽÄĩ
ĠnastÄħpi Äĩ
ve s
ĠO G
ĠÅģ om
miÄĻ k
g ge
Ġwscho dniej
ja ce
] [
T er
Ġp ru
Ġama tor
ĠD LA
ia gno
Ġno gami
Ġci szy
Ġefektyw noÅĽÄĩ
Ġwykona no
czu cia
ĠIn frastru
Ġfilozo fi
ĠZa py
Ġukaza ÅĤ
ĠWÅĤady sÅĤawa
ka rza
Ġpopular noÅĽci
to nie
Ġodpo czÄħÄĩ
ĠPro simy
Ġodzwiercie dla
Ġszla ku
ĠzÅĤo Å¼yÅĤ
Ġprzyci sku
Ġdowo dem
Ġprepara tu
ni cznych
iera r
ĠWo l
Ġdzi wi
Ġterro ry
Ġze szy
ĠD rew
Ġple cach
P io
Ġry nkach
ĠLe wa
menta rz
Ġfunkcjona lne
Ġprzyj rzeÄĩ
Û Į
Å» Y
Ġczuj nik
Ġmarketing owych
ĠzwrÃ³ci ÅĤ
Ġmo tor
Ġwy lÄħ
Ġpol scy
ÅĽ nik
ĠA nio
ĠTran sport
ty ce
F ran
Ġdocho du
Ġbo ryka
CzÄĻ sto
ĠD R
se s
ĠKar ta
lnie nie
Ġdo minu
AT A
ĠAgen cji
Ġsi le
T ru
Ġtar gÃ³w
ĠÅĽwiÄĻ tego
ĠCh cÄĻ
Ġegza mi
Ġpa sjona
Ġcieka wym
Ġprzyspie sza
Ġp ne
Ġstwo rzona
gi o
My ÅĽlÄĻ
Ġwodo ciÄħg
Ġda waÄĩ
Ġkrzy Å¼a
å½© ç¥
Ġbu ra
war ka
ĠrÃ³w ie
Ġboga ta
Ġuczy niÄĩ
Ġwspomnie ÅĦ
ĠD al
Ġbla chy
ĠpoÅĤudni owej
wi zy
Ġszybko ÅĽÄĩ
rÄĻ cznie
ĠPoli tyka
Ġhodow li
Ġdar mowy
W szyscy
Ġgara Å¼u
Ġprze anali
Ġpowy Å¼sze
Ġma rzenie
Ġmi ÅĤy
Ġto czy
Ġprze wagÄĻ
Ġkompu tery
W iÄĻkszoÅĽÄĩ
ĠdÅºwiÄĻ ki
ĠmyÅĽla ÅĤam
ĠogÃ³l nego
ĠPrze zna
Ġz oo
ĠDzie cko
bo ard
Ġpa nowie
Ġsma kuje
Ġnies peÅĤ
e lekt
Ġprzys waja
Ġpozosta Äĩ
Ġza cieka
Ġgu st
ĠCen ter
wa k
Ġwybu chu
ĠLu ba
Ġa zo
to oth
ĠZ AM
te czki
ĠgÅĤu po
Ġizo lacji
re r
sz ny
Ġodpowiada Äĩ
Ã ł
ĠczÅĤowie kowi
Ġpubli cznie
ĠJ ar
dowa la
Ġsport owego
Ġpapie Å¼a
Ġre tro
Ġkwar tale
Ġko lÄĻ
ĠAd res
ĠRa fa
Ġbrzu ch
S ÅĤowa
ĠksiÄħ dz
ĠmÅĤo dej
ĠDro ga
ĠKla sa
Ġkalor ii
Ġnowoczes nego
Ġrysu nku
towa liÅĽmy
Ġnaukow cy
Ġ8 1
Ġje cha
ĠR ich
Ġwydarzenia ch
Ġbar ier
Ġsta ÅĤym
Ġpo czeka
Informa cja
niesi ony
Ġimi gra
t lenia
Ġkana ÅĤu
Ġproce n
rzo nÄħ
ma gne
ĠdziaÅĤa jÄħce
ĠTo yo
Ġopie ka
Ġw le
Ġzde j
Ġniedo skona
Ġpa sku
mo na
Ġg rÄħ
Ġkonsulta cje
Ġkomen towania
ĠrÃ³Å¼ nej
ÅĤ kÄħ
stru ktury
Ġstary m
Ġmagazy nie
Ġza wa
Ġzawiera jÄħcy
Ġb rwi
ĠÅļ li
Ġtran zy
Ġban kowe
Ġodpoczy nek
Ġpa czki
ĠAleksand er
ro l
Ġwysy ÅĤka
Ġzabezpie czeÅĦ
ber ta
Ġdo men
dzi c
ĠP lu
Ġzrobi ÅĤem
Ġspa lanie
Ġpla sty
ĠbudÅ¼e cie
Ġmechani czne
Ġsto lar
ĠzwiÄħza nej
io na
ĠE uchary
Ġlubi sz
Ġdok to
Ġmani fe
ĠBiaÅĤoru si
Ġws chÃ³d
ĠdokÅĤad niej
Ġrecen zje
Ġpody plo
Ġczerwo na
ĠPla tfor
Ġwywia du
ĠdoÅĽwiad czeniu
Ġpozy cjon
owe mu
Ġwspania ÅĤa
ĠÅ¼ela za
Ġczu jÄħ
k ÃĦ
Ġpier siÄħ
ĠA kcja
Ġpro stÄħ
Ġprawdzi wych
Ġsia tka
Po niÅ¼ej
ĠdziesiÄĻ cio
syj nych
Ġgro no
Ġwspiera Äĩ
ĠDa nych
Ce na
P K
Ġkul turÄĻ
Ġs chody
kowa li
Ġwzro sÅĤa
Ġ9 3
Ġbia ÅĤych
Ġistnie nie
ĠKur s
ĠGala xy
ĠH R
ĠpÃ³j dzie
Ġzna czne
Ġprzy nieÅĽÄĩ
Ġzdr owych
pÅĤa ty
da lej
ĠwtÃ³ r
Ġprze pro
Ġre sztÄħ
ĠpodÅĤo dze
ĠA nali
Ġkoncer tÃ³w
Pierw sza
ĠNierucho moÅĽci
Ġprepara ty
Z obacz
Ġuka zuje
Ġwie dzieli
Ġla kierowa
Ġpowo dzenia
Ġ( +
S D
Ġu mi
gie j
ĠZa stosowanie
Ġrozmai tych
Ġu twar
p ha
bi sku
Ġru ry
ĠK s
W z
ĠOÅĽrod ku
Ġude rza
me d
Ġro bienia
Ð¾Ð »
Ofer ta
cia ÅĤ
ĠwystÄħpi ÅĤ
Ġche mii
ĠpodrÃ³ Å¼e
ĠwyÅĽci gu
ob owiÄħ
no ta
ĠN im
Ġu powszech
zy ska
Ġro u
Ġindywidual nej
ĠW ro
Ġwyda na
do raz
Ġzdoby cie
I CZ
Ġal fa
ĠâĢ ĭ
Ġod stÄħpienia
Ġdwu stro
ĠÅ¼on ÄĻ
Ġpro stym
Ġnegatyw ne
Ġrodzi ciel
Ġznalaz ÅĤo
Ġmatema tyki
ing s
Ġprzy noszÄħ
Ġnaru szenia
ĠosiÄħgniÄĻ cie
T ran
Ġprzekona ny
Ġzim owych
ĠchÅĤopa ka
ĠbiÅ¼u terii
Ġdotychczas owych
ĠtÅĤuma czenie
Ġdom owym
n se
Ġspraw dzenie
ĠWe b
pa s
Ġa dekwa
Ġli bera
kow cy
gro da
ĠwspÃ³l nÄħ
li st
ÅĤÄħ b
Ġregular ne
o nego
ĠI ra
Ġpom nik
Ġma t
stnie jÄħ
Ġkredy towej
Ġdy wa
r kÄĻ
ĠSta ty
B P
Ġzaczyna m
Ġzi ma
Ġzna nym
bi one
Ġla sÃ³w
% ).
Ġ9 4
n de
Ġro szczeÅĦ
Ġwu lka
Ġu rzÄħd
ĠS ÅĤy
Ġzi my
Ġte dy
Ġzrobi c
b rz
ĠO lej
ni ÅĤem
ĠD wu
Ġkolo rem
Ġno s
ok ra
Ġga la
Ġa posto
ĠUsÅĤu g
Ġgatu nek
ĠChcia ÅĤbym
koÅĦ czenie
sty le
ĠKie lcach
Ġmoc niej
Ġdzi wiÄĩ
Ġzielo nego
Ġo c
Ġzbyt nio
to ny
Ġwielo letnie
Ġlep szej
Ġin wen
Ġdodatk owej
Ġusta lenie
ĠMa g
Ġroz dziaÅĤ
ĠIn tel
Ġzach Ã³d
ĠmiÄĻdzynarod owym
Ġza de
Å¼ nik
Ġo tu
Ġkciu ki
C JA
Ġszere gu
Ġprze pa
Ġtek ÅĽcie
Ġkar ÄĻ
ru j
Ġotwar tych
Ġser w
Ġwojs k
u jemy
Ġstra Å¼y
Ġmen ta
WÅĤa ÅĽnie
ĠWyÅ¼ szej
Ġzega rek
ĠNi by
,,,,,,,, ,,,,,,,,
Hi storia
Ġi mie
ĠWi ki
ĠprzemysÅĤ owe
za nie
Ġinteresu jÄħcy
ĠAustr ii
Ġbukmach er
kon cep
Ġzorgani zowane
no i
ĠC E
Ġod kÅĤada
x e
Ġcentra lnego
Ġprojek tach
ĠSpoÅĤe cznego
P owie
ĠprzedsiÄĻbior ca
r r
ÅĦczy cy
Ġtyp owe
ĠdÅĤu gÄħ
l cÃ³w
Ġkontro lowaÄĩ
Ġopodatk owania
Ġdziew czÄĻ
Ġod bio
la tka
Ġwi zji
Ġniezwyk ÅĤÄħ
Ä ½
Ġtegoro cznej
ĠproÅĽ bÄĻ
ĠS kÅĤada
ĠmyÅĽ lenie
Ġo por
Ġza przyja
ĠS W
ĠuÅ¼ytk ownikom
Ġzaku pio
Ġam basa
Ġdwa dzieÅĽcia
ĠdziaÅĤa ÅĤ
ĠodwoÅĤa nia
Ġno ga
Ġrzecz nik
In ter
Ġeki pa
Ġi ko
Ġbutel ki
Ġkor pora
ĠwyÅĤÄħ czona
ĠF ra
Ġwykona wcÃ³w
Ġbud ownictwa
Ġzagrani czne
Ġograni czona
Ġpo ci
Ġzawiera jÄħcych
Ġwlas nie
Ġprzezna czeniem
ĠzgÅĤo szeÅĦ
ĠwÅĤaÅĽci wÄħ
Ġodebra Äĩ
Ġczerwo nego
Ġwybiera my
Ġodpa dy
ĠMateria ÅĤy
ĠU wielbiam
Ġza kaza
ĠNa le
Ġoce a
ĠnajbliÅ¼ szy
Ġzainwest owaÄĩ
ĠRzy m
Ġwsze la
Ġwystaw ÄĻ
i no
ĠÅļlÄħ sku
ĠMe ble
szczy k
Ġdo ni
ĠS D
Ġdz iÄĻ
Ġczu jesz
ÅĽ lenia
Å¼y li
Ġboi ska
ĠU mowa
Ġobiek cie
Ġzrobi li
ĠwewnÄĻtrz ny
Ġde s
Ġprawdzi wej
ĠBur mistrz
ĠpoÅĤo Å¼enia
Ġprzeszk Ã³d
chy ba
Ġmiaste czka
ĠKo ÅĽciu
ĠkrÃ³t kich
now ska
ĠÅĽmie ta
ĠskoÅĦ czyÄĩ
Ġre nowa
Ġano nim
ĠprÄĻdko ÅĽciÄħ
Ġegzy stuje
Ġkompleks owÄħ
n nika
ĠU stawa
ba t
ĠdÅĤugie j
ĠwÅĤÃ³ kien
Ġta nio
Ġzmar szczki
zi Äĩ
A Åģ
Ġmi nia
ĠBÄĻ dÄħ
Ġspektak lu
Ġzmieni ÅĤa
ĠpaÅĦstw owych
Ġsatysfak cji
nk owÄħ
Ġprobo szcz
Ġodby Äĩ
Ġabo na
Ġmu sz
ĠPor t
ĠobsÅĤu gu
ja cy
Ġpara metra
Ġpotencja ÅĤu
ĠTe am
Ġma sÅĤa
Ġfundu sze
Ġsil nikiem
f re
ona l
ty godni
Ġuniwersa lny
Ġsta nÄħÅĤ
Ġzaspo ko
try bu
Ġtechni cznym
wo od
Ġkar nego
ĠSte fan
obi le
s mi
ĠwczeÅĽniej szych
Ġzi denty
ĠWa mi
Ġzawar tej
ĠC re
ĠpoÅ¼y czka
Ġpot rwa
Ġprzygotowa liÅĽmy
ĠPÃ³ÅĤnoc nej
io ny
je r
Po czÄħ
Ġpodsu mowanie
ĠMÃ³w i
Ġwybra nej
Ġarty stycznych
Ġkraj owej
z dach
Ġbiur owe
Ġza szko
Ġpu ste
zu ra
ĠpiÄĻk nego
âĢĿ ?
ĠGÅĤÃ³w nego
Ġgospodar ce
ĠUniversi ty
Ġan gaÅ¼u
Ġdziew czÄħt
u Å¼y
Ġpozosta ÅĤ
ĠE pi
Ġz em
wodni cy
Ġf lu
Ġnarod owych
Ġkla szto
ĠT el
Ġinnowa cyjne
ĠMa ksyma
Ġmonitor ingu
Ġsyste mach
Ġcy na
J ez
dzien nie
Ġpow rÃ³ci
Ġprzygotowa ÅĤ
ĠL y
Ġroz da
a ler
ĠE X
Ġokaza ÅĤy
Ġkieru nkiem
unk owania
sowa nÄħ
t j
ĠRober ta
pi ony
Ã³ÅĤ ka
Ġpra nia
ĠAmery ce
ĠJa strzÄĻ
ĠNie zaleÅ¼nie
ĠpÅĤy tek
Ġwios nÄĻ
Ġpisa ÅĤam
Åļ wiÄĻ
Ġwo lnej
Ġinwe sto
W Y
n ga
Ġstandard owe
Ġa te
Ġza chodzi
Ġsta nÃ³w
ĠMa li
Ġspraw dzia
ĠZapewnia my
ku jÄħce
pra ca
Ġza ÅĤama
ĠKo ÅĽcio
! ).
Ġzainteresowa ni
ĠwypeÅĤ nienie
Ġroz grze
ĠbezpoÅĽredni m
st rÄĻ
bi cie
Ġ9 7
ĠurzÄħdzenia ch
Ġzaawan sowane
or k
Ġdyrekty wy
Ġprzyja zny
Ġudo godnie
ĠS obo
S am
ĠTo ur
ba j
Ġwymo gi
Ġdo zwo
Ġdrukar ki
Ġpod nieÅĽÄĩ
Ġobec na
Ġmal owanie
Ġuli ce
Ġz bie
st rem
Ġw ÅĽcie
Ġpio nie
Ġinteresu jÄħ
to k
Ġniepowtarz alny
cza ne
Ġtrans misji
me dy
Ġwszel kÄħ
Ġoprac owy
Ġby cie
Ġsztu ce
mu j
szcze k
A rty
S O
lu cha
rze ÅĽcija
od powie
Ġd n
ĠMÄĻÅ¼czy zna
W IE
ĠcaÅĤkowi tego
ĠI M
Ġwy ciÄħgniÄĻ
za ny
ĠtaÅĦ sze
C IA
ĠKrzy Å¼a
lik nij
Kolej ny
ĠS N
ĠwÅĤo Å¼yÄĩ
ĠJe rozo
wio nej
bie ktyw
Ġcie niu
ĠKu ba
Ġgra jÄħ
Ġwnio sko
Ġbo nu
ĠO ut
ow nego
w nictwo
Ġma pa
ur l
ĠOpo le
kowa niem
ĠPR ZY
Ġstara jÄħ
fe l
Ġmniej szym
ssi on
Ġle wa
Ġobec nÄħ
ĠwspÃ³ÅĤczes ne
Ġzawar to
Ġunij nych
Ġzrobi ÅĤo
Ġzgod ny
tk owski
ĠB HP
ĠMar ci
ĠTÅĤu ma
Ġnaj nowoczeÅĽniej
Ġpokar mowego
wy kÅĤa
ĠMuzy ka
Ġdzia ÅĤek
ĠV in
Ġwymia nie
ci ÅĤy
Ġg ali
szcza nie
ĠÅĽwiade ctwo
Ġsu cho
Ġuchwy t
Ġ owi
Ġprzyja zne
Ġprofesjona lizm
pad ÅĤ
Pro szÄĻ
ĠHen ryka
Ġwie dziaÅĤa
Ġprzekaza nie
Ġorganiza torzy
Ġciep ÅĤej
Ġpolicja ntÃ³w
ĠAl l
Ġde te
ĠPi sa
Ġz jedno
ĠSo ko
Ġnegatyw nie
ĠÅ¼Äħ danie
Ho tel
ÅĤem u
Ġje dzie
Informa cje
li ÅĽci
Ġspa lania
ĠArchi wum
ĠnajbliÅ¼ szej
Ġmie jskie
fi kuje
ez o
6 00
Ġop er
b rak
art Äħ
B R
Ġroz ÅĤo
ĠPo jem
ĠOb sÅĤuga
Ġkondy cjÄĻ
Ġob sa
ĠDu Å¼e
Ġprzyja ciela
Ġfor mat
Ġce nÄħ
ho l
Ġkrwio noÅĽ
Ġuwie rzy
Ġkupi ÅĤem
Ġtelefo ny
p pe
Ġgor sze
Ġkto ra
Ġczar nÄħ
Ġniewie lu
bi ca
h el
Ġinteresu jÄħcych
Ġobni Å¼enie
Ġpew ny
Ġh umor
Ġpozytyw ny
Ġwymo gÃ³w
Ma sz
Ġbud owÄħ
Ġnaz w
Ġpo lep
Ġna ka
go spodar
Ġk W
Ġdu chu
Ġmedy cznego
ĠwziÄĻ cia
nowie nia
sta li
Ġpo dzespo
Ġosob no
sk lep
Ġfinans owym
ĠpodziÄĻk owaÄĩ
Ġnie powo
Ġtar gach
Ġpe ry
Ġ qu
Ġkonty nen
Ġzim ÄĻ
ÂĻ ,
Ġno szÄħ
ĠpowyÅ¼ szym
K rÃ³
Ġzmo dy
ut bo
nok wa
Ġformula rzu
ĠS C
Ġnowo rod
G W
towa niem
Ġskar gi
z ma
Ġpotrafi ÅĤ
or Äħc
Ġin su
Ġa rab
Ġinter wencji
Ġna i
Ġdy le
Ġtytu ÅĤy
ĠÅĽwiado mie
Ġstruktu rze
Na tomiast
ĠB iaÅĤa
l owo
zz le
ĠOpo lu
ks wa
Ġmotyw em
ĠsÄĻ dzia
Ġorganiza cyjne
Ġproducen tem
Ġwo lÄħ
Ġprywa tnego
ĠW AR
cjona lne
Ġmo imi
ĠwyÅĽwietla cz
ĠdotyczÄħ ca
Ġmusia ÅĤem
Ġwy myÅĽ
Ġska ndyna
Ma teria
Ġpiekar nika
Ġprzed w
Ġnapa st
Ġinnowa cyjnych
Ġnajnow szy
Ġko ty
ĠZ SR
Ġsta rzenia
Ġstro ju
ĠobjÄĻ toÅĽci
Ġutwo rzenia
Dz ia
ĠmaÅĤy mi
Ġpoda ÅĤ
A nd
Ġcier pi
Ġza robiÄĩ
Ġcyfr owych
Ġpotrzeb nych
Ġsre bra
po Å¼ar
Ġca ÅĤych
Ġ9 1
Ġmie nia
Ġudo kumen
Doda tkowo
Ġelektroni cznego
Ġu kieru
Ġocie p
Ġx D
Po niewaÅ¼
ĠtrÄħ dzi
Ġlo t
Ġeduka cja
Ġzaofer owaÄĩ
ti cs
la ta
ĠkrÄħ Å¼enia
la ra
ĠRa tu
Ġdziedzi ctwa
ĠUwaÅ¼a m
Odpowie dÅº
Ġmo net
Cen trum
Ġodpowiedzia lne
Ġzwie dzania
Ġpo spoli
ĠIn tere
ĠPrzewodni czÄħcy
Ġkancelar ii
Ġwie rzch
Ġpozna nie
kt ry
lo giem
Ġaro mat
ĠwartoÅĽci owych
Ġprzygotowa nych
Ġudo skona
Ġbie l
Ġtra s
Cze ÅĽÄĩ
ly m
Ġwy jecha
rek tor
Ġprzeka zywa
Ġrolni kÃ³w
ĠciÄĻÅ¼ kiej
Ġakcep tacji
U G
or ia
Ġaby ÅĽmy
ĠRa d
Ġspraw noÅĽÄĩ
ĠW C
Ġanali z
nie sz
ĠMe tro
Ġprzezna czenia
ok sy
Ġstruktu r
Ġnagro da
kali zacja
Ġchcieli by
ĠpoglÄħ dy
ĠTur cji
Ġpozo rom
Ġszkodli we
Ġprzeprowa dzonych
sz na
ĠgotÃ³w ki
Ġidenty fikacji
ĠGÅĤo s
di t
Ġpo sza
Ġt ary
Ġpo ta
ĠRegu lami
ĠK in
Ġuwa lnia
ro pia
Ġwi ÃĦ
ĠDu da
Ġprzez iÄĻ
unda cja
ĠÂ ¶
Ġpodu szki
ĠOw szem
K obie
Ġwyz wo
Ġkomuna lnych
Ġzawodni ka
ĠReje stru
Ġpra wym
Ġgabi net
nia ny
ni owÄħ
Ġprepara tÃ³w
Ġprawa ch
ĠWaÅĤ brzy
ĠpoÅĤo Å¼onych
ĠDob re
ÅĤe Äĩ
Ġsta nÄħ
Ġekspo zycji
Ġpozosta ÅĤo
ĠpodÅĤÄħ czyÄĩ
ĠMa ÅĤy
Ġwojs kowych
mu cha
Ġgra ch
ĠRe stau
Ġdzie liÄĩ
ĠIn spe
Ġro dze
Ġza cie
Ġo praw
Ġod mia
ĠT AK
Ġfizy cznie
ĠbezpoÅĽre dnie
Ġmniej szÄħ
Ġpew ni
du jÄħc
Ġa lo
go s
Ġoz doby
Ġsk ru
Ġen zy
Ġabsolwen tÃ³w
br ie
Ġnie rzadko
ĠU moÅ¼li
Ġpopular y
Ġautobu s
Ġprzez roczy
Ġautoma tyczne
ĠwÅĤas no
d ÃĦ
Ġkompa tybi
ĠG al
. ;
Ġzwraca Äĩ
Ġmia Ä¹
do s
Ġpromo cjÄĻ
Ġkilogra mÃ³w
ĠMo Å¼liwe
ĠMo dli
Ġde pi
ĠPro ce
Ġn t
ĠÅĽwia te
Ġzebra Äĩ
ĠwÅĤas noÅĽciÄħ
Â ł
Ġgospodar stw
ĠPol skim
dzi cie
Ġwyj ÅĽciu
ĠsÄħsia dÃ³w
Ġmoderni zacji
Na u
ĠSto su
sy ÅĤka
Ġgaler ia
czÄĻ ÅĽci
Ġzaczyna my
Ġletni m
Ġregenera cji
Pole cam
ĠwystÄĻpu jÄħcych
Ġmary nar
Ġta niec
ĠYou Tube
Ġw pisÃ³w
Ġkolej no
gi ch
ĠNie bie
Ġkonkur sach
ĠÐ ´
Ðµ ÑĤ
ĠpeÅĤ nych
dni ca
Ð° ÑĤ
ĠdostÄĻp em
Ġogrod owe
Ġspons or
Ġsztu cznego
Ġsty pen
ĠG ie
Ġprzeka zu
Ġuwa g
Ġm ru
Ġbeton owe
ĠZgroma dzenia
ĠwyjaÅĽnie nia
ĠÅĽwiad czÄħ
ĠbÅĤogosÅĤa wie
Ġprawdopodobie ÅĦstwo
P osta
ĠPy tanie
ca nie
Ġcy ta
ĠSta rego
Ġprakty ka
Ġpo czyna
pad ÅĤa
Ġwytwarza nia
Ġkar cie
Ġgra cza
Ġmie c
ni czny
Ġzezwo lenia
cz niejsze
Ġbi twy
ĠbÅĤÄĻ du
mar ke
Ġs my
dek lar
Ġwyz waÅĦ
Ġzie lona
Ġsprawie dli
Ġkonsu menta
Ġpod ium
Ġmuzy cznej
Ġza gu
00 00
ĠDa wid
nowie c
Ġrozry w
r in
Ġwyci ska
Ġster owanie
Ġs ki
ĠksiÄĻ gi
Ġbli ska
Ġog niu
Ġkie sz
Ġporusza Äĩ
ĠS ob
wa lny
Ġsobo ty
ĠpoÅĤudni owo
Ġoba wia
Ġenerge tycznej
ci m
Ġdopa sowanie
ĠPrzy by
Ġbia ÅĤÄħ
Ġwy praw
ĠNF Z
Ġu cha
Ġpe nisa
Ġkontak cie
ĠwyjÄħtk owym
Ñ Ĩ
Na wet
Ġzapotrzeb owania
Ġprze no
ĠMar ian
Ġpowi kÅĤa
ĠogÅĤo siÅĤ
ĠwÅĤas nymi
Ġdostaw cy
Ġsu ger
Ġzawod owym
Ġorganizacja mi
sz owa
Ġnierucho moÅĽÄĩ
ĠOd wie
Ġpodpo rzÄħd
Ġw niesienia
Ġban kowego
Spotka nie
ĠD J
ĠbaweÅĤ ny
ĠpÃ³ÅĤnoc nej
P er
ĠF OR
Ġzwyk ÅĤego
ĠBizne s
ĠmiÄĻdzy czasie
ĠLu biÄĻ
ĠpowaÅ¼ nych
ĠWa ga
Ġseku ndy
Ġspotka ÅĤ
ĠP ÄĻ
Ġbezrobo tnych
Ġpie prze
ĠPuchar u
Ġpa ÅĦstwie
t v
Ġzawo ÅĤa
Ġu prawy
Ġ4 50
Ġwyka z
Ġcho ry
ĠuÅ¼ywa jÄħc
Ġuro dy
ĠOb ej
ĠdoÅĽwiad cza
Ġrestau ra
Trze ba
Ġokoli cznych
Ġodbywa ÅĤy
ĠukoÅĦ czenia
AT Y
ĠwyjÄħtk owych
Ġu i
ĠOd kry
kra j
Ġprzygot owu
ĠAdministra tor
Ġf on
Ġdo lnoÅĽlÄħ
Ġwspar ciu
Ġpod noszÄħ
Ġposzu kaÄĩ
T re
t wi
Ġusta wienie
dow ÄĻ
ĠK im
Ġpo sty
Ġlo ty
nor ma
Ġumie jsc
Ġza pisÃ³w
Ġlo su
Ġkon t
Ġja zz
ĠpowiÄħza ne
Ġnasz emu
Ġzapy taÅĤ
Ġdoda waÄĩ
dzie Å¼Äħ
Ġkontro lÄħ
ci ki
ĠZa czÄĻ
Ġga mÄĻ
ĠrzÄĻ s
Ġda nÄħ
la nych
Ġnieod powie
ĠC lub
m bu
Ġse na
em ia
ĠSy n
ĠzobowiÄħ zuje
fi zy
Ġak war
bi Äħ
ĠBiu lety
Ġmo i
Ġdoskona ÅĤej
Ġb un
Ġkonie cznoÅĽciÄħ
wz or
Ġfa ta
ba ni
Ġkupu je
ĠdziesiÄħ tki
Ġ ï
ĠwÄĻ gier
Ġmu sze
Ġmal owania
ĠpÃ³ÅĤ ro
ĠoÅĽ miu
ĠKrzy Å¼
owni ca
h p
Ġprezen tujemy
ĠS un
Ġok nie
Ġtak sÃ³w
z obacz
Nie z
Ġw rzuca
ĠczÄĻ ÅĽciach
for mujemy
Ġma lowa
Ġprzyzna nie
C T
ĠCa ÅĤkowi
g ma
ĠS obie
Ġpo stÃ³w
Y T
Ġmniej szej
Ġzrozumie nie
ĠÅ¼y wienia
ĠdostÄĻp noÅĽÄĩ
st rÄħ
Ġindywidual ny
ĠbieÅ¼Äħ cego
Ġma ski
al bo
ĠÅ¼Ã³ÅĤ ty
zowa ÅĤa
ĠwyÅĤÄħ czeniem
Ġrobo cze
n niki
ĠZarzÄħdza nie
ĠRa z
Ġzie lonych
ĠzamkniÄĻ ty
Ġza pada
Ġwoj nÄĻ
Ġprzyja ciele
O to
pl y
rowa nego
ĠwÅĤaÅĽci wych
Ġju ry
Ġniemie ckie
ĠA naliza
mio ty
Ġenergi Äħ
Ġprzygo da
Ġpoko leÅĦ
s ca
Ġwo dnej
lo dzy
ni nie
Ġrela cja
ĠZ dzi
Ġtka nek
ĠÅĽwiÄĻ tych
ĠsiÅĤ owni
Ġprojekta ntÃ³w
Ġwy niosÅĤa
mie ÅĽcie
ĠBa danie
tuje sz
ĠzaÅĤo Å¼ona
ro by
st ie
Ġto rt
ĠÅ¼e laz
Ġprecyzy jnie
ĠczÄħ ste
ĠNorwe gii
Ġpora dnik
sta nu
Ġbiur owych
bo rze
Ġniebezpie cznych
Ġklasy cznej
ĠWy korzy
Ġjakiego kolwiek
Ġofi ce
Ġzmar ÅĤych
z ga
to mi
Ġulubi ony
Ġczar nego
wio nego
Ġprzeciw nikÃ³w
ÅĤ Ã³g
li sty
to rom
Ġopozy cji
c cy
Ġwykona wca
ĠIn spektora
Ġdostaw ÄĻ
Ġtrenin gi
ĠP A
ĠI nicja
Ġkieru nki
Ġkole gi
ĠGor Äħ
ĠSy na
Ġod mian
ĠDoro ta
ĠAle x
Ġhand lowej
Ġzoba czenia
Ġd en
Ġdowo du
Ġdemok racji
ĠkieÅĤ ba
be t
U SZ
Ġchcia ÅĤo
Ġzda ÅĦ
ro ss
Ġja dÄħ
li zacjÄĻ
Ġoj cem
Ġdrog owych
ĠuÅ¼ytk owej
âĢĿ ),
P C
Ġopieku nÃ³w
Ġpodoba jÄħ
Ġprywa tnym
Ġprze sÅĤucha
Ġfunda cji
Ġmistrzo stw
ĠKodek s
ĠÅĽrod kiem
Ġbu l
Ġrower owe
Ġdobra ne
Ġfunkcjon owaÄĩ
Naj wiÄĻk
i se
Ġwy r
ĠKomen dy
Ġod rzuca
Ġsamocho dowy
ĠS L
prze wodni
ĠNadz or
Ġrobi one
Ġobli czu
ĠobowiÄħzu jÄħcymi
Ġmiesza my
Ã³ ÅĤek
ĠKlien ci
ĠPomo rza
stra cja
Ġwy gene
Ġko ron
Ġkonser wacji
Ġwzajem nie
Ġder mato
Bu dowa
ĠD wie
ro ko
Ġogrod Ã³w
Ġdo mek
Ġaparta menty
ĠU dziaÅĤ
Ġsoli dne
Ġczy sta
pew no
Ġpo seÅĤ
ktÃ³ ry
ĠSzko lenia
Gdy by
ER T
de ry
Ġekonomi czne
Ġpod grze
ĠE la
ĠNAT O
ĠPowia t
Ġza mach
Ġka sÄĻ
Ġoba w
ĠZda rza
ka ÅĤ
Ġbal ko
Ġczyn nikiem
te ka
Ġstanowi ÅĤy
Ġprze mia
Ġtram wa
ĠWs pania
Ġwybra nym
Ġdziennika rzy
Ġka ba
Ġpropozy cjÄħ
Ġkape lu
w czÄħ
ra el
Ġpal ce
sÅĤo ne
Ġzabezpie czyÄĩ
ĠP owin
Ġsta ÅĤÄħ
Ġewentual nych
ĠsprzÄħ ta
ĠBu ÅĤgar
ĠNe t
s l
ler ia
ĠskÅĤa dnik
Ġogrom nej
ĠuÅ¼ytk owanie
ĠB IP
ĠS ter
ĠobsÅĤu guje
ĠEner ge
Ġnieja ko
wi do
ra Åºniej
gnie my
ĠBa daÅĦ
tycz ka
Ġry tua
Ġkos mo
ĠsiÄĻga jÄħ
Ġtempera tur
Ġtar czycy
Ġprezen towane
ĠWymaga nia
F O
Ġnau kowej
z no
ĠO range
Ġbez na
ĠA ra
Ġby la
wo o
Ja kie
Ġma na
ĠwyÅ¼ szym
Ġzapro szenia
Ġku ra
ĠszczegÃ³l nych
ĠFa kt
s praw
logu j
Ġprezen tu
Ġjeli ta
Ġwy rzuca
b l
Ġpro szku
k nÄħÄĩ
Ġw strzy
Ġ' '
no ÅĽciami
Ġposta nawia
nowa li
Ġdziedzi nach
Å¼y ÅĤy
Ta kie
Ġinforma cyjne
Ġtra wie
ru jÄħce
Ð½ Ñĭ
Ġfak tur
Ġzna cznym
Ġpie tru
Ġtwo ich
Ġper spektyw
Ġpreferen cji
Ġprze rzu
Ġfrancu skiego
Ġrat owni
Ġno Å¼y
Ġrozpo rzÄħ
Ġtam tym
Ġe rek
Ġdzisiej szej
ĠstanowiÄħ cych
ĠKa cz
Ġm szy
ĠO limpia
ĠK wi
Ġt hat
Ġmo cÄħ
Ġobro tÃ³w
ĠZ le
Ġse minarium
Ġgrubo ÅĽÄĩ
Ġreko men
i hu
Ġo mija
ĠHo nor
ĠkÅĤopo tÃ³w
ĠnajbliÅ¼ szÄħ
WA ÅģA
Ġczos nek
ĠCh mie
Ġwodo odpor
Ġop cjÄħ
ĠBer linie
ÅĽli j
Ġstro je
ka toli
ÄĦ DZ
Ġzadowo lenie
i or
Ġto bÄħ
Ġde se
Ġtu tej
ĠwykoÅĦ czenie
ĠSej m
T rzy
ĠS ali
Ġnapisa ÅĤem
ĠksiÄħÅ¼ ÄĻ
Ġm ÅĤy
od rÄĻb
ĠPamiÄĻtaj my
Ġgra fika
ĠWe ne
Osta tni
ĠD NA
ĠLe piej
Ġwita mina
Ġprofesjona lnego
Ġk se
Ġpomoc ne
Åģ AD
Ġreda kcji
bi r
ĠO ko
ĠSpo sÃ³b
ĠMa szy
Ġbe de
Ja ki
ĠDo ra
Ġza biÄĩ
sa rza
T ro
togra fi
Ġpie cho
nta cji
cz kowych
sum owujÄħc
Ġhormo na
ĠC B
Å¼ ko
pu jemy
ĠkÄħ t
l owie
Ġnie to
Ġple cy
ĠÅģ y
Ġcia ÅĤem
Ġpopular na
Ġjed nych
Ġkonkre tny
lnie nia
Ġh ierar
tor ka
Ġtr ium
Ġsylwe tkÄĻ
Ġdokto ran
ĠspoÅĤe cznÄħ
ĠrÄĻka wem
ĠJaku ba
cy ny
Ġpokry cie
Ġtka nin
mio ny
A b
sz owe
Ġwy sko
Ġodpada mi
ĠFor ma
Ġuzdr owi
cz ÃĦ
Ġce nnych
Ġzle ceÅĦ
Ġprak tyczny
Ġwyraz iÄĩ
b na
Ġob rze
ĠFor d
Ġkontynu owaÄĩ
ĠKlu cz
Ġar y
Å¼ sza
ĠmyÅĽla ÅĤem
Ġu fun
Ġniez god
Ġkoszy ka
ĠPraw dzi
Ġprywa tnej
Ġrecen zja
Ġwzbu dza
Ġzawie szenia
Ġlicen cja
Ġproce sem
ĠspoÅ¼y wczych
ĠO rygina
ÅĤ kÃ³w
Ġpozwo lenia
Å ĵ
Ġscho rzenia
u jÄħc
Ġszkodli wych
ĠC N
ĠÅĽwiat owych
ĠtwÃ³r czoÅĽÄĩ
å ħ
js ce
Ġlitera turze
Ġocho ty
ĠprowadzÄħ ce
? "
he i
kty wi
ĠO wo
ja ko
Ġregu lacja
Ġdrzwia mi
ÅĦczy kÃ³w
Ġbar wach
Ġci sza
l skiej
Ġpo kÅĤad
ĠnapÄĻ dza
Ġsen sa
Ġra dziÄĩ
Ġryzy kiem
Ġobie cu
ĠâĢ ļ
Ġd nie
ĠDziaÅĤa nie
Ġpla nem
Ġg m
stÄħpi ÅĤ
Ġcywi lnej
kom pen
tulu jemy
Ġpor ce
syw ne
Ġsty lem
Ġucze n
ĠD rze
Ġprzeciw zapa
Ġnaw zajem
ĠpowiÄĻk sza
Ġsprzeda je
Ġwykorzysta ne
ĠZa pa
ĠPo trzebu
ĠÅĤo pa
Ġro py
ĠzaÅĤo Å¼eniu
Ġâ ĪĴ
ĠKa czyÅĦski
ĠW krÃ³tce
Ġpa sy
Dzie ci
Ġdecy zjÄħ
mi ÅĤa
ie go
ĠMa ÅĤa
in ki
ro zumia
Ġpubli cy
dniej szych
Åº ÅĦ
Ġpodpisa nia
Ġe waku
b ne
OD Z
ĠPamiÄĻ tam
ĠmaÅĤÅ¼e ÅĦstwo
ĠPamiÄĻ ci
Ġprze lew
Ġbisku p
ĠwaÅ¼ noÅĽci
Ġdedy kowane
ĠksiÄħÅ¼ kÄħ
Ġw ste
Ġprze ÅĤama
ĠkoÅĦc owy
Ġro lnych
Ġtrening Ã³w
Ġatrak cyjnej
V II
rÃ³ dziem
Ġtrze ciÄħ
Ġstu dni
Ġko ÅĽla
Ġpla Å¼
Ġlu dziach
Ġle dwo
Ġintere s
Ġdo bie
Ġme tr
Ġ24 0
ĠEle ct
Ġele wacji
ÅĽni j
tro l
Ġrela cjÄĻ
ĠE co
Ġsu mienia
Ġdaw niej
Ġotwar tym
Ġfinan se
Ġsen sow
Chce sz
Ġaktuali zacja
ku ÅĤ
Ġarchi wum
Ġpiersi owej
Ġm kw
Ġfabry ki
Ġtram waj
Ġczyta ÅĤam
Ġkom pre
Ġwie dziaÅĤem
Ġpod pa
ĠG ÅĤu
Ġpodstaw owÄħ
t noÅĽciÄħ
Ġprzedstawi ono
osob owe
nio ra
Ġpla net
nowie nie
Ġhan del
Ġg rza
Z ÅĤo
ta Å¼u
Ġdefi cy
ĠJÄĻzy k
Ġety kie
ĠPrzedszko la
Ġwykaza Äĩ
Ġurucho miÄĩ
Ġznajomy mi
Ġzale ga
Ġru ndzie
ĠKonferen cja
no za
ĠFi re
ĠprzykÅĤad Ã³w
Ġszyb kiej
ĠPow szech
Ġu kÅĤady
Ġb lach
Ġra ny
Ġkla uzu
ĠSer ia
ĠzewnÄĻtrz ny
ĠWnio sek
Ġpatrona tem
Ġ ................................
Ġforma cji
Ġfa ktÃ³w
Ġspos obie
Ġideal nÄħ
mi ra
cza niu
Ġkor pu
ĠEurope jskÄħ
Ġwdro Å¼enia
Ġdale ka
b ÅĤy
Ġczy stej
ci ÅĤam
Ġle cie
Ġi naugu
ÅĤ ow
le go
Ġwal czy
ĠLe ona
ĠpÅĤy nu
Ġprodu kuje
Ġsiedzi ba
Ġna dej
Ġ !!
Ġpodob ie
DZ IE
nu jÄħca
ĠgadÅ¼e ty
ÅĦ sk
Ġro gu
okie s
Ġsp re
ĠciÄĻÅ¼ ki
Ch yba
Ġab strak
Ġeksper ci
Ġwido czna
Ġsoju sz
ĠLo gi
Ġwarun kami
Ġzaba wek
wi ta
ĠumoÅ¼li wi
grafi cznych
ĠPrze mysÅĤ
Ġposiada jÄħce
ĠLewa nd
la ty
ĠKonstytu cji
Ġko sza
ĠbÅĤyskawi cznie
re x
ĠnajwiÄĻk szego
ĠCho rz
ha ha
ĠurzÄħdzenia mi
Ġsamo lot
ĠLu b
ĠwiÄĻ zi
p nie
ĠnaleÅ¼a ÅĤoby
Ġa gro
ĠS co
Ġba terie
y m
Ġa stro
stÄħpi Äĩ
Y N
Ġza robi
ĠS EO
Ġma tkÄħ
dÅº cie
Ġ: /
Ġkar ne
Ġdzia la
ĠksiÄĻ gar
Ġpopra wa
Ġmusia ÅĤy
ĠÅļ le
Ġ19 18
Ġs cen
Ġforte pia
Ġz wana
Ġbo czne
Ġmo d
Ġwymie sza
Ġpo gÅĤÄĻ
Ġwi gi
? .
ĠGe ne
Ġobiek tach
ĠTe Å¼
Ġinwesty cyjne
Ġstu diu
io no
ĠOku lary
W al
Ġspraw dzonych
ĠT owa
che mi
ĠmiÄĻk ka
Ġkoszta mi
ĠSta re
Ġmodli twa
mowa ÅĤa
Ġgo ry
p endium
so Å¼y
Ġdowo dy
Ġsta cja
ta len
Ġni skÄħ
Ġude rzenia
Ġ nia
Ġarty sta
Ġsytua cjÄħ
Ġprze wyÅ¼
Ġwios na
Ġrewolu cji
Ġpostanowi li
Ġsu ma
l owÄħ
Ġko ali
ĠÄĩ wier
n nymi
Ġcha o
Ġgaze ty
Ġisto tna
w czeÅĽniej
Ã §
Ġskute czna
Ġproble mach
Ġcier pli
ĠJa wo
fo nu
, .
Ġdziw nie
ĠkoÅĦcÃ³w ki
Å¼o nymi
ĠW czoraj
Ġbizne sie
Ġzni szczenia
Ġcudow ne
ĠS im
Ġpoez ji
so ur
Ġprzysz ÅĤy
ĠU staw
ĠNie go
Ġsprze dawcy
Ġza decy
Ġsp er
ĠmuzuÅĤ ma
Ġanali zie
ĠLe cha
ĠPu ÅĤa
Ġnieba na
Ġumie szczony
ĠB on
Ġponad czas
Ġpodob nego
Ġod su
d ku
Ġfinan sowa
pa ny
nia ka
ĠG rzy
nio sÅĤo
ĠP il
Ġu sa
ĠsÅĤucha wki
Ġstra ciÄĩ
Ġponow nego
sy jny
ĠÅ»o ÅĤnie
Ġmaci cy
Ġfo s
Ġgabine tu
ĠMiÄĻdzynarod owego
ĠW szech
Ġby wajÄħ
... "
Ġczy szczenie
a b
Ġkry sztaÅĤ
Ġsen ty
ĠodÅ¼y wia
Ġpi sto
ĠZie lonej
NastÄĻp nie
ĠZ wykle
ĠAni ma
ÅĤat wiej
Ġprzyj mowania
Ġka mi
ĠH il
Ġho lender
O gÅĤoszenie
ĠT H
fo ra
Ġpubli cznym
f ru
niesi one
Ġlicz bÄħ
fi nicja
ste in
Ġwie cznie
ĠÅĽwiade ctwa
Ġ ÅĤe
lo nu
ze li
Ġstandard owych
ĠM M
gra Äĩ
s ownie
tk owaÄĩ
Ġprotoko ÅĤu
Ġdokona nie
Ġpieprze m
Ġgra tu
Ġdaw ne
Ġoznacza Äĩ
ĠS woje
ĠMe chani
Ġstu dy
ĠmÃ³w ie
p hi
Ġzawod owo
Ġs ferze
ĠwÅĤo sach
Ġusta wo
ĠWojewÃ³dz ki
>< /
Ġtermi nem
ĠwzglÄĻ dnie
Ġzapro siÄĩ
ĠobowiÄħz kowe
ĠS kÄħd
Ġar ma
Ġpopra wi
ĠHi szpania
Ġpart ie
Ġin f
te x
ĠPromo cji
Ġo stre
p py
ch owe
Ã³ re
Ġobu dowa
ĠKa wa
ĠRodzi ce
Ġpu szcza
Ġfinans owÄħ
Ġpodstaw owa
ĠpielÄĻgna cja
g owi
mia ÅĤo
ĠnajwaÅ¼ niejszym
ĠPio sen
R ok
ĠStra Å¼
Ġsy mula
ĠCzÄĻsto chowa
ĠE K
Ġcho rego
ĠDZ IE
tÃ³w ki
so lu
Ġba ga
ĠZjedno czone
ĠpoÅĽwiÄĻ cona
Ġsatysfak cjonu
j pg
Ġprzeja zdu
Ġkonie czna
Ġpo gÅĤÄĻbia
Ġczeka my
Ġgru czo
ĠR S
Ġcudzo ziem
ĠKonkur sie
ĠC M
ĠZa ÅĤo
ĠrÃ³Å¼norod noÅĽÄĩ
ĠD wo
Ġepi zo
Ġprzypomina jÄħ
Ġegzy sten
Ġdo myÅĽ
ĠSpe cy
ĠKo lum
Ġochro nne
Ġal bowiem
ĠsÅĤucha czy
ĠÅĤÄħ czenia
Ġwielka noc
Ġne rek
nk owym
Ġdopa s
for d
Ġzapozna nie
Ġklimaty zacja
Ġelektroni czny
ĠsÅĤu p
Ġso czy
ĠpoczÄħ tkiem
Ġza dowala
il d
stra cji
Ġisto tnÄħ
Ġpierw szo
Ġpapie rÃ³w
Ġniedzie le
Ġdziennika r
ĠmajÄħ tek
ĠuÅ¼yte cznoÅĽci
ĠMa ma
Ġfigu ry
pi c
Ġbudow li
ĠWykona nie
Ġprzesz ÅĤoÅĽÄĩ
Ġkonfli ktu
Ġami nokwa
Ġf rak
Ġbli Åºnia
Ġpi g
Ġzak walifikowa
ĠwÅĤÃ³k na
ĠmÄĻÅ¼czy znÄĻ
Ġzaintere sowaÄĩ
Ġw krÄĻ
sz tu
Ġsateli tar
da Å¼y
ĠPo trafi
ĠM el
Ġmar kÄħ
Ġopro gra
ĠRo ck
Ġcier pienia
te lu
K rzy
le tu
Ġstadio nie
Ġklimaty zacji
Ġtak ze
ener ge
Ġdo kÄħd
Ġkier ownicy
ĠOrganiza tor
Ġtrafia jÄħ
Ġgrani cami
ĠRo zumie
Ġodzyska Äĩ
ï¼ Į
k owymi
Ġmaszy na
ĠniezbÄĻ dna
Ġbudowla nego
ja n
S port
Ġintere sy
nie bie
ta nt
ĠKon gre
Ġlub ia
cz ci
ĠRa ch
dzia ne
l ly
Ġbudowni ctwie
I de
Ġemery tury
ĠFan ta
ĠzdjÄĻ ci
ĠKolej ny
Ġru ndy
du ÅĤ
Ġnie dro
liza cjÄħ
ÅĤ owni
Ġban kowych
gra mu
ĠsÅĤo dki
o acute
ĠA mer
Ġzebra ne
ĠpoÅ¼y czkÄĻ
C S
ĠOpie ku
Ġna miÄĻ
Ġpod pisy
Ġrezy gnacji
ia lu
Ñ ĸ
ĠK en
Ġprzy biera
Ġak torÃ³w
Ġszkla ne
Ġtrwa ÅĤych
ĠprÃ³b owaÄĩ
OW I
Ġgra nia
ĠBa ÅĤ
ĠChi ny
Ġtermi nÃ³w
rÃ³bu j
Ġa bor
Gru pa
z ÅĤo
ĠWa tyka
Ġsce nÄĻ
ĠpoÅĽ pie
Pa ra
Ġna dania
ĠOpie ki
Ġdosta ÅĤem
Ġe tui
Ġta ta
Ġwy ek
li kÃ³w
Ġswo ja
Ġwyda ny
U czest
Ġbak terie
Ġtrze ma
Ġkompe tent
ĠÅĽwiet licy
ĠprzesÅĤa Äĩ
Ġpodsu m
Ġprzekaza ne
Ġprze ro
ĠPro ces
Ġuwar unkowania
dziaÅĤa nia
Ġpo kÅĤadzie
B ra
ĠrozpoczÄĻ ÅĤy
Ġal legro
Ġcmenta rzu
Â ·
ĠRolni ctwa
ĠnajbliÅ¼ sze
W nio
Ġmodu ÅĤu
lek cjon
Ġreak cje
dzie cie
ĠAu dio
ĠksiÄĻ dza
ĠOs Ã³b
Ġwycie czka
ĠZa danie
ow cem
Ġroz budowy
Ġnor we
ĠpiÄĻ tna
ĠdziaÅĤa jÄħcy
Ġdodatk owym
ĠÅĽwiad kÃ³w
Ġtwar de
Ġzasa dÄĻ
ĠNa talia
Ġkonfli kt
Ġkier ownika
ĠgÅĤu pi
ĠLe szek
Ġzre du
ĠM ÅĤy
Å¼ ur
Ġko niu
Ġosie dlu
Ġdynami cznie
raca jÄħc
Ġzaj mowaÄĩ
pol skim
ĠSztu k
Ġopi sem
te a
Ġdokony wania
Ġwy de
sÅĤ owi
si ÅĦski
Ġuczestni czy
Ġtwo rzone
Ġdo peÅĤ
Ġa ktÃ³w
Ġbro niÄĩ
ĠD ow
te rek
ĠtÅĤuszcz owej
Ġwap nia
ĠZda niem
ĠMazowie cki
Ġzale cenia
Ġpoko j
Ġbezpie cznego
Ġciem ne
Ġwie jskich
Ġnaj pÃ³Åºniej
Ġpozba wienia
siÄħ c
ĠMo rza
Ġrej on
i nie
Ġsy no
kÅĤad ka
lu j
sia ch
ĠrzÄħ dÃ³w
Ġzielo nej
dowa ÅĤa
Ġg woli
Ġoficja lnej
Ġsa nda
ja cych
ĠUl tra
Ġpoda waÄĩ
Ġdostar czenia
v ing
Ġek scy
ĠZSR R
E x
ĠSpoÅĤe cznych
Ġpodob na
Ġdu sz
Ġdie cezji
Ġpose sji
Ġkar ierze
Ġnowo twor
Ġstara Äĩ
z im
c re
Ġlu ster
sz ce
lni kÃ³w
Ġciem ny
ĠwspÃ³ÅĤczes nym
Ġwpi sie
ĠB ÅĤa
Ġprzyj mowaÄĩ
ĠInte gra
czy ni
Ġpar kie
IN Y
Ġna rÃ³d
Ġrodzi nnej
Ġsma kiem
mu jÄħcy
Ġgabine cie
Ġprzesta je
Ġprowa dzonego
Ġhamu lc
ĠKo szty
Za pew
Ġnaj chÄĻtniej
Ġniesamowi ty
Ġzastosowa no
wio nÄħ
nie ÅĽli
cza sy
Ġzai stnia
Ġwybor czych
Ġfinans owy
ĠT K
wa gÄħ
Ġrozmai te
Ġob ce
h or
Ġkosz mar
Ġpach nie
Ġza pie
' ,
ci nie
Ko mi
cie nce
ĠWo da
+ +
Ġspraw ne
Ġuchwa ÅĤÄĻ
rzy sz
Za wsze
Ġre alne
ĠÅ¼ al
Ġod li
ĠZnaj dziesz
tni czej
Ġrolni ctwa
Ġzatru dnionych
tar g
Ġw cho
Ġod biega
Ġkonstruk cje
Ġperso nelu
Ġwier sze
! "
Ġwa go
Z naj
Ġw nosi
Ġba teria
ĠkrÃ³ tka
Ġbur mistrza
Ġosza c
ĠwÅĤo ski
ĠC EN
ĠWyko rzysta
ren cji
stÄĻpu jÄħ
ni zacji
ĠLi fe
pu r
ĠNowa k
Ð° Ð»
Ġpocz tÄħ
ĠÅĽla dÃ³w
ĠzakÅĤada ch
ti nu
Ġsty ropia
Ġwygra ÅĤa
Ġprzeprowa dzania
ĠÅ¼ ÅĤo
ĠMie czy
j on
Ġprze ciÄħ
Ġmili tar
Ġpozio my
il y
ĠPrzedsiÄĻbior stwo
Ġta tua
ĠprÃ³bu jÄħ
Ġczyn noÅĽÄĩ
.... ..
å ®
ĠJo se
sze wskiego
ĠmÅĤodo ÅĽci
ĠnieszczÄĻ ÅĽli
Ġkul tu
Ġsili kon
Ġpane li
c lu
Pe ÅĤ
Ġpla y
Ġwy siÅĤek
Ġkar mienia
ci ska
ba ll
ĠPrze pisy
zu j
za li
Ġde bi
Ġpapie Å¼
ĠPoÅ¼ar nej
Ġpie k
Ġs on
ĠÅĽnia dania
ĠPo kÃ³j
ĠPraw dopodobnie
Ġse le
owia k
ĠBÄĻ dziemy
Ġmio du
Ġautor ki
ĠNa s
ch or
Ġod ra
Ġcech Äħ
Ġspe kt
Ġ10 5
Ġloka ty
Ġpubli cznoÅĽÄĩ
Ġzmniej szenia
Ġgi tar
ez na
Ġpodob nej
Ġme try
Ġboga tej
Ġwprowa dzone
ka cyjne
Ġzaofer owania
Ġznie czu
Ġpowsta ÅĤe
ĠskÃ³ rÄħ
Ġw rÃ³Å¼
Ġszczy tu
Ġnapi sem
Ġprzewo zu
Ġznajdu jÄħcy
ple t
Ġnowoczes na
ĠPo przez
au to
sowa ÅĤy
Ġwy siÅĤ
Ġpro sz
Pra c
si ÅĤki
n owym
Ġo m
Ġmniej szoÅĽci
Ġga ÅĤÄħ
Ġs onda
Ġprzeciw poÅ¼ar
Ġsil niki
Ġnarod owego
Ġprzy chody
ĠPRZ ED
Ġjak bym
ĠbiÅ¼u teria
Ġza miaru
ĠB EZ
Ġsku p
ĠN owi
ho no
Ñ Ī
Ġwar t
Ġkopa lni
Ġaby ÅĽ
Ġlicz b
Ġtelefo nie
Ġczu jemy
Ġwalu ty
la j
ĠEdu kacja
ĠW el
ĠPor Ã³w
ĠU R
Ġser io
Ġpromo cyjnych
i st
Ġchwi lach
ĠP SP
ĠNa g
ĠFi zy
Ġdzie jÃ³w
ĠLi nu
ĠPo ziom
Ġw cie
Ġprowadzi my
ĠDa nu
Ġ owego
Ġod nieÅĽÄĩ
Ġtro pi
Ġple cÃ³w
Da ne
ĠrÃ³Å¼ni cÄĻ
ĠE D
ĠkrÃ³ tkÄħ
Ġod noÅĽ
WÅĤa ÅĽci
Ġela styczne
ĠO bli
Ġsz oku
ÅĽmie ch
Ġtajem nic
Ġpowsta Äĩ
ĠK ing
Ġdaw kÄĻ
ĠSz czÄĻ
ĠWe st
own load
ĠO dzieÅ¼
Ġgra m
Ġspor tÃ³w
ĠOdpowie dÅº
ĠChÄĻ tnie
Ġpapie rze
Ġwie ki
Ġwe dle
Ġe u
Ġwolno sto
ĠKo pa
ÅĤ owski
Ġwybiera jÄħc
m tÄħd
Ġzgod noÅĽÄĩ
ri t
http s
Ġlotni sku
Ġza sie
Ġd na
Ġpowinna m
Ġmiesza nki
Ġkorzy stnie
Ġtable tek
ĠB L
ĠBie g
Ġp Äħ
Ġzabrak nÄħÄĩ
ĠOb ja
da jÄħ
na sto
ni sta
Ġrze kÅĤ
ĠwypeÅĤ nienia
o nem
Ġwyda rzeniu
Ġzapewnia my
ĠO ffice
ĠPrzy pomina
towa ÅĤem
ne rzy
Ġuspo kaja
Å¼Äħ ce
ĠMe tal
Ġergo nomi
ĠrzÄħ dzÄħ
Ġuda ny
ĠLi sto
mia sto
ĠZa raz
Ġ19 20
ĠR en
Ġm ni
li smy
spo rtu
ĠpÃ³ÅĤ fina
da ta
Ġper f
ĠSÅĤ owo
Ġobliga cji
ĠÅĽwie tli
ĠS U
ĠnajwyÅ¼ szych
ga tu
ĠRu ch
Ġkole dzy
teli gen
Ġnadz Ã³r
Ġprofesjona lna
fi t
ĠspÃ³ÅĤ dziel
le je
Ġs m
Ġtru dnej
Ġu waÅ¼nie
Ġli cy
Ġpowie k
ĠwartoÅĽci owe
ĠA bra
s nej
Ġintensyw ne
ĠTy tuÅĤ
RZ Y
Ġaktyw Ã³w
Ġprzesta Äĩ
âĢ¦âĢ¦ âĢ¦âĢ¦
Ġotrzy mujemy
Å ¹
Ġzwolen nikÃ³w
ĠwÄħ tku
Ġdowo lnie
ĠpaÅºdzier nik
ĠspÃ³ÅĤ kÄĻ
stan owienia
MiÄĻ dzy
Ġpie ro
Ġzapropo nowaÄĩ
Ġmo Ä¹Åºe
rzy ÅĽci
ĠPK B
Ġu jem
dzie go
Ġska nda
Ð¾Ð ¼
Ġmodli twÄĻ
ç ļ
Ġdwo je
ĠS che
ĠNaj now
Ġkomple cie
ĠM AR
Ġmagi stra
Ġfa wory
ĠniÅ¼ sza
Ġaspe kt
ĠspoÅ¼y cia
Ġinforma tycznych
Ġbab ci
ĠwyciÄħg nÄħÄĩ
c kÃ³w
Ġbe za
ĠV an
Ġziemnia ki
Ġzio ÅĤa
ĠPrze glÄħd
Ġzastanawia Äĩ
Ġinstala cjÄĻ
ca na
Ġmecz Ã³w
Ġza im
Ġpro sze
Ġza su
Ġzamk nÄħÄĩ
Ġarty stycznej
ĠwaÅ¼ niejsze
Ġzb rod
ia tu
te chno
ĠKoÅĽciu szki
Ġspo n
Ġla tek
ĠÅĽnia da
c ket
ma ÅĤ
Ġsp ar
Ġna ÅĤa
Ġko lan
Ġprzy ÅĽpie
Ġpoziom em
ĠM ON
F C
Ġka p
Ġchemi czne
ĠzbÄĻ dnych
ĠdruÅ¼y nie
Ġl Å¼ej
Ġuniwersa lne
ĠZ mie
ne nta
ĠLi sta
ĠkoleÅ¼an ki
ĠczÄĻ ste
ĠWy nika
ĠHo use
ty kiety
ĠPo koje
o raz
la jÄħ
lia n
ĠpociÄħ gu
Ġopieku na
ke ra
ĠWar unki
Ġprze noszenia
Ġgrzy by
ĠkoÅĦ czÄħ
Ġopera cje
gra mie
AN A
Ġtam tego
Ġdo pisa
ĠPre mium
Ġza pi
Ġnie kom
nio nymi
Ġkolek cjÄĻ
Ġstwier dzono
ĠGo spo
Ġwyda wnictwo
ĠczÅĤonk owskich
Ġmi ski
Ġ19 80
C zer
g ement
rowa nej
Ġpowierzch nie
ĠwyjÄħtk owego
ĠbrÄħz owy
Ġspo glÄħda
Ġroz lu
ste ry
ĠkaÅ¼ doraz
Ġka naliza
Ġarty ÅĽci
Ġw zywa
Ġprzeko nuje
Ġja ja
ĠC P
Ġpla nowane
shi on
Ġudowo dni
ĠrÄĻ ku
Ġpo noÄĩ
mi li
Ġa Å¼eby
Ġos cy
cie p
Ġprz Ã³d
Ġpokry te
Ġopera tor
ĠO kres
Ġfrancu ski
Ġpolity cy
Ġpole cenie
Ġdoda m
Ġdia log
Ġmaka ro
Ġkar na
Ġni os
ĠCzy ta
Ġprzy wie
Ġwymaga jÄħce
ĠpÄĻ dz
Ġkomu nik
Ġprzedstawia my
wio nym
ĠBibli i
Ġpoda nych
Ġgrafi czne
te czny
Ġzysku je
Ġim muno
Ġpojedyn czych
ĠÅ¼oÅĤÄħ dka
sty mi
zna w
Ġb zdu
Ġszkole niu
Ġsty pendium
Ġz ÅĤych
ĠEwange lii
Ġwdro Å¼enie
Ġmi Ã³d
ÅĽ niÄħ
l niÄĻ
ĠBarto sz
czeni owych
ĠÅ¼u ra
cia ny
Ġprzekona nia
mi nuje
ĠnawiÄħ zuje
ĠJu li
Ġnieograni czony
Ġprezen tacjÄĻ
Ġplatfor mie
mie j
Ġanty koncep
Ġko ra
Ġprzygotowa ÅĦ
H A
Ġprze tÅĤuma
Ġczu ÅĤ
Ġpo szÅĤo
Ġnocleg owych
' .
Ġno te
Ġtar czy
Ġgospoda rzy
Ġwzmacnia cz
ĠUchwa ÅĤy
Ġteore tycznie
d ri
Ġzau waÅ¼
ĠmiÄĻdzynarod owego
Ġwy jeÅºdzie
ĠProdu cen
cie lka
Ġekonomi i
Ġpokry cia
Ġma te
Ã «
Ġsta wu
Ġza ok
Ġpal cÃ³w
Ġuwar un
ĠW O
Ġwybiera jÄħ
wi sko
Ġak cjonar
Ġob chody
ĠPie lÄĻ
Ġprze mian
Ġwam pi
Ġgo towi
Ġsz ki
Ġzie miÄħ
Ġaspe ktÃ³w
Ġkonstruk cjÄĻ
Ġzebra nych
ĠOb sÅĤugi
nowi cz
Ġredu kcji
ĠIzra el
8 00
ran Å¼
Ġbada nych
Ġstacjonar nych
Ġroz przestrze
Ġa zjaty
Ġdo finan
Ġz ia
Ġfirma mi
u st
Ġwilgo ci
Ġmor skich
Ġmechani zmy
Ġ ÅĤowie
Ġrzeczywi stym
ĠE di
Ġna stroju
Ġlimi tu
ĠCer tyfika
ski wa
y ou
ro czny
Ġstosu nkÃ³w
ĠwÅĤÄħ cznie
ĠpoglÄħ dÃ³w
Ġtru dnym
ci my
ĠTe st
fikowa nych
ĠsÅĤone cznych
Ġka lory
ĠU nia
Ġbra ÅĤ
Ġtrady cjÄħ
ĠmyÅĽli sz
Ġzwyk ÅĤym
ĠukoÅĦ czeniu
Ġzestaw Ã³w
in s
Ġdrzwia ch
ĠÅļwiÄħ t
Ġspo za
w p
Ġregi on
Sz koÅĤa
ĠzauwaÅ¼y ÅĤem
Ser wis
ĠZa mek
su j
Ġdome ny
ĠA W
Ġzda rzyÅĤo
Ġa po
S ÅĤu
E B
Ġod prÄĻ
ĠPa y
rÄĻ cznik
Ġz ra
L ek
se na
Ġwpad ÅĤ
ak er
Ġf rom
Ġpoinformowa ÅĤa
Ġdrog owym
, -
Ġbiega nia
Ġod wagi
Za sta
Ġu f
ne i
Ġdefini cji
Ġka w
ĠN ob
Ġprzy to
Ġkatastro fy
Ġgle by
Ġskonta ktuj
au ty
ĠtoÅ¼sa moÅĽÄĩ
si ve
Ġod kÄħd
k sem
sz tyw
Ġprze miany
Ġda li
Ġab sor
Ġkom pli
Ġp lot
ĠkoÅĦc owym
wa zy
ĠO trzyma
Ġz ÅĤym
ĠsÅĤuÅ¼ bÄĻ
ru jÄħcy
Ġrobo ta
Ġza kÅĤadzie
d kie
Ġwy odrÄĻb
dziaÅĤa ch
Ġfirm owe
Ġogrom nie
ĠrÃ³Å¼ nie
________ ________
Åº dzi
ĠOb ser
ĠLa s
> >
Ġnie sÅĤy
ĠodpowiedzialnoÅĽci Äħ
Ġbudowla nej
ĠjeÅº dzi
Ġatmosfery czne
Ġprze waÅ¼a
Ad ministra
ĠU W
Ġpa liwo
Ġdia logu
ci ÅĦski
szu b
Ġautor skich
Ġklima cie
ĠU cze
Ġob cego
vie w
Ðµ Ð»
Ġprzy kro
Ġpla styczne
Ġprzeka zywane
Ġinter wen
Ġprze wÃ³d
Ġtar gi
Ġu n
Ġwalu t
CZ E
Ġ owe
Ġprzygotowa li
ĠA trak
Ġoczeki waÄĩ
Ġpostanowi liÅĽmy
Ġwprowadza nia
Ġza ciÄĻ
Ġkla sÄĻ
Ð¾Ð ´
ĠSÅĤawo mir
ĠTe o
ĠPod rÃ³Å¼
Ġsport owcÃ³w
sowa li
Ġpia sku
ĠWs piera
ĠmÅĤod szych
Ġme czach
ĠTa gi
Ġprowin cji
Ġekstra kt
si ÅĤo
ĠgÅĤÄĻbo kie
Ġwybra ÅĤ
Ġprofesjona lnej
Ġf ront
ĠðŁĺ Ģ
je j
Ġzni szczy
Ġaf ryka
ĠRe dak
ma tem
Ġpodej mie
fo lio
Ġko p
ĠS wa
sz cie
ter ing
Ġtur bo
Ġtrage dii
ĠKonferen cji
Ġzabra ÅĤ
Ġu dziaÅĤÃ³w
Ġuro kli
Ġna li
si one
ĠO powie
Ġz nosi
Ġprzyjem na
ja zdy
Ġprote stu
ĠpodkreÅĽla jÄħ
Ġwarsza wskiej
ĠA ku
Ġskom po
A Å»
Wy da
Å¼a mi
Ġte Ä¹Åº
Ġtor ba
czes nej
ĠprzedsiÄĻwziÄĻ Äĩ
Ġsyg nali
Ġwzmoc nienie
Ġograni czonÄħ
Ġwycie ra
b rzu
ĠksiÄĻ Å¼ni
Ġzagra Å¼a
Ġekonomi cznych
Ġne wslet
Ġmuzy kÃ³w
Ġczwar ty
ĠTE CH
Ġpro gu
rÄĻ t
ĠSzy mon
bak tery
Ġeko logicznych
Ġwyraz u
Ġpotrafi my
Ġfo tel
Ġwykorzystu jÄħ
owo c
ĠobowiÄħzu jÄħce
ĠPa le
ĠwystÄĻp y
ĠJanu sza
ĠÅļlÄħ sk
Ġcie ni
Ġinforma cyjnych
Ġplasti ku
Ġch Ã³
ĠbieÅ¼Äħ cych
ĠB r
Ġwyce ny
w noÅĽci
Dob rze
Ġprze bra
nie ni
cjo ner
Ġnaj czÄĻst
Ġtem p
Ġsza blo
Ġzni Å¼ki
sk ra
j ony
ĠWarsza wskiej
ĠpoÅĤÄħ czony
Ġatmosfery cznych
ĠgÅĤoÅĽ nik
Ġro da
Ġreak cja
ta p
Ġaktual ny
b on
ÅĽ ÅĦ
Ġotwar tego
Ġkwa sy
ĠW hite
Ġatrak cyjny
Ġopieku ÅĦ
syw nie
ÅĽwiad czenia
Ġwi dnie
mar k
wa jÄħce
ĠE ng
Ġelektry cznÄħ
Ġinstru menty
Ġwe b
ĠW si
or dy
Ġposiada jÄħcy
ĠKon cert
Ġtechni czna
ï ¸
Ġdekora cyjne
Ġprawdzi wie
ĠnarzÄħ dÃ³w
Ġwprowa dziÅĤ
Ġrozpozna Äĩ
ĠWÄĻ gier
ĠduÅ¼y mi
Ġznajdowa ÅĤ
f twa
Ġma ska
Ġzwal nia
Ġuzyska niu
Ġchoro bami
Ġi r
Ġfunda menta
ĠPR ZE
Ġdokona no
Ġwy strÃ³j
Ġwie prz
Ġg wi
Ġw p
ĠÅ¼a lu
Ġzagrani cy
ĠKo cha
ĠrozwiÄħ zywania
Ġtego Å¼
Ġjednoli ty
i stnie
Ð ¹
200 3
Ġnask Ã³rka
Ġumie m
Ġprzy praw
V III
Ġpobiera nia
Ġpsycho logii
Po zosta
Ġnieza dowo
E F
pod ob
pozy cja
Ġsta lowe
Ka ta
Ġbe neficje
Ġpotra kt
Ġzade biu
Ġsztu kÄħ
Ġoczeki waniom
PamiÄĻ taj
Ã³ str
Ġprzeprowa dzono
ĠspeÅĤ ni
ĠzamÃ³wie niu
ĠwyobraÅº niÄĻ
sowa ÅĤo
ĠMa tema
Ġzosta wia
bi ony
Ġposie dzeniu
Ġedy cjÄĻ
ba ta
Ġob jÄħÅĤ
Ġfil try
Ġbi lans
i k
Ð ·
ĠupamiÄĻ tnia
pra wiÄĩ
ĠksztaÅĤ ty
ck s
czeni owe
mer ce
ĠÅĽwiat ÅĤem
ĠokrÄĻ gu
Ġkwest iÄĻ
ĠFi lip
ĠPia se
ĠNor ma
kuje sz
Ġpa dÅĤ
K OL
m fo
nÄĻ trze
Ġprofesjona listÃ³w
Ġzy skÃ³w
Ġcyfr owej
ĠR TV
Ġni szczÄħ
Ġbia ÅĤko
n kom
Ġd no
Ġpisa rz
ko p
Ġv o
Ġm p
ĠniezaleÅ¼ nych
ĠWz Ã³r
Ġdowie sz
ĠG en
ĠspoÅĤe czny
ĠKa c
a Ä¹
ĠSz la
Ġz rÃ³b
dy cja
Ġod miana
Ġmar ihu
Ġwy chowy
Ġspo dni
Ġorze czenia
Opubli kowano
C om
ĠMo gÄĻ
Ġszero ka
Ġgo towaÄĩ
Ġbu t
Ġwspiera nie
Ġkorpo racji
Ġkie szenie
wi ÅĤam
Ġprze jecha
ĠcaÅĤkowi te
ĠGa brie
ĠwiÄĻ Åº
ĠnastÄĻpu jÄħcy
Ġmoty wacji
fika cje
Ġdom ki
Ġwykorzysty wania
Ġnumer Ã³w
ja ki
Ġdorob ku
nÄĻ liÅĽmy
ĠIN FORM
Ġenerge tyczne
Ġty lnej
Ġodci nkÃ³w
ĠprzykÅĤad owo
ĠPo ÅĤo
ĠStro ny
Ġsu biektyw
cze w
in dex
Ġprzewo dy
z owej
Ġse rum
ĠPrzed stawi
Ġzgo dÄħ
gi tal
dowa li
f fa
Ġwyja zdÃ³w
ĠObie kt
Ġintensyw ny
Ġsoli dnie
Ġura towaÄĩ
P ÅĤy
ĠKu pi
Ġprzesz ÅĤa
Ġsz wajcar
ĠE F
Ġdo mowy
Ġtrady cyjny
Ġso sem
ĠsÄħ dÃ³w
ĠPo ko
Ġsa n
Ġgospodar ka
Ġjab ÅĤka
S ty
Ġta nce
ĠOchro na
Ġde zyn
Ġuszko dzeÅĦ
kul tur
ĠOÅĽwia ty
Ġ ve
owa nymi
sy n
ĠchÅĤop cy
Ġpsycho log
p tem
Je den
Ġformu ÅĤa
Ġpo krÄĻ
O j
Ġelektry cznego
ĠmiÄĻ ÅĽnia
Ġw pisuje
ĠSie ci
Ġorganiza tor
ĠÅĽ ciÄĻ
ĠposÅĤu chaÄĩ
ÅĤÄĻ bo
Ġpa nÃ³w
Ġgru by
çļ Ħ
Ġsty lizacja
Ġfinans owanie
Ġrela cjach
Ġsza fie
Ġno taria
ĠZ ba
ĠNa uka
war ki
ĠdziaÅĤ kÄĻ
li wych
Ġeta py
Ġja cy
Ġsie dzenia
czy ny
dowa nego
ĠCo mpa
Ġtechno logicznych
Ġprzygotowa ÅĤa
Ġwykony waniu
ga Äĩ
Ġustaw ÄĻ
ĠplacÃ³w kach
ĠAga ta
ĠgorÄħ ce
bi scy
Ġa trybu
Pa nie
ĠMiÅĤo sierdzia
ĠurzÄħ dzeniem
ĠMia ÅĤem
Ġstu lecia
Ġdam ska
ĠzwiÄħza nego
Ġtelewi zja
Ġczy stym
ĠDziedzi ctwa
za cyjnych
Ġmo le
Ġrea guje
n b
Ġauto ka
ĠwspÃ³ÅĤprac owaÄĩ
mar ket
Ġrekla mÄĻ
ĠSzwajcar ii
Ġu czenia
Ġorgani zowany
t ho
Ġupad ÅĤoÅĽci
ĠP owy
Ġdoty czyÄĩ
Ġzapy tanie
wi da
Pa na
ĠbyÅĤy by
Ġzwa nej
Ġdocho dowym
Ġoprac owany
Ġczyn nik
d kÄĻ
ĠpodÅĤÄħ czenia
ĠB O
Ġuczest nika
Ġrowe ry
Ġnapo tka
Ġcertyfika ty
Ġpokona ÅĤ
mo derni
Ġpod pisu
Ġlotni cze
lta i
ÅĤ owym
ĠStary m
de ru
Ġposta wa
su al
Ġmusi cie
ĠS chu
Ġwilgo Äĩ
ĠumoÅ¼liwia jÄħcy
j or
Ġrachunk owe
ĠodÅ¼y wiania
1 000
Ġw kro
Ġwyra bia
O bie
ĠnaleÅ¼Äħ cych
Ġinteligen cji
Ġpla nety
Ġbli skiej
ĠDavi d
Ġna raÅ¼a
Ġreper tu
ĠP sy
ĠgÅĤad kie
ĠE u
Ġmetal owych
Ġprogno zy
pu la
ĠPra wie
Å¼ szych
ĠgwaÅĤ t
Ġpa mie
Ġuro ku
y al
Ġdar owi
ĠÅ¼y we
Ġpo jechaÄĩ
Ġregiona lnych
ï¸ ı
ĠOsta tnie
ĠsÅĤowa ch
ĠWyso ka
Ġsta wek
Ġprze praszam
Ġprzyj ÅĽÄĩ
ĠwÅĤÄħ cza
Ġma gii
Ġrestau racje
ĠogÃ³l ny
Ġani Å¼eli
ĠÅĽrodowisk owych
ä¸ Ń
Ġpozosta ÅĤa
ĠwpÅĤy nÄħÄĩ
ĠG ran
mu jÄħce
Ġmaksyma lnej
Ġeste tyczne
z dami
D M
Ġb Ã³j
wi ÅĤem
Ġprze pust
ĠPa s
Ġ que
! ),
Ġma se
Ġbibliote ce
Ġboga ctwo
ĠPodob no
ĠP AP
spo t
Ġwyko nujÄħ
Ġba wiÄħ
t co
ĠnajwaÅ¼ niejsza
Ġho ÅĤ
Ġf raz
ĠMÅĤo dzi
ĠPierw szym
Ġlek kim
S t
Ġin ge
Ġt his
ĠWar sztaty
Ġprzy czyna
Ġwarst wÄħ
Ġsp Ã³Åº
Ġelektry czna
b ku
Ġnapi szÄĻ
Ġpragnie my
ĠzwiÄĻk szy
ĠzajÄĻ cie
ĠOb rony
Ġprofe sora
Ġspro staÄĩ
ĠTU TAJ
Ġco ach
Ġpo szÅĤa
Ġw ku
Ġlu d
Ġwskaza nych
Ġpar ter
ĠRodzi na
ro ty
Ġcmenta rz
ĠpodÄħ Å¼a
ĠTar gÃ³w
ĠIr landii
Ġadministra tora
ĠU kÅĤad
Ġozna j
Ġpoda tnika
ĠkrÃ³t kiej
Ġ: -
bior cy
Ġodwiedza jÄħcych
Ġmeto dami
Ġprzy niÃ³sÅĤ
ĠA nt
Wie m
ĠjÄĻzy kowe
: ...
S C
Ġu k
ĠÅĽle dziÄĩ
ĠRe krea
Ġna cjona
ÅĤu jÄħc
ĠpudeÅĤ ko
ĠJa ka
pi k
Ġotrzyma niu
ca tion
Ġposiada ÅĤ
za k
ĠpÃ³ÅĤnoc no
Ġznie ksztaÅĤ
ĠspÄĻ dzaÄĩ
Ġprzy kÅĤadu
ĠMicha el
Ġpromieni owania
ĠInstytu cie
ar ka
Ġg Ä¹
Ġla kieru
Ġkomi sja
Ġdo pi
nowa niem
Ġsukien kÄĻ
Ġzamierza m
Ġwie rze
Ġjaz dÄĻ
" ).
W or
ĠniepeÅĤnospraw noÅĽci
Ġlotni czych
Ġstuden t
Ġzmar szczek
Ġpopar cie
Ġoczyszcza nia
peÅĤ nospraw
Ġwykona ÅĤ
Ġpodoba ÅĤo
Ġpozio mÃ³w
ĠczÅĤo nkami
ĠD rzwi
n tem
stan cji
Ġku m
Ġsmart fona
ĠBe ÅĤ
la ÅĤa
Ġho no
ĠB rzo
r owych
Ġspoj rzenia
Za chÄĻ
ĠJedy nie
S E
Ġorien ta
ĠPan ny
ĠR M
Ġpowstrzyma Äĩ
Ġcu dem
b owy
ĠwiedzÄħ c
go dy
Ġzasila nie
po czy
Ġniespo tyka
ĠPara fia
di das
czo ÅĽciÄħ
ĠKu chnia
Ġpo chwy
se arch
Ġopo ru
Ġmo j
ĠoÅĽrod ki
Ġilo ÅĽciach
a cji
Ġwygod na
kaza ÅĤ
Ġu kra
Ġod gÅĤo
y u
Ġde tale
Ġdziewczy nka
Ġpracownika mi
wa sz
Ġprag nienie
Ob wieszczenie
Ġd rÄħ
Ġwio ski
Ġgardero by
ĠBie szcza
Ġzd iagno
Ġpotwier dzajÄħ
Ġpozosta ÅĤy
Ġkwa ÅĽ
Ġch ru
Ġdostar czenie
Ġzd rowa
ĠobciÄħ Å¼enie
Ġodw rÃ³
Ġkompu terem
ĠNau kowe
Ġturysty cznej
Ġoficja lne
ta ne
ĠÅ¼a ÅĤo
cze Äĩ
] )
Ġotwar ciu
Ġsta lowych
ĠS io
Ġe tni
Ġlo tÃ³w
Ġisto tnym
Ġau kcji
ĠAr gen
ĠW ali
Ġakumula tora
k ÅĤy
Ġpokro iÄĩ
Mini ster
ĠI re
Ġkuch niÄĻ
ĠMa dry
ĠwÅĤaÅĽciwo ÅĽciach
z za
ĠM T
bÄĻ dÄħ
Ġstosowa niu
Ġmie jski
Ð° Ð½
Wie lu
ĠDu Å¼a
ĠElekt ro
ĠCzar no
Ġkry p
Ġ }
ti na
ĠBer nar
Ġegzempla rzy
Ġprocedu ra
Ban k
Ġkur sie
ĠS ÅĤowe
Ġadministra cyjnego
ĠÅĽla d
C ha
ss on
ĠsÅĤuÅ¼ bie
ĠZa intere
Ġniedob o
Ġzbior nik
Ġdaw ka
" ?
ĠrozwiÄħza niu
jazd owe
Ġpodzie lone
Ġprzechowy wanie
ĠN p
ĠpieniÄĻ Å¼nych
sza ne
", "
ĠI K
Ġmobi lne
Fil m
Ġser du
ĠbÄĻdÄħ cego
ĠMie jskim
Ġu stro
Ġprojek tami
Ġzorgani zowany
Ġfunkcjonar iuszy
Ġprzy prawy
Ġpo rywa
z ard
ĠpÄĻ kniÄĻ
rÃ³ sÅĤ
Ġdu szÄĻ
O k
ĠFor mula
Ġzyska Äĩ
ĠD on
Ġw stÄĻpu
szy ÅĦskiego
ãĢ ģ
Ġmie jskiego
Ġna f
gie go
ĠU n
Ġbia ÅĤek
o nym
go ra
Ġpodatk owej
ĠKolej nym
Ġatrak cyjna
Ġka towi
Ġnapra wiÄĩ
Ġhomo seksu
Ġstatu su
Ġza staw
ĠPobie rz
ĠMazowie ckiego
) ?
dÅº wi
Ġka mienie
Ġwie kiem
Ġspecja lnoÅĽci
Ġstosu jÄħc
Ġca la
ĠMusi c
Ġyo ur
Ġminu tÄĻ
ĠHistor ii
Ġkola cjÄĻ
ĠWie czo
ĠSprze dawca
cyk lo
ĠGeor ge
Ġeuropej skie
ĠUda ÅĤo
ĠKata log
ca go
Ġod blo
Ġmy szy
dowa dnia
ĠksiÄħÅ¼ kach
Ġczu ÅĤam
ĠÅĽwiÄĻ tej
ĠB P
Ġkandyda t
nia na
Ġkamie nicy
Ġka me
Ġucie c
Ġu talen
nowa no
Ġkontra st
ĠprÃ³ bie
Ġkomen da
Ġjezio ro
Ġso ÅĤe
Ġpozba wione
Ġmiejsc owych
ĠKraj obraz
ssi c
ce wa
Ġpiosen ka
ni zacja
ct s
szka mi
n owÄħ
Ġkoncent ra
Ġnau kowo
ĠprowadzÄħ cego
Ġwy niÃ³sÅĤ
Ġry s
Ġfil mach
ĠniezaleÅ¼ ne
Ġwyposa Å¼eniem
ĠRzy mie
Ġwarszta tu
Ġu fa
Ġzaby tki
Ġzapisa ne
J an
ĠS G
Ġtranspor cie
Ġza ÅĽwiadczenie
or t
Ġblog er
ĠB I
ĠIde alnie
Ġuzysku je
Ġprzechowy waÄĩ
Ġniezwyk ÅĤy
ĠhaÅĤa su
Ġlitera tura
co re
ĠPrzyja ciÃ³ÅĤ
ktÃ³ rzy
sta ÅĤ
Ġwy pra
ĠÅĽ nieÅ¼
Ġczo ÅĤa
Ġa c
Ġtore bka
ĠWÅĤo dzi
Ġkomunika cjÄĻ
Z osta
Pod obnie
ĠF R
ĠM IN
Ġograni czone
Ġobo je
Ġkomfort owo
Ġpod karpa
ĠM iaÅĤam
ĠDzie je
Ġpom Ã³gÅĤ
ĠZ bro
ĠOsob iÅĽcie
ĠA la
Ø§ Ø
Ġpoko lenie
Ġgospodar czy
ĠSzy ma
Ġpoko ny
ĠWÅĤo cÅĤa
Ġefektyw ne
j ga
ĠKomu na
mi t
Ġpozosta ÅĤoÅĽci
Ġ5 000
ĠwystÄĻpu jÄħce
Ġch wali
ĠPaÅĤa cu
Ġinnowa cji
Ġow sia
ĠosiÄħgniÄĻ Äĩ
ÄĦ D
ĠRo ÅĽli
nie dziaÅĤek
Ko lor
rzy k
ĠÄĩwier Äĩ
Ġmam Äħ
dÅº my
Ġbie giem
Ġmaksyma lnÄħ
Ġwyka zujÄħ
Ġza cznÄħ
Ġpor cji
Ġpo cza
Ġniebezpie czeÅĦstwo
st wu
ĠSa la
Ġ ie
Ġautobu sÃ³w
M Ã³w
Ġeste tycznej
Ġpa soÅ¼y
Ġorganiza tora
da nÃ³w
Ġwy stroju
ĠSta ny
Ġme d
Ġpotrzebu jÄĻ
Ġkosme tycznych
ĠÅ¼oÅĤnie rze
Ġpra sy
Ġbu rz
ĠskoÅĦ czyÅĤ
ĠWybor czej
Ġbile tu
ĠBa ÅĤty
Ġutr wala
Kon kurs
Ġwz ru
Ġprzej ÅĽciu
ĠAutor ka
Ġbla sku
Ġprze dziale
ku la
Ġprzele wu
Ġod ciÄħ
ĠnieprawidÅĤ owoÅĽci
Ġry ce
Ġmeda le
szczo nej
Ġdaw nego
Ġrosyj skiego
ĠP rÃ³b
ĠG la
ĠsÅĤu sznie
Ġkonkre tnym
Ġtur nie
ĠRodzi cÃ³w
Ġna boru
Ġboi sko
Ġofia rÄħ
ĠO ri
Ġwy pÅĤy
z iÄĻ
Ġrobi ÅĤam
ĠNa dal
Ġh ialu
ĠksiÄĻ cia
Ñ İ
p per
S tar
å½©ç¥ ¨
Ġau stria
Ġnagra ÅĦ
Ġzaj rzeÄĩ
Ġele wa
ĠdÅºwiÄĻ kÃ³w
Ġok le
ĠWi Fi
ĠStre et
Ġdia be
Ġrekor d
ĠC li
ĠGrzego rza
stu r
li by
Ġsa lÄĻ
ĠnastÄĻp nej
Ġelektr owni
ĠPo st
ĠTrybuna ÅĤu
trzyma nie
te lnoÅĽci
dy nami
ĠzmÄĻ czenie
ĠuÅ¼ywa my
Ġprawdopod obne
Ġum owÄħ
Ġatrak cjÄħ
ĠRe al
ĠPro to
zi or
Ġmalu cha
Ð ³
Ġa spi
Ġzreali zowane
ÅĽwia damia
Ġwar unek
dy da
Ġopowie dzieÄĩ
ka m
Ġbezpie czna
Ġnada Äĩ
ĠPu szczy
szu la
stÄħ pieniu
ĠgÅĤÄĻbo koÅĽci
ĠKoÅĤo brze
Ġlicz nymi
Ġzastrze Å¼eniem
ĠO bra
Ġdwudzie stu
Ġmechani zmÃ³w
ma la
Ġmi nÄĻÅĤo
Ġmia nem
ĠRa dÄĻ
Za nim
ĠwÃ³z ek
Ġnapi sze
ĠMa le
he re
ĠT rak
Ġole jem
Ġsil nym
ĠS ki
Ġwywia dzie
ĠpeÅĤni ÅĤ
T i
ĠnajpiÄĻk niejszych
Ġpodej mowaÄĩ
Ġprzy wiÄħza
in du
lar nych
ĠspÃ³ÅĤ ce
i ce
ĠÅĤ zy
ĠP G
Ġwe szÅĤa
O F
Ġz bioru
ĠPo twier
Ġw nik
Ġpu char
t wem
Ġubezpie czycie
G dzie
Ġ ver
Ġbase nie
Ġregi onÃ³w
Ġca l
n ch
Ġrze mie
De cy
M ÄĻ
ĠI B
A CH
d ÅĤy
ĠBÄĻ dÄĻ
Ġwzro stem
stru kcji
Ġstabi lnoÅĽÄĩ
dro ju
Ġrekla mowa
ĠuÅ¼ywa na
Ġuroczy ste
Ġod wzor
Ġp rzÄĻ
S W
ĠNastÄĻp ny
men towaÄĩ
Ġpa trz
ĠÅ¼yci owych
ĠsÅĤysza ÅĤem
Ġzapla nowaÄĩ
ĠC le
Ġnapisa ÅĤa
si ÃĦ
Ġanty oksy
Ġniebie skiego
Ġsie dzieÄĩ
ĠkrÄĻ gu
ch t
Ġza deklar
Ġlubi my
ĠÅĽwie ci
gu sta
Ġprofesjona lnym
gi ng
Ġsprzeci wu
ĠWo lnoÅĽci
Ġdziennika rz
lan ty
Ġna rasta
Ġczwo ro
ni czego
li sh
Ġmaka ron
ĠU rzÄħdzenia
Ġpojawia Äĩ
Ġf utbo
Ġwyda rzeniem
ĠzaÅĤo Å¼eÅĦ
ĠCh am
ĠMora wie
ra ny
Ġprzy ku
Ġpacje nci
Ġpre dyspo
ĠJak by
ĠodÅ¼y wcze
Ġm owi
Ġnie e
ĠpÃ³Åºniej szym
Ã Ĺ
bÄĻ dzie
ce ry
Ġcia st
ĠDoda tkowe
nia danie
Ġpo glÄħd
me b
ĠMiro sÅĤaw
ĠLe o
ĠKa czyÅĦskiego
Ġtra cÄħ
tulu jÄĻ
stÄĻp owanie
Ġdo mo
Ġ7 50
ĠMistrz Ã³w
Ġprze lo
Ġarchite ktura
Ġku jawsko
D osta
Ġusta wia
ĠNarod owym
Ġmechani cznych
Ġskutku je
ska Äĩ
ĠCe le
Ġs chodzi
ĠRepubli ki
ĠZa mie
Ġsp is
Ġkoresponden cji
Ġszk Ã³d
Ġintry gu
Ġorygina lnym
Ġoli wek
cha j
Ġreferen dum
r ing
Ġklasy cznym
Za rzÄħd
ow cu
Ġwoj nÄħ
Ġdrewnia ny
Ġtrady cyjnego
Å¼ sa
ĠwyÅ¼ szÄħ
Ġwro ga
ĠRozpo rzÄħdzenie
T W
Ġwskaza ÅĤ
Ġminu s
ĠRez er
Ġkra dzieÅ¼y
Ġo cy
Ġgor sza
mi j
B lu
O n
ĠWor d
Ġpo nu
Ġmiejscowo ÅĽciach
Ġzapo czÄħ
ga dy
ku s
Ġpe eling
Ġpod sze
AR D
Ġdow ci
Ġbez glu
Ġmieszka m
Ġpowo dy
ĠBa b
ĠzaÅĽ pie
Ġposzuki wanie
ĠSeba stian
Ġp su
Ġsuple menty
Ġobie gu
ĠO L
Ġtrze Åº
Ġobli cze
Ġme tki
Ġofi cer
ĠÅĽwieÅ¼y ch
Ġczar nych
ĠTea trze
rod ku
AC JE
Ġkam pania
ĠHi gh
Ġbisku pa
ĠlÄĻ k
Ġza legÅĤoÅĽci
Ġprze puszcza
Ġukry te
ĠKar pa
Ġprze pi
Ġje lit
ĠZna laz
Ġsrebr ny
Ġzarejestrowa nych
Ġutra ta
Ġwzro kiem
ĠO czy
ĠzewnÄĻtrz na
Ġgra tis
Ġduszpa ster
ĠS H
szczy zny
ĠogÃ³l nych
ĠRena ult
ĠPla c
Ġod chy
Ġzwa nego
ĠÅĽlub na
ĠÅĽredni ca
ĠRa t
Ġnegatyw nych
ĠPri x
ĠDe lika
Ġdyspo zy
Ġwojs kowej
dowa niu
Ġprzedszko le
Ġwypowie dÅº
Ġrela ks
Ġkra jem
Ġauto nomi
Ġse sje
ĠgaÅĤÄĻ zi
ĠÅģuka sza
ĠoÅĽwiet leni
Lu dzie
Ġprzedstawi cielami
ĠuÅĤat wi
Ġnad gar
Ġhurt ownia
C hi
Ġpopular nym
ne sa
Ġpa lenia
Ġza my
Ġpot rÄħ
Ġro lety
Ġjada lni
ro ka
ĠGo ÅĽcie
ĠG Äħ
ak tyw
Ġwarto ÅĽciÄħ
ĠwczeÅĽniej sze
g ard
Ġdy skry
ĠGenera lnie
Ġdra pie
pr owi
ĠsÅĤy szÄĻ
ĠMa gazy
mina cja
Ġse ra
ĠpiÄĻ tra
ĠREG ON
Ġob co
Ġokre sem
Ġkontro le
Ġpowie dzenia
Ġdo chodzÄħ
ĠmÃ³wi li
Ġutra tÄĻ
ĠMerce des
ĠZa kup
Ġko chan
ĠdÅĤuÅ¼ sze
o nej
le ny
ĠIS BN
Ġsamodzie lne
ĠÅĤo so
li cz
Ġniecier p
Ġzamie nia
ĠAu stria
ce ny
Ġujaw nia
Ġprze ga
Ġdepre sji
dzie ja
towa ni
ĠMa zow
Ġze ra
Ġuszko dzenie
Ġod dania
Ġdotychczas owe
ĠwywoÅĤa Äĩ
h l
Ġrodzi c
Ġwy rze
Ġbo daj
Ġwidzia ne
Naj bardziej
Ġpo grani
Ġotwo rzyÅĤ
Ġla sy
ĠBia ÅĤego
Ġwizy t
ĠÅļlÄħ skie
ĠQu e
Ġkulinar ne
Ġnie w
ga s
ĠÅļ rÃ³d
Ġzestawie niu
ĠNo te
Ġna rzuca
Ġwaria nt
Ġpleca k
Ġopera cyjny
Ù Ī
ĠKomite t
Ġwy kÅĤada
ĠZ wiÄĻk
f le
Ġka sz
Ġgard ÅĤa
ĠNi ke
Ġgrzy bÃ³w
Ġwymaga nych
ĠnastÄħpi ÅĤ
da na
âĢ¦ âĢĿ
ĠLa bora
ĠWi zy
ĠLubli na
Ġwyszukiwar ki
Ġprzeka z
Ġpi ra
Ġbe ta
prze j
ĠB ir
r toÅĽci
Ġma leÅĦ
ĠMa ra
tech nika
ĠSa u
Ġprzewodni czÄħcego
ĠJa bÅĤo
Ġtwar do
Å¼e my
Ġp p
ĠobowiÄħ zujÄħ
Ġziar na
Ġsamolo tÃ³w
ĠurzÄĻ dni
Ġrolni czych
Ġtru du
Ġpu deÅĤka
Ġfizy ki
Ġrodzi ca
Ġwyczer pu
Ġo kÅĤa
ĠÅ¼e glar
Ġry go
Q L
nia n
ĠMie jska
Ġkapli cy
Ġmo kre
ĠwÃ³z ka
Ġdro bi
ĠrÃ³ Å¼y
ĠzaÅĤo gi
Ġszampo n
Ġtota lnie
ĠEk sper
pro jekt
Ġcharaktery styczny
ĠrÃ³wnoleg le
ĠZa sa
ha la
ĠzauwaÅ¼y ÅĤam
ĠElekt roni
Ġwynosi ÅĤa
Ġfa na
Ġko dy
ĠM ro
Ġcy cki
Ġtrans pa
ĠV ir
mio t
Ġczasopis ma
Ġgo dne
Ġod chodzi
prze Äĩ
Ġje Åºdzie
Ġwykaza ÅĤy
ĠPro jek
Ġnaru szenie
ĠÐ¿ ÑĢ
ĠCho pina
ĠÅĤo dzi
Ġeksper t
ĠRe habili
rÃ³ z
ĠzaÅĽwiad czenia
ĠtwÃ³r ca
Ġzu py
nt ra
Ġzainsta lowaÄĩ
Ġpodpisa ÅĤ
Ġdoro ÅĽli
Ġdora dztwa
Ġprze budowy
zowa li
ĠstÄĻ Å¼enia
Ġtrend Ã³w
ry czne
h h
Ġwy spa
ĠpowaÅ¼ ny
Ġro ma
ĠPa nem
Ġwypad kach
Ġwyso ce
Ġa tra
Ġroz two
Ġba je
owo ÅĽciÄħ
Ġu dziale
sk Ã³r
towo ltai
ĠWa szych
Ġdosta ÅĤa
Ã ¢
Ġpoprze dnio
cz nÄĻ
ĠsÅĤo ÅĦcu
Ġpraw nym
Za praszam
Ġefektyw nie
ĠtÅĤu m
Ġspecy fikacji
sa w
Ġzda rzyÄĩ
ten cja
ĠWÅĤaÅĽci wie
ĠWi tam
sia dÅĤ
ĠwÄĻd rÃ³w
e ra
ĠpoÅ¼ar u
Ġ ny
ÅĤ kami
po dal
k en
Ġwprowa dzeniu
Ġwz rusza
Ġtrady cja
ĠLi ght
D P
Ġtechni kÄħ
dzo nymi
Ġrecep ty
wa lnych
sk rzy
Ġkomo ry
na t
ĠSÅĤowa cji
Ġpoza ba
Ġta pety
Ġsatysfak cjÄĻ
Ġdo boru
Ġmoc owania
ĠpoÅĽwiÄĻ ca
Ġfinans owo
Ġchrze st
ĠLu bu
Ġproste go
Ġku piÄĻ
Ġdoprowa dza
wy miar
Ġku rtki
ĠuÅĤat wiajÄħ
OW EGO
k lo
i re
Kolej na
ĠSpÃ³ÅĤ dziel
Ġchwil Ã³wki
ĠrÃ³w ne
Ġosob owoÅĽÄĩ
mu zy
ta ki
sh ing
ÅĽci li
ĠVol kswa
Ġdokony waÄĩ
Ġod ÅĤÄħ
ĠwewnÄĻtrz na
ĠG rodzi
Ġp sem
ĠWie my
Ġpo mniej
ĠciÄħg ÅĤe
2 50
Ġpi cie
Ġspotyka my
Ġ:) )
Ġpo chwa
Ġsie dli
Ġuprze dnio
Ġnapisa na
Ġpogo dziÄĩ
Ġpodob nÄħ
Ġblu e
ĠFesti val
m ny
Ġwieczo ry
ka la
Ġnaj isto
ob u
Ġmedy czny
sze wska
Ġ? ?
Ġciaste czka
ĠD en
ĠBel gii
Ġzbiera nia
ĠMÅĤo dych
Ġcien kie
Ġwi dzieli
ĠP M
Ġro l
ĠWer sja
ĠS ho
ĠUS G
ĠBryta nia
Ġnajstar szych
ĠÅĤa dna
t ty
Ġto rze
Ġprze daw
Ġprzysta nku
Ġszaf ki
Ġko no
Ġsuge ruje
Ġprzekona niu
ĠgoÅĽci om
Ġtapi cer
Ġbra mÄĻ
Ġemi gra
ĠzachÄĻ ciÄĩ
rza ÅĤam
Ġwiel kimi
fo togra
ĠÅĽredni m
ĠMa zu
zio no
p lek
Ġrowe ru
Ġroczni ca
Ġo sp
Ġ Ï
Ġrzemie ÅĽ
po ny
ĠTe ren
ĠAdministra tora
ĠprawidÅĤ owej
mi ku
ĠT war
ĠSer ca
Ġprze budowa
Ġzagra ÅĤ
ĠR ADY
Ġku cha
re gi
Ġkraj owym
Ġdziewczy nÄĻ
ftwa re
ĠUrzÄĻ dowy
Ġpo ÅĤa
Ġspecja lna
Ġwych owanie
Ġroz pÄĻ
Ġna pewno
m owym
kÅĤa dni
Åļ wiat
Ġmaksyma lna
Ġemery turÄĻ
sti tu
ĠAb solwen
l niach
Ġspace ry
Ġwi r
Ġu hono
Ġnaj rÃ³Å¼
ka jÄħ
h n
F unk
ĠwaÅ¼ nego
ph y
ĠA V
Ġwspania ÅĤym
Ġnajgor sze
Ġdoda jÄħc
ĠDzia ÅĤka
ĠprzeÅ¼y cia
ĠBizne su
Ġrower owych
NE S
Ġdyscypli ny
Ġp szcze
ĠpÅĤy nÃ³w
M od
Po prze
Ġpta ki
re dnie
Ġeta pÃ³w
E lekt
ĠCze go
1 10
Ġodzy sku
ĠpaÅĤa c
ste ru
Ġj ar
Ġnad mor
ĠLo u
Ġ198 1
st in
ĠZa mo
ĠBlue tooth
p ho
py cha
Ġosobi stej
Ġsta cje
Ġobiek tem
Ġukaza ÅĤa
Ġkieru nkach
Ġr ownie
Ġkompozy cje
Ġprze pu
ĠsÅĤy szy
niÄĻ to
Ġwez wanie
D ar
Ġjednorodzi nnych
Ġmar gine
Ġra mienia
Ġza daÄĩ
Ġpa re
Ġprze sÄħ
ĠpiÅĤka rze
Po szu
Ġboha terem
Ġodpowiedzia lna
Ġnowoczes nÄħ
ta in
ĠSk Ã³ra
Ġ198 2
I stnieje
Ġmo stu
Ġzapa chy
Ġrachunk owoÅĽci
ni czna
Ġreligi jnych
Ġwenty lacji
Ġniez do
Ġzapro szeni
Ġrezulta tÃ³w
Ġcy ber
Ġwiel bi
owicz Ã³w
Ġu lec
Ġpodej ÅĽÄĩ
pol skiej
ĠSp rzÄĻt
Ġuchwa lenia
Ġorze chy
ĠpodwÃ³j ne
Ġkol czyki
ĠwygÅĤa dza
ĠS he
Ġuprawia nia
Poli cja
Ġjez dni
Ġprzewi dzieÄĩ
Ġharmono gram
Ġimpre zach
ĠON Z
Ġhialu ron
ĠwewnÄĻtrz nÄħ
Ġwy rusza
ĠTar gi
ĠPrze strze
Ġzwy kÅĤa
rzy li
Ġdo by
Co raz
ĠZie mia
Ġkana ÅĤy
poko ju
Ġdosto s
ĠBu dÅ¼e
ĠK B
ĠRejon owy
ĠC lo
Ġzaka zu
ĠDosta wa
Ġin cy
Ġkomunika cyjnych
Ġniebie skie
ĠukoÅĦ czyÅĤ
Ġchirur gi
ĠprÃ³ cz
ĠodrÃ³Å¼ nieniu
Ġw kÅĤadu
ze ty
Ð¸ ÑĤ
Ġw tor
ĠLa u
niu sz
Ġkul turÄħ
r owi
Ġkosme tyczne
ĠOfer ty
ĠjeÅ¼d Å¼Äħ
Ġgrze chu
ĠWscho dniej
Ġz miÄĻk
pe dii
per ia
ĠÐ ¼
Ġzarabia Äĩ
Ġgwia zda
ĠprzyjÄĻ ciu
Ġklasz tor
Ġopi niÄħ
ro dni
ĠMana ger
Ġalterna tywa
Ġu ÅĽ
Ġtelewizy jnych
ĠwpÅĤy wy
Ġpra nie
Ġzni szczyÄĩ
i li
dze niowe
Ġi miona
Ġtrakt owane
wo m
Ġh ej
Ġgnia zdo
Ġje an
Ġdzie ki
Ġzaspo kaja
ĠniespeÅĤ na
ĠMa jÄħc
Ġopi sie
ĠÅĤatwiej sze
Ġba ro
Ġal l
mia ÅĤa
ow niÄĻ
L IN
f rowa
Ġkrajobraz u
Ġtowarzy szyÄĩ
Ġkobie cie
Ġjas noÅĽÄĩ
ĠAkade mi
Ġce sar
Ġspoko jny
Ġnajcieka wszych
Ġ00 00
i R
Ġproble ma
Ġczerwo nych
Ġdo god
Ġma mu
: ]
â ĸ
Ġfo tki
Ġbar y
Ġsta nÄħÄĩ
Ġkomputer owego
[...]
