{"<s>":0,"<pad>":1,"</s>":2,"<unk>":3,"<mask>":4,"!":5,"\"":6,"#":7,"$":8,"%":9,"&":10,"'":11,"(":12,")":13,"*":14,"+":15,",":16,"-":17,".":18,"/":19,"0":20,"1":21,"2":22,"3":23,"4":24,"5":25,"6":26,"7":27,"8":28,"9":29,":":30,";":31,"<":32,"=":33,">":34,"?":35,"@":36,"A":37,"B":38,"C":39,"D":40,"E":41,"F":42,"G":43,"H":44,"I":45,"J":46,"K":47,"L":48,"M":49,"N":50,"O":51,"P":52,"Q":53,"R":54,"S":55,"T":56,"U":57,"V":58,"W":59,"X":60,"Y":61,"Z":62,"[":63,"\\":64,"]":65,"^":66,"_":67,"`":68,"a":69,"b":70,"c":71,"d":72,"e":73,"f":74,"g":75,"h":76,"i":77,"j":78,"k":79,"l":80,"m":81,"n":82,"o":83,"p":84,"q":85,"r":86,"s":87,"t":88,"u":89,"v":90,"w":91,"x":92,"y":93,"z":94,"{":95,"|":96,"}":97,"~":98,"¡":99,"¢":100,"£":101,"¤":102,"¥":103,"¦":104,"§":105,"¨":106,"©":107,"ª":108,"«":109,"¬":110,"®":111,"¯":112,"°":113,"±":114,"²":115,"³":116,"´":117,"µ":118,"¶":119,"·":120,"¸":121,"¹":122,"º":123,"»":124,"¼":125,"½":126,"¾":127,"¿":128,"À":129,"Á":130,"Â":131,"Ã":132,"Ä":133,"Å":134,"Æ":135,"Ç":136,"È":137,"É":138,"Ê":139,"Ë":140,"Ì":141,"Í":142,"Î":143,"Ï":144,"Ð":145,"Ñ":146,"Ò":147,"Ó":148,"Ô":149,"Õ":150,"Ö":151,"×":152,"Ø":153,"Ù":154,"Ú":155,"Û":156,"Ü":157,"Ý":158,"Þ":159,"ß":160,"à":161,"á":162,"â":163,"ã":164,"ä":165,"å":166,"æ":167,"ç":168,"è":169,"é":170,"ê":171,"ë":172,"ì":173,"í":174,"î":175,"ï":176,"ð":177,"ñ":178,"ò":179,"ó":180,"ô":181,"õ":182,"ö":183,"÷":184,"ø":185,"ù":186,"ú":187,"û":188,"ü":189,"ý":190,"þ":191,"ÿ":192,"Ā":193,"ā":194,"Ă":195,"ă":196,"Ą":197,"ą":198,"Ć":199,"ć":200,"Ĉ":201,"ĉ":202,"Ċ":203,"ċ":204,"Č":205,"č":206,"Ď":207,"ď":208,"Đ":209,"đ":210,"Ē":211,"ē":212,"Ĕ":213,"ĕ":214,"Ė":215,"ė":216,"Ę":217,"ę":218,"Ě":219,"ě":220,"Ĝ":221,"ĝ":222,"Ğ":223,"ğ":224,"Ġ":225,"ġ":226,"Ģ":227,"ģ":228,"Ĥ":229,"ĥ":230,"Ħ":231,"ħ":232,"Ĩ":233,"ĩ":234,"Ī":235,"ī":236,"Ĭ":237,"ĭ":238,"Į":239,"į":240,"İ":241,"ı":242,"Ĳ":243,"ĳ":244,"Ĵ":245,"ĵ":246,"Ķ":247,"ķ":248,"ĸ":249,"Ĺ":250,"ĺ":251,"Ļ":252,"ļ":253,"Ľ":254,"ľ":255,"Ŀ":256,"ŀ":257,"Ł":258,"ł":259,"Ń":260,"ie":261,"Ġp":262,"Ġw":263,"ÅĤ":264,"Ġs":265,"na":266,"Ġz":267,"ow":268,"cz":269,"ÄĻ":270,"ni":271,"Äħ":272,"nie":273,"ch":274,"rz":275,"st":276,"Ġd":277,"ra":278,"Å¼":279,"Ã³":280,"Ġo":281,"Ġt":282,"Ġm":283,"Ġk":284,"ÅĽ":285,"ro":286,"sz":287,"Ġi":288,"Ġna":289,"ne":290,"Ġpo":291,"je":292,"dz":293,"ny":294,"ia":295,"le":296,"go":297,"li":298,"rze":299,"iÄĻ":300,"Äĩ":301,"Ġb":302,"ka":303,"Ġza":304,"Ġdo":305,"re":306,"owa":307,"Ã³w":308,"nia":309,"ÅĤa":310,"ar":311,"ki":312,"ci":313,"la":314,"ko":315,"ta":316,"ja":317,"wa":318,"Ġje":319,"Ġwy":320,"Ġu":321,"Ġnie":322,"Ġa":323,"ce":324,"rzy":325,"da":326,"ty":327,"ĠP":328,"te":329,"ĠsiÄĻ":330,"no":331,"Å¼e":332,"mi":333,"jÄħ":334,"ry":335,"Ġprze":336,"cze":337,"cy":338,"ÅĤo":339,"ku":340,"czy":341,"po":342,"Ġko":343,"kie":344,"sta":345,"âĢ":346,"to":347,"cie":348,"ĠW":349,"wo":350,"ma":351,"Ġte":352,"ÅĽci":353,"my":354,"nych":355,"dy":356,"Ġg":357,"ĠS":358,"tu":359,"Ġod":360,"Ġmo":361,"Ġro":362,"ÅĦ":363,"owe":364,"Ġto":365,"ru":366,"owy":367,"wi":368,"dzie":369,"cj":370,"lu":371,"lo":372,"Ġja":373,"Ġjest":374,"en":375,"ĠM":376,"er":377,"Ġma":378,"szy":379,"wie":380,"ca":381,"tÃ³":382,"ÅĤy":383,"..":384,"em":385,"Ġprzy":386,"ĠK":387,"Å¼y":388,"Ġf":389,"Ġta":390,"za":391,"ĠktÃ³":392,"Ġty":393,"or":394,"sze":395,"Ġ1":396,"raz":397,"ĠN":398,"ĠâĢ":399,"by":400,"cza":401,"Ġpro":402,"dzi":403,"ga":404,"ĠÅ¼e":405,"Ġ(":406,"zy":407,"cji":408,"ĠT":409,"Ġ2":410,"pa":411,"ĠC":412,"ĠD":413,"Ġin":414,"Ġdz":415,"du":416,"mo":417,"Ġby":418,"co":419,"ĠB":420,"mie":421,"Ġpod":422,"ob":423,"ÅĤu":424,"ÅĽÄĩ":425,"ĠA":426,"ĠZ":427,"nej":428,"nego":429,"nÄħ":430,"ĠPo":431,"wia":432,"Ġ-":433,"Ġsp":434,"ĠO":435,"owie":436,"ĠÅĽ":437,"Ġch":438,"Ġe":439,"ĠJ":440,"mu":441,"pi":442,"rÃ³":443,"Ġob":444,"si":445,"sa":446,"de":447,"Ġpra":448,"owi":449,"ĠR":450,"Ġsz":451,"nym":452,"gi":453,"wy":454,"cja":455,"cia":456,"ski":457,"Ġre":458,"Ġroz":459,"Ġwie":460,"bi":461,"pie":462,"Ġpa":463,"owo":464,"skie":465,"Ġdla":466,"Ġka":467,"su":468,"Ġmie":469,"Ġjak":470,"ĠG":471,"Ġczy":472,"Ġco":473,"niu":474,"ĠâĢĵ":475,"kÃ³w":476,"ĠI":477,"Ġlu":478,"ez":479,"sy":480,"do":481,"we":482,"pe":483,"Ġsta":484,"sza":485,"Ġst":486,"Ġni":487,"Ġspo":488,"Ġoraz":489,"00":490,"ba":491,"Ġr":492,"owych":493,"bie":494,"Åº":495,"niej":496,"Ġtak":497,"Ġmi":498,"nu":499,"Ġprzez":500,"jÄĻ":501,"ska":502,"Ġjed":503,"Ġze":504,"Ġnaj":505,"Ġsa":506,"ju":507,"sty":508,"pra":509,"noÅĽci":510,"dze":511,"ter":512,"cho":513,"Ġcz":514,"kt":515,"il":516,"Ġkon":517,"ÅĤe":518,"Ġgo":519,"Ġh":520,"sto":521,"ĠL":522,"kÅĤa":523,"01":524,"ĠsÄħ":525,"pu":526,"dzo":527,"Ġda":528,"ĠNa":529,"ĠktÃ³re":530,"Ġzna":531,"Ġdzie":532,"in":533,"dni":534,"rowa":535,"on":536,"sie":537,"Ġn":538,"gra":539,"...":540,"mia":541,"ĠU":542,"men":543,"fi":544,"Ġtym":545,"al":546,"ĠktÃ³ry":547,"âĢĿ":548,"Ġale":549,"Ġwi":550,"Ġli":551,"bo":552,"Ġle":553,"osta":554,"ĠbÄĻ":555,"un":556,"owej":557,"jÄħcy":558,"Ã³ÅĤ":559,"tycz":560,"szyst":561,"Ġbar":562,"cyj":563,"stÄĻ":564,"an":565,"dzia":566,"gu":567,"ier":568,"so":569,"tÃ³w":570,"ĠF":571,"me":572,"ĠE":573,"Ġce":574,"zna":575,"Ġra":576,"Ġ3":577,"ĠZa":578,"rzÄħ":579,"towa":580,"ĠâĢŀ":581,"Ġla":582,"Ġlub":583,"lko":584,"Ġprzed":585,"Å¼a":586,"zu":587,"czo":588,"ÅĤÄħ":589,"spo":590,"ĠmoÅ¼e":591,"kre":592,"ĠwiÄĻ":593,"ĠJe":594,"io":595,"rza":596,"dza":597,"Ġcza":598,"tk":599,"niem":600,"ĠmoÅ¼":601,"Ġbez":602,"Ġfi":603,"ÂŃ":604,"Ġwszyst":605,"Ġbo":606,"Ġwo":607,"bu":608,"owego":609,"ÅĤem":610,"jÄħc":611,"ek":612,"Ġswo":613,"sp":614,"ĠÅ":615,"Ġmu":616,"nika":617,"Ġtego":618,"cje":619,"js":620,"ÅĽcie":621,"jÄħce":622,"cu":623,"ĠNie":624,"Ġpoz":625,"owania":626,"Ġju":627,"iaÅĤa":628,"Ġpe":629,"szcze":630,"Ġspra":631,"Ġku":632,"nÄĻ":633,"kÄħ":634,"cha":635,"Ġ201":636,"owaÄĩ":637,"Ġsy":638,"ran":639,"Ġme":640,"kona":641,"ÅĽli":642,"ĠwÅĤa":643,"stÄĻp":644,"ĠMa":645,"Ġzosta":646,"Ġos":647,"for":648,"wiÄħ":649,"rod":650,"Ġde":651,"ĠH":652,"ak":653,"ĠÅ¼y":654,"owanie":655,"Ġtylko":656,"rÃ³w":657,"czne":658,"nio":659,"Ġsie":660,"Ġca":661,"ĠbÄĻdzie":662,"rÄĻ":663,"Ġbu":664,"kiem":665,"ste":666,"tem":667,"bli":668,"kÄĻ":669,"lÄħ":670,"Ġbardzo":671,"wÃ³":672,"Ġ\"":673,"ĠKo":674,"rak":675,"ĠWy":676,"ĠjuÅ¼":677,"fe":678,"Ġwar":679,"noÅĽÄĩ":680,"czÄħ":681,"nik":682,"Ġwz":683,"ĠPa":684,"Ġsto":685,"ona":686,"Ġwe":687,"Ġmiejs":688,"Ġroku":689,"Ġba":690,"Ġog":691,"kich":692,"ĠrÃ³w":693,"skiego":694,").":695,"ÅĤam":696,"ze":697,"wiÄĻ":698,"sia":699,"Ġjako":700,"Ġwa":701,"Ġsk":702,"dnie":703,"Ã³b":704,"sÅĤu":705,"Ã³l":706,"lej":707,"Ġdob":708,"Ġ4":709,"siÄħ":710,"cznie":711,"lÄĻ":712,"Ġdu":713,"powie":714,"rÃ³Å¼":715,"tor":716,"ÅĽmy":717,"Ġ5":718,"Ġpi":719,"),":720,"ĠDo":721,"ÅĤÃ³w":722,"ktu":723,"cjÄĻ":724,"owym":725,"ciÄħ":726,"Ġstro":727,"ÅĦst":728,"nt":729,"Ġpot":730,"dÄħ":731,"Ġcie":732,"Ġsob":733,"dzy":734,"nak":735,"Ġtu":736,"nd":737,"Ġprodu":738,"Ġpier":739,"szych":740,"Ġmia":741,"Å¼o":742,"pad":743,"ĠdziaÅĤa":744,"Ġno":745,"ĠPol":746,"skiej":747,"Ġich":748,"czenia":749,"Ġcze":750,"Ġraz":751,"ĠkaÅ¼":752,"nieÅ¼":753,"ĠtakÅ¼e":754,"ĠteÅ¼":755,"ĠbyÄĩ":756,"kim":757,"war":758,"se":759,"Ġcho":760,"ĠczÄĻ":761,"Ġmog":762,"cznych":763,"Ġsu":764,"ĠmoÅ¼na":765,"kty":766,"niÄĻ":767,"nymi":768,"czÄĻ":769,"Ġpow":770,"ii":771,"Ġkom":772,"ĠKa":773,"ji":774,"cÃ³w":775,"ĠrÃ³wnieÅ¼":776,"prze":777,"tka":778,"siÄĻ":779,"owÄħ":780,"ĠMo":781,"ĠÅĽwia":782,"Ġjego":783,"im":784,"ÅĽnie":785,"cej":786,"tego":787,"Ġlo":788,"Ġop":789,"ĠTo":790,"rÄħ":791,"py":792,"trzy":793,"Ġsamo":794,"ĠJa":795,"praw":796,"iu":797,"Ġpla":798,"szÄħ":799,"dzenia":800,"ĠCh":801,"Ġwsp":802,"Ġkie":803,"Ġpowie":804,"szka":805,"kowa":806,"lne":807,"kÅĤad":808,"gie":809,"rzÄĻ":810,"art":811,"bra":812,"ĠuÅ¼y":813,"forma":814,"jemy":815,"Ġzd":816,"czas":817,"Ã³r":818,"jÄħcych":819,"Ġpre":820,"Ġ19":821,"gani":822,"Ġry":823,"Ġpierw":824,"Ġjednak":825,"szej":826,"sko":827,"ĠRo":828,"Ġdy":829,"Ġfir":830,"czny":831,"mÃ³w":832,"ble":833,"Ġ,":834,"Ġor":835,"Ġwyda":836,"Ġau":837,"Ġsobie":838,"Ġrze":839,"dziej":840,"Ġ6":841,"Po":842,"sowa":843,"dowa":844,"ali":845,"liwo":846,"ĠÅĤa":847,"Ġser":848,"szym":849,"sk":850,"Ġc":851,"ĠDz":852,"Ġmnie":853,"ct":854,"Ġjej":855,"Ġznaj":856,"rem":857,"Ġdru":858,"stu":859,"ĠMi":860,"cÄħ":861,"Ġgdy":862,"Ġof":863,"dÄĻ":864,"czenie":865,"ĠbyÅĤo":866,"Ġele":867,"Ġtra":868,"skich":869,"tnie":870,"kiego":871,"Ġdoda":872,"wet":873,"Ġkil":874,"nku":875,"staw":876,"Ġodpowie":877,"Ġten":878,"owni":879,"ĠIn":880,"Ġgra":881,"ĠÅļ":882,"cznej":883,"wiÄħza":884,"lar":885,"dzÄħ":886,"Ġszko":887,"Ġpie":888,"tni":889,"liÅĽmy":890,"Ġwyko":891,"Ġtej":892,"Ġnad":893,"Ġgru":894,"ĠPrze":895,"ĠrÃ³Å¼":896,"nowi":897,"tek":898,"nek":899,"sku":900,"rt":901,"Ġspe":902,"ej":903,"Ġswoje":904,"Ġaby":905,"ge":906,"kiej":907,"Ġpraw":908,"rzysta":909,"prowa":910,"Ġ:":911,"miÄĻ":912,"Ġpu":913,"stem":914,"Ġlat":915,"sÅĤa":916,"âĢ¦":917,"Ä¹":918,"Ġosob":919,"Ġjeszcze":920,"Ġpew":921,"Ġfa":922,"ĠSz":923,"ien":924,"czu":925,"dÃ³w":926,"sÃ³w":927,"Ġokre":928,"den":929,"....":930,"pro":931,"ĠPro":932,"Ġspos":933,"Ġdro":934,"Ġar":935,"ec":936,"tro":937,"ĠktÃ³ra":938,"tra":939,"czyÄĩ":940,"Ġspraw":941,"Ġim":942,"waÄĩ":943,"Ġnas":944,"wania":945,"tki":946,"Ġpowi":947,"kach":948,"iÄĻk":949,"owia":950,"maga":951,"Ġmy":952,"nowa":953,"lep":954,"ciu":955,"Na":956,"Ġdnia":957,"rek":958,"ĠBo":959,"glÄħ":960,"Ġnawet":961,"Ġpol":962,"Ġ7":963,"rzu":964,"Ġpracy":965,"Ġszcze":966,"ner":967,"Ġprac":968,"Ġpomo":969,"unk":970,"Ġinforma":971,"ĠRa":972,"Ġczas":973,"iÄĻki":974,"Ġfor":975,"logi":976,"rÃ³d":977,"lnie":978,"ĠV":979,"leÅ¼y":980,"Ġrodzi":981,"tach":982,"Ġszy":983,"ĠÅĽwie":984,"Å¼Äħ":985,"pre":986,"lnych":987,"Ġproje":988,"lny":989,"szu":990,"Ġga":991,"ĠWar":992,"ĠbyÅĤ":993,"Ġ200":994,"Ġ8":995,"Ġtrze":996,"ĠRe":997,"siada":998,"tyw":999,"szta":1000,"uro":1001,"jem":1002,"szego":1003,"Ġusta":1004,"Ġinter":1005,"Ġbi":1006,"stra":1007,"Ġwykona":1008,"Ġdzi":1009,"ĠdÅĤu":1010,"zowa":1011,"pl":1012,"peÅĤ":1013,"log":1014,"Ġkra":1015,"net":1016,"Ġkolej":1017,"Ġ[":1018,"pisa":1019,"Ġjedno":1020,"Ġorgani":1021,"two":1022,"el":1023,"trzyma":1024,"dziaÅĤ":1025,"Ġmar":1026,"ĠmiÄĻ":1027,"ng":1028,"szo":1029,"Ġprzypad":1030,"Ġwyso":1031,"zacji":1032,"dÅº":1033,"Ġzro":1034,"ÅĽwia":1035,"201":1036,"ÃĦ":1037,"zen":1038,"am":1039,"Ġal":1040,"gÃ³l":1041,"skim":1042,"ĠwiÄĻc":1043,"chni":1044,"waÅ¼":1045,"gro":1046,"Ġprowa":1047,"Ġhi":1048,"Ġ10":1049,"Ġsko":1050,"ns":1051,"ĠniÅ¼":1052,"Ġpoda":1053,"cznego":1054,"dzenie":1055,"Ġnau":1056,"kÅĤada":1057,"nk":1058,"Ġpotrze":1059,"szcza":1060,"dar":1061,"Ġmieszka":1062,"ri":1063,"ti":1064,"Ġoka":1065,"wu":1066,"dziÄĩ":1067,"ĠÅĽrod":1068,"ĠTe":1069,"ĠosÃ³b":1070,"bez":1071,"Ġofer":1072,"ĠwiÄĻcej":1073,"Ġkla":1074,"tÄĻ":1075,"Ġwarto":1076,"Ġon":1077,"czywi":1078,"tych":1079,"Ġtych":1080,"ÅĤÄĻ":1081,"ĠbÄĻdÄħ":1082,"Ġproble":1083,"Ġdzieci":1084,"zd":1085,"Ġgdzie":1086,"Ġ9":1087,"pÅĤy":1088,"Ġpowo":1089,"Ġsza":1090,"ha":1091,"taj":1092,"strze":1093,"trz":1094,"ren":1095,"oba":1096,"dow":1097,"Ġuwa":1098,"Ġposta":1099,"czna":1100,"Ġok":1101,"wier":1102,"Ġniez":1103,"tura":1104,"lni":1105,"Ġtema":1106,"ary":1107,"ĠsposÃ³b":1108,"kar":1109,"ur":1110,"czni":1111,"Ġru":1112,"Ġfo":1113,"ĠWie":1114,"tÄħ":1115,"lek":1116,"lnego":1117,"ÅĤoÅĽci":1118,"ĠktÃ³rych":1119,"Ġ.":1120,"mina":1121,"teria":1122,"Ġosta":1123,"pew":1124,"Ġse":1125,"lnoÅĽci":1126,"bezpie":1127,"nki":1128,"tere":1129,"tr":1130,"ĠCo":1131,"stru":1132,"ĠzÅĤ":1133,"Ġprzygo":1134,"Za":1135,"ĠkoÅĦ":1136,"ĠwiÄĻk":1137,"czej":1138,"Ġposiada":1139,"kami":1140,"Ġsprze":1141,"Å¼ej":1142,"ĠOd":1143,"Ġkolo":1144,"cjÄħ":1145,"chu":1146,"Ġak":1147,"tru":1148,"Ġwiele":1149,"tku":1150,"ĠwÅĤas":1151,"Ġkiedy":1152,"ĠmajÄħ":1153,"sji":1154,"Ã³j":1155,"wiÄĻk":1156,"fa":1157,"Ġso":1158,"pÅĤa":1159,"ĠpeÅĤ":1160,"dem":1161,"ĠSta":1162,"wsze":1163,"ktÃ³w":1164,"bÄĻ":1165,"ĠmogÄħ":1166,"Ġpoja":1167,"Ġinnych":1168,"Ġtam":1169,"ĠPod":1170,"Ġkto":1171,"Ġ0":1172,"Ġsi":1173,"kry":1174,"ĠmÃ³w":1175,"ĠzÅĤo":1176,"ĠmoÅ¼liwo":1177,"âĢĿ.":1178,"Ġnich":1179,"ĠwspÃ³ÅĤ":1180,"ÅĦstwa":1181,"gÄĻ":1182,"Ġek":1183,"Je":1184,"star":1185,"Ġoko":1186,"bior":1187,"lnej":1188,"ĠkaÅ¼dy":1189,"Ġzach":1190,"ÅĽwiad":1191,"Ġkilka":1192,"cych":1193,"mowa":1194,"rzenia":1195,"stÄħ":1196,"mach":1197,"wanie":1198,"Ġtwo":1199,"ĠWo":1200,"nii":1201,"ĠTa":1202,"ÅĤowie":1203,"ĠLi":1204,"Ġmam":1205,"jÄĻcia":1206,"Ġkar":1207,"Ġnam":1208,"Ġbra":1209,"daw":1210,"Ġsze":1211,"nad":1212,"Ġszyb":1213,"sem":1214,"Ġstanowi":1215,"ho":1216,"lenia":1217,"stwa":1218,"Ġsku":1219,"Ġfil":1220,"nÃ³w":1221,"Ġzmia":1222,"Ġsystem":1223,"rzo":1224,"ĠsÅĤu":1225,"Ġcy":1226,"now":1227,"god":1228,"Ġspecja":1229,"ĠnaleÅ¼y":1230,"tar":1231,"Ġzmie":1232,"ich":1233,"ĠbyÅĤa":1234,"Ġprogra":1235,"Ġbie":1236,"ĠusÅĤu":1237,"owiÄħ":1238,"Ġpodczas":1239,"Ġtakie":1240,"tp":1241,"ĠktÃ³rym":1242,"niÄħ":1243,"lien":1244,"mio":1245,"lem":1246,"Ġpoli":1247,"dania":1248,"Ġmiejsce":1249,"ÅĽcia":1250,"tami":1251,"ĠktÃ³rzy":1252,"miast":1253,"ĠLe":1254,"ten":1255,"bar":1256,"ĠmÃ³wi":1257,"biera":1258,"di":1259,"Ġzw":1260,"Ġspotka":1261,"Ġfunk":1262,"ÅĤych":1263,"czes":1264,"tora":1265,"ĠX":1266,"Ġwszystko":1267,"Ġzawo":1268,"kro":1269,"IE":1270,"ĠPrzy":1271,"Ġprzypadku":1272,"Ġproce":1273,"wÃ³j":1274,"Ġjakie":1275,"duje":1276,"Ġreali":1277,"mniej":1278,"Ġbardziej":1279,"Ġ12":1280,"Ġpole":1281,"ĠWa":1282,"Ġ15":1283,"zji":1284,"Ġwszystkich":1285,"ĠgÅĤÃ³w":1286,"niÄĩ":1287,"czki":1288,"glÄĻ":1289,"Å¼enia":1290,"Ġpowin":1291,"ĠMar":1292,"ĠÅģ":1293,"sce":1294,"nem":1295,"wiet":1296,"wyk":1297,"ĠmiÄĻdzy":1298,"zuje":1299,"Ġrozpo":1300,"pera":1301,"Ġzrobi":1302,"ĠksiÄħ":1303,"Ġpy":1304,"ĠciÄħ":1305,"ĠCzy":1306,"chro":1307,"ĠÂ":1308,"fo":1309,"ĠmÅĤo":1310,"cyjne":1311,"dek":1312,"redni":1313,"leÅ¼":1314,"szko":1315,"he":1316,"Ġzda":1317,"ĠwÅĤaÅĽci":1318,"Ġpoprze":1319,"Ġzapew":1320,"cznym":1321,"Ġzakre":1322,"Ġkre":1323,"ĠkaÅ¼de":1324,"soby":1325,"ĠjeÅĽli":1326,"Ġdziec":1327,"grani":1328,"stor":1329,"ser":1330,"Ġ/":1331,"zie":1332,"pli":1333,"ĠcoÅĽ":1334,"leg":1335,"ÅĤym":1336,"II":1337,"Ġtele":1338,"spodar":1339,"tury":1340,"nikÃ³w":1341,"ÅĽciÄħ":1342,"szenia":1343,"Ġho":1344,"cen":1345,"ment":1346,"twa":1347,"Ġwielu":1348,"min":1349,"Ġgodzi":1350,"Ġwia":1351,"try":1352,"kaza":1353,"dia":1354,"sztaÅĤ":1355,"per":1356,"zo":1357,"chodzi":1358,"Ġczasu":1359,"cach":1360,"nach":1361,"szÄĻ":1362,"ĠWi":1363,"ĠWarsza":1364,"ciw":1365,"Ġauto":1366,"Ġpubli":1367,"stÄĻpu":1368,"ĠSa":1369,"Ġstra":1370,"ĠdziÄĻki":1371,"ĠktÃ³rej":1372,"Ġad":1373,"domo":1374,"Ġucze":1375,"ĠdostÄĻp":1376,"lna":1377,"Ġpozy":1378,"ĠTy":1379,"ÅĤego":1380,"Ġmusi":1381,"tua":1382,"Å¼enie":1383,"Ġpozosta":1384,"Nie":1385,"Ġsprzeda":1386,"sÅĤ":1387,"rzÄħd":1388,"Ġjaki":1389,"tne":1390,"ĠGo":1391,"Å¼eli":1392,"czego":1393,"ĠBa":1394,"Ġpar":1395,"trze":1396,"Ġ20":1397,"ĠÅ¼a":1398,"Ã³d":1399,"Ġtru":1400,"tera":1401,"ÅĽla":1402,"stro":1403,"cÄĻ":1404,"chy":1405,"ĠÅ¼eby":1406,"um":1407,"scy":1408,"ing":1409,"Ġzawsze":1410,"wiera":1411,"glÄħda":1412,"nÄħÄĩ":1413,"lnym":1414,"por":1415,"wane":1416,"ĠPra":1417,"Ġtro":1418,"Ġprzedsta":1419,"!!":1420,"10":1421,"Ġkobie":1422,"Ġmateria":1423,"kla":1424,"ĠEuro":1425,"be":1426,"cznÄħ":1427,"Ġtre":1428,"Ġan":1429,"Ġinternet":1430,"ĠpÅĤy":1431,"waÅĤ":1432,"wala":1433,"Ġwymaga":1434,"Ġ18":1435,"Ġwszystkie":1436,"ĠspoÅĤe":1437,"Ġdobrze":1438,"Ġchwi":1439,"prasza":1440,"Ġfina":1441,"stwo":1442,"niki":1443,"ke":1444,"Ġchce":1445,"ĠrÄĻ":1446,"ÅĤej":1447,"Ġci":1448,"Ġstrony":1449,"Ġczyli":1450,"Ġopi":1451,"Ġzdr":1452,"Ġelekt":1453,"Å¼u":1454,"wen":1455,"Ġumie":1456,"ï¿":1457,"ĠKu":1458,"ï¿½":1459,"ĠKon":1460,"Ġsty":1461,"tery":1462,"ĠLu":1463,"ĠwÅĤaÅĽnie":1464,"cyjnych":1465,"Ġwido":1466,"ĠÅ»":1467,"Ġzie":1468,"ĠjÄħ":1469,"Ġkosz":1470,"Ġwszystkim":1471,"dnia":1472,"Ġrobi":1473,"Ġarty":1474,"jÄħca":1475,"nienia":1476,"ÅĽrÃ³d":1477,"Ġpozio":1478,"dÅĤu":1479,"om":1480,"Ġobec":1481,"ĠCz":1482,"wem":1483,"Ġfirmy":1484,"lenie":1485,"muje":1486,"Ġmoje":1487,"ĠrozwiÄħza":1488,"Ġstu":1489,"Ġzapo":1490,"ĠDla":1491,"Ã³Åº":1492,"Ġkonie":1493,"Ġter":1494,"gen":1495,"ster":1496,"zi":1497,"Ġsiebie":1498,"ciÄĩ":1499,"dno":1500,"wali":1501,"Ġprzygotowa":1502,"piej":1503,"jÄħcego":1504,"Ġalbo":1505,"Ġwiel":1506,"ĠurzÄħ":1507,"ĠpoczÄħ":1508,"Ġnajlep":1509,"czywiÅĽcie":1510,"rum":1511,"Ġcia":1512,"Ġpowsta":1513,"rwa":1514,"pada":1515,"ĠJest":1516,"ĠÅ¼ycia":1517,"menta":1518,"ĠDa":1519,"ĠzwiÄħza":1520,"Ġnp":1521,"Ġ...":1522,"ĠkrÃ³":1523,"âĢĿ,":1524,"Ġtrzeba":1525,"Ġzgo":1526,"Ġzasa":1527,"ĠPolsce":1528,"Ġloka":1529,"Ġdomu":1530,"ĠbyÅĤy":1531,"ĠJak":1532,"ÂĤ":1533,"chÄĻ":1534,"Ġdni":1535,"od":1536,"Ġcha":1537,"Ġnr":1538,"Ġponad":1539,"fika":1540,"Ġnim":1541,"ĠczÄĻÅĽci":1542,"ok":1543,"Ġsytua":1544,"tel":1545,"Ġws":1546,"ĠpÅĤa":1547,"ĠskÃ³":1548,"Ġludzi":1549,"Ġsamocho":1550,"Ġtemu":1551,"ÅĤowa":1552,"Ġponie":1553,"Ġnowo":1554,"bywa":1555,"Ġczasie":1556,"daÅĦ":1557,"Ġklien":1558,"Ġobie":1559,"ĠÅĽwiat":1560,"ĠwaÅ¼":1561,"bia":1562,"ĠczÄĻsto":1563,"kcji":1564,"dne":1565,"Ġnaz":1566,"Ġ|":1567,"Ġuro":1568,"skona":1569,"koÅĦ":1570,"Ġsprawie":1571,"chi":1572,"Ġprzeciw":1573,"Ġczer":1574,"nta":1575,"czyna":1576,"noÅĽciÄħ":1577,"ĠszczegÃ³l":1578,"ww":1579,"cki":1580,"Å¼li":1581,"Ġtran":1582,"stawie":1583,"Ġbezpie":1584,"Ġjedy":1585,"Ġzdo":1586,"nka":1587,"dÅĤ":1588,"Ġnu":1589,"Ġpyta":1590,"ĠuÅ¼ytk":1591,"Ġwypo":1592,"bardziej":1593,"ck":1594,"ĠTwo":1595,"lnoÅĽÄĩ":1596,"wiÄħz":1597,"Ġogro":1598,"Ġdanych":1599,"Ġuda":1600,"Ġha":1601,"ÅĤoÅĽÄĩ":1602,"czone":1603,"Ġbud":1604,"kur":1605,"stÃ³w":1606,"che":1607,"mier":1608,"Wy":1609,"ve":1610,"Ġ#":1611,"ÅĦstwo":1612,"Ġsam":1613,"Ġcelu":1614,"Ġtrzy":1615,"ĠksiÄħÅ¼":1616,"os":1617,"ĠgÅĤo":1618,"Å¼yÄĩ":1619,"Ġteraz":1620,"Ġmniej":1621,"ĠNaj":1622,"ĠwÅĤo":1623,"cenia":1624,"Ġwska":1625,"Ġge":1626,"mowy":1627,"Ġ:)":1628,"Ġwybra":1629,"ĠmÄĻ":1630,"ĠMie":1631,"Ġide":1632,"wer":1633,"Ġcieka":1634,"ĠzostaÅĤ":1635,"ĠAle":1636,"Ġzaku":1637,"Ġdodatk":1638,"nÄĻtrz":1639,"Ġzapa":1640,"Ġrodza":1641,"one":1642,"stnie":1643,"ktyw":1644,"ĠwpÅĤy":1645,"res":1646,"ĠwzglÄĻ":1647,"ĠdoÅĽwiad":1648,"wiÄĩ":1649,"Ġtemat":1650,"ple":1651,"Ġwarun":1652,"ĠpiÄĻk":1653,"fek":1654,"Ġat":1655,"Ġnaszej":1656,"Ġ100":1657,"rywa":1658,"nera":1659,"nali":1660,"naj":1661,"szenie":1662,"tyczÄħ":1663,"lowa":1664,"kowi":1665,"Ġspa":1666,"Ġ30":1667,"ĠobowiÄħ":1668,"Ġregu":1669,"ÅĦski":1670,"gÅĤo":1671,"Ġul":1672,"ĠjÄĻ":1673,"pod":1674,"ÅĽniej":1675,"ĠdotyczÄħ":1676,"Ġ14":1677,"owiada":1678,"Ġnic":1679,"Ġprezen":1680,"Ġdwa":1681,"yba":1682,"Ġosoby":1683,"ium":1684,"Ġuzy":1685,"Ġzde":1686,"Ġzain":1687,"tyczne":1688,"Ġzamie":1689,"Ġpomy":1690,"wÃ³r":1691,"Ġuczest":1692,"\".":1693,"zacja":1694,"Ġtakich":1695,"ĠJeÅĽli":1696,"Ġtowa":1697,"20":1698,"ĠCi":1699,"ĠBy":1700,"nosi":1701,"Ġdecy":1702,"ĠktÃ³rego":1703,"Ġinne":1704,"Ġhistor":1705,"Ġkilku":1706,"Ġ11":1707,"ktÃ³":1708,"rach":1709,"sja":1710,"cjona":1711,"ĠMe":1712,"czych":1713,"Ġdoku":1714,"Ġnada":1715,"Ġnapraw":1716,"Ġ16":1717,"Ġcu":1718,"Ġmode":1719,"ĠRoz":1720,"Ġbe":1721,"Ġnajbardziej":1722,"tedy":1723,"Ġpoko":1724,"Ġot":1725,"ĠMu":1726,"der":1727,"czka":1728,"Ġkorzysta":1729,"zm":1730,"ĠPi":1731,"ĠciÄĻ":1732,"Ġcharak":1733,"spe":1734,"Ġramach":1735,"sti":1736,"Ġtaki":1737,"ir":1738,"czeÅĽniej":1739,"ĠczÅĤowie":1740,"ĠOb":1741,"Ġ2018":1742,"jÄħcym":1743,"Ġmuzy":1744,"raca":1745,"Ġani":1746,"pia":1747,"ĠpamiÄĻ":1748,"owanych":1749,"stety":1750,"--":1751,"roni":1752,"Ġtere":1753,"Ã³g":1754,"czeÅĦ":1755,"Ġwspo":1756,"ĠjÄĻzy":1757,"kra":1758,"dzieÄĩ":1759,"Ġkomu":1760,"kow":1761,"AN":1762,"tuje":1763,"gna":1764,"mar":1765,"Ġmoc":1766,"ĠsÅĤo":1767,"Do":1768,"uka":1769,"19":1770,"Ġgospodar":1771,"nne":1772,"Ġilo":1773,"Ġdzia":1774,"30":1775,"Ġczym":1776,"Ġczu":1777,"Ġkli":1778,"jÄħcej":1779,"byt":1780,"zja":1781,"Ġmiejsc":1782,"Ġkul":1783,"rÃ³b":1784,"Ġmamy":1785,"gÄħ":1786,"ĠaÅ¼":1787,"Ġwal":1788,"ĠdÅĤugo":1789,"Ġdrugie":1790,"skÄħ":1791,"Ġjeden":1792,"Ġrazem":1793,"Ġpozwala":1794,"Ġelemen":1795,"ciÄĻ":1796,"tej":1797,"czeniu":1798,"tyka":1799,"Ġwsze":1800,"mawia":1801,"Ġkry":1802,"mÃ³wie":1803,"pis":1804,"ĠÅ¼ycie":1805,"wÄħ":1806,"ĠwspÃ³l":1807,"feru":1808,"nuje":1809,"Ġkonta":1810,"ĠPolski":1811,"ĠBu":1812,"Ġzaj":1813,"stytu":1814,"50":1815,"Ġstanie":1816,"ĠtÅĤu":1817,"lub":1818,"Ġstronie":1819,"Ġfirm":1820,"Åģ":1821,"Ġotrzyma":1822,"Ġpodob":1823,"tycznie":1824,"bym":1825,"ĠpÃ³ÅĤ":1826,"Ġzwie":1827,"miny":1828,"chodzÄħ":1829,"Ġdosta":1830,"Ġpodstaw":1831,"Ġener":1832,".,":1833,"com":1834,"OW":1835,"Ġochro":1836,"jona":1837,"ĠpÃ³Åº":1838,"ĠDe":1839,"wnÄĻtrz":1840,"Ġzaba":1841,"Ġdobre":1842,"kom":1843,"Ġnowe":1844,"ler":1845,"Ġlek":1846,"Ġniego":1847,"ĠjakoÅĽci":1848,"Ġzale":1849,"mienia":1850,"ĠpoÅĽ":1851,"sek":1852,"pol":1853,"rÃ³wno":1854,"Ġsil":1855,"ĠAr":1856,"wyÅ¼":1857,"ctwa":1858,"12":1859,"rzenie":1860,"pozy":1861,"daÄĩ":1862,"Ġswoich":1863,"Ġdlatego":1864,"........":1865,"Ġkur":1866,"Ġsame":1867,"kowe":1868,"Ġdoskona":1869,"dli":1870,"Ġchcia":1871,"tomiast":1872,"Ġdom":1873,"ĠAu":1874,"ÅĤÃ³":1875,"nicy":1876,"Ġinformacji":1877,"ĠwspÃ³ÅĤpra":1878,"Ġsztu":1879,"Ġwprowa":1880,"mini":1881,"ÅĤek":1882,"ĠGa":1883,"hi":1884,"lacji":1885,"ĠmieÄĩ":1886,"Ġnatura":1887,"sor":1888,"ĠnastÄĻp":1889,"ownikÃ³w":1890,"Ġpotrzeb":1891,"ĠdzieÅĦ":1892,"Ġzawiera":1893,"Ġczego":1894,"cznoÅĽci":1895,"ĠzarÃ³wno":1896,"ony":1897,"moÅ¼li":1898,"ĠÅĤÄħ":1899,"dnych":1900,"kol":1901,"koÅĽci":1902,"Ġ17":1903,"Ġwer":1904,"kuje":1905,"rucho":1906,"Ġklasy":1907,"ĠzwiÄħz":1908,"Ġgro":1909,"Ġpotra":1910,"Ġinwe":1911,"ĠpoÅĤÄħ":1912,"Ġbli":1913,"ĠJed":1914,"Ġpara":1915,"11":1916,"Ġjeste":1917,"ĠII":1918,"Ġ13":1919,"owymi":1920,"Ġnaszych":1921,"Ġniej":1922,"Ġjestem":1923,"Ġper":1924,"ĠBar":1925,"ĠprzedsiÄĻ":1926,"gii":1927,"ĠSpo":1928,"Ġlicz":1929,"lnÄħ":1930,"Ġtech":1931,"czony":1932,"Ġozna":1933,"nkÃ³w":1934,"ĠnaprawdÄĻ":1935,"ÂĻ":1936,"cyjny":1937,"Ġzu":1938,"Ġmiejsca":1939,"pla":1940,"ĠNi":1941,"ĠZe":1942,"Ġodpowiedni":1943,"niejsze":1944,"nami":1945,"danie":1946,"ÅĤka":1947,"ĠCa":1948,"Ġrynku":1949,"bor":1950,"ard":1951,"Ġwraz":1952,"ĠCie":1953,"Ġchyba":1954,"Ġtypu":1955,"Ġskle":1956,"Ġpun":1957,"ĠobsÅĤu":1958,"Ġbudy":1959,"wÄĻ":1960,"Ġuzyska":1961,"ĠduÅ¼o":1962,"th":1963,"ĠmiaÅĤ":1964,"dzÄĻ":1965,"tacji":1966,"Ġczyn":1967,"pej":1968,"Ġznale":1969,"tam":1970,"jÄħcÄħ":1971,"Ġsamy":1972,"ĠswojÄħ":1973,"Ġzakresie":1974,"Ġki":1975,"Ġminu":1976,"Ġdobry":1977,"line":1978,"ĠwyglÄħda":1979,"pita":1980,"ss":1981,"stÄħpi":1982,"gdy":1983,"Ġopie":1984,"sjona":1985,"Ġpodej":1986,"rew":1987,"wÃ³ch":1988,"Ġkonce":1989,"ÅĽwiet":1990,"Ġokoli":1991,"Ġchodzi":1992,"ĠmoÅ¼liwoÅĽÄĩ":1993,"ĠmoÅ¼emy":1994,"ĠwczeÅĽniej":1995,"owane":1996,"Ġzoba":1997,"tnoÅĽci":1998,"Ġstosu":1999,"ĠJu":2000,"par":2001,"Ġpozna":2002,"Prze":2003,"vi":2004,"Ġmiasta":2005,"ly":2006,"Ġstwo":2007,"gle":2008,"ÅĽnia":2009,"ĠcaÅĤ":2010,"ĠDzie":2011,"Ġstop":2012,"ĠNo":2013,"Ġban":2014,"tory":2015,"ĠokreÅĽ":2016,"Ġwtedy":2017,"ĠdwÃ³ch":2018,"Ġkro":2019,"Ġprzysz":2020,"AR":2021,"pular":2022,"ĠrÃ³Å¼nych":2023,"Ġpoza":2024,"tny":2025,"wycza":2026,"Ġpor":2027,"Ġprzeprowa":2028,"Ġtechni":2029,"Ġwykorzysta":2030,"prezen":2031,"ĠponiewaÅ¼":2032,"ĠÅĽwiad":2033,"Åļ":2034,"ÅĦskiego":2035,"ĠzostaÅĤa":2036,"Ġwnio":2037,"miar":2038,"waran":2039,"Ġideal":2040,"Ġtrwa":2041,"ĠSy":2042,"ĠÅ¼":2043,"stan":2044,"ĠÂ»":2045,"Ġwieku":2046,"Ma":2047,"Ġrok":2048,"Ġstar":2049,"Ġkieru":2050,"jo":2051,"Ġpoprzez":2052,"wykle":2053,"wiek":2054,"szczy":2055,"ĠwyjÄħ":2056,"Ġmiejscu":2057,"ĠHo":2058,"ĠiÅ¼":2059,"ĠchoÄĩ":2060,"ĠÅº":2061,"ryka":2062,"Ġzasto":2063,"rzyÄĩ":2064,"AT":2065,"raj":2066,"Ġone":2067,"Ġtutaj":2068,"wych":2069,"ĠmyÅĽ":2070,"ĠskÅĤada":2071,"Ġwiem":2072,"Ġsma":2073,"kÃ³ÅĤ":2074,"wki":2075,"Ko":2076,"tyki":2077,"ĠwyÅĤÄħ":2078,"Ġbia":2079,"nienie":2080,"czÄĻÅĽcie":2081,"Ġprzewo":2082,"czeÅĽnie":2083,"ciem":2084,"Ġistnie":2085,"len":2086,"ĠusÅĤug":2087,"ĠWe":2088,"wÃ³dz":2089,"Ġostatni":2090,"lega":2091,"Ġem":2092,"tnych":2093,"ÅĽni":2094,"ckiego":2095,"Ġswojej":2096,"powiada":2097,"Ġne":2098,"ĠmiesiÄħ":2099,"spÃ³ÅĤ":2100,"ST":2101,"Ġodby":2102,"Ġszybko":2103,"ĠPu":2104,"Ġnaszym":2105,"Ġmini":2106,"ĠmiaÅĤa":2107,"and":2108,"towy":2109,"cka":2110,"\",":2111,"ĠSo":2112,"ĠskÅĤa":2113,"Ġbiu":2114,"Ġblo":2115,"Ġprostu":2116,"logii":2117,"Ġzawar":2118,"czyÅĤ":2119,"Ġkonkur":2120,"Ġlata":2121,"ĠchÅĤo":2122,"ĠwÄħ":2123,"Ġzam":2124,"Ġnieza":2125,"Ġprawa":2126,"dziÅĤ":2127,"Ġfinans":2128,"kolwiek":2129,"niach":2130,"ĠmieszkaÅĦ":2131,"kacji":2132,"ĠtrochÄĻ":2133,"Ġprzede":2134,"Ġswoim":2135,"Ġograni":2136,"jewÃ³dz":2137,"dio":2138,"cjach":2139,"ĠDu":2140,"Ġwzro":2141,"lia":2142,"ĠTak":2143,"Ġobraz":2144,"ĠksztaÅĤ":2145,"ER":2146,"Ġobej":2147,"rysty":2148,"togra":2149,"dniej":2150,"Â³":2151,"Ġzdecy":2152,"jcie":2153,"ĠtÄĻ":2154,"tycznych":2155,"ĠLa":2156,"towaÄĩ":2157,"Ġserwi":2158,"000":2159,"ĠczÅĤo":2160,"Åºdzie":2161,"Ġ2017":2162,"budowa":2163,"ĠSu":2164,"Pro":2165,"âĢĵ":2166,"cieÅ¼":2167,"Ġprzezna":2168,"ĠPe":2169,"Ġona":2170,"Ġska":2171,"Ġprofe":2172,"Ġproblem":2173,"Ġpierwszy":2174,"Ġnaszego":2175,"Ġust":2176,"Ġmeto":2177,"ĠDziÄĻki":2178,"Ġubezpie":2179,"Ġjednym":2180,"ĠnajwiÄĻk":2181,"sÅĤo":2182,"Ġ25":2183,"ĠosiÄħ":2184,"ĠSÄħ":2185,"wiel":2186,"zne":2187,"rzÄħdza":2188,"Ġwyja":2189,"Ġkontro":2190,"ĠkaÅ¼dego":2191,"ĠsprzÄĻ":2192,"Ġcoraz":2193,"Ġpowierz":2194,"pania":2195,"ĠuwagÄĻ":2196,"ĠudziaÅĤ":2197,"Ġzapro":2198,"mer":2199,"ĠBi":2200,"Ġ50":2201,"//":2202,"Ġzaintere":2203,"Ġszero":2204,"czycie":2205,"ĠzamÃ³wie":2206,"dro":2207,"bio":2208,"ĠMoÅ¼e":2209,"ĠduÅ¼y":2210,"Ġkompu":2211,"owoÅĽci":2212,"tegor":2213,"gnie":2214,"prac":2215,"ĠktÃ³rÄħ":2216,"Ġdalej":2217,"Ġrekla":2218,"Ġpora":2219,"Ġwielo":2220,"dra":2221,"Ġtem":2222,"Ġfak":2223,"taÄĩ":2224,"Ġwyposa":2225,"Ġprzestrze":2226,"ĠzakoÅĦ":2227,"wca":2228,"ĠÐ":2229,"ÅĤki":2230,"ĠpoczÄħtku":2231,"piero":2232,"sowanie":2233,"Ġpsy":2234,"cego":2235,"ĠSp":2236,"ĠzaÅĤo":2237,"fer":2238,"gÃ³w":2239,"cenie":2240,"mentu":2241,"feren":2242,"ĠmoÅ¼liwoÅĽci":2243,"Ġopa":2244,"Ġ;":2245,"Ġprawo":2246,"ktual":2247,"Ġaktyw":2248,"ĠSzko":2249,"sach":2250,"Ġart":2251,"Ġpom":2252,"Ġrozwo":2253,"ĠCho":2254,"ÅĤat":2255,"Ġgry":2256,"ĠwÄĻ":2257,"tym":2258,"Ġwiadomo":2259,"Ġefek":2260,"Ġ24":2261,"Ġzespo":2262,"lan":2263,"Ġwybo":2264,"Ġzau":2265,"ĠSe":2266,"Ġprzyja":2267,"ÅºÄĩ":2268,"ttp":2269,"Ġlatach":2270,"laz":2271,"twarza":2272,"Ġrzeczy":2273,"Ġtek":2274,"Ġtechno":2275,"sowania":2276,"Ġklu":2277,"ĠokoÅĤo":2278,"mÄĻ":2279,"IA":2280,"Ġ199":2281,"jny":2282,"Ġpoka":2283,"ĠÅĽwiecie":2284,"Ġpisa":2285,"ĠdziaÅĤania":2286,"ĠktoÅĽ":2287,"Ġdaw":2288,"towe":2289,"ĠPre":2290,"ĠAn":2291,"Ġzapewnia":2292,"widu":2293,"wczy":2294,"ĠWszyst":2295,"://":2296,"Ġcm":2297,"ĠcaÅĤy":2298,"Wi":2299,"obie":2300,"ĠprzedsiÄĻbior":2301,"ctwo":2302,"Ġprzedstawi":2303,"czek":2304,"Ġprojekt":2305,"wz":2306,"ĠFi":2307,"ĠpÃ³Åºniej":2308,"Ġzre":2309,"15":2310,"dÅĤug":2311,"Ġartyku":2312,"praszamy":2313,"Ġczar":2314,"Ġwyra":2315,"wego":2316,"wej":2317,"ĠpiÄĻ":2318,"racji":2319,"Ġspecjali":2320,"rami":2321,"Ġznajduje":2322,"ĠzdjÄĻ":2323,"ĠOr":2324,"Ġtytu":2325,"Ġcent":2326,"man":2327,"Ġkos":2328,"Ja":2329,"Ġsek":2330,"pisy":2331,"owaÅĤ":2332,"tur":2333,"dach":2334,"Ġnasze":2335,"mnia":2336,"Ġczeka":2337,"ĠzrobiÄĩ":2338,"EN":2339,"Ġszuka":2340,"nic":2341,"Ġpewno":2342,"pÄĻ":2343,"ĠBe":2344,"ON":2345,"dzien":2346,"ĠkaÅ¼dym":2347,"ĠciÄĻÅ¼":2348,"Ġwszel":2349,"owu":2350,"ĠAl":2351,"ĠczÄĻÅĽÄĩ":2352,"dziaÅĤu":2353,"Ġprojektu":2354,"Å¼czy":2355,"cÅĤa":2356,"Ġznajdzie":2357,"Ġsieci":2358,"szcz":2359,"ĠNr":2360,"Ġwykony":2361,"ber":2362,"Ġterenie":2363,"koÅĽÄĩ":2364,"ĠwiÄĻkszo":2365,"kowych":2366,"Ġotwar":2367,"Ġkupi":2368,"Ġ2016":2369,"ĠniektÃ³":2370,"Ġeg":2371,"gan":2372,"piÄĻ":2373,"cyjnego":2374,"Ġkraj":2375,"tom":2376,"Ġbudow":2377,"Ġlep":2378,"Ġdwu":2379,"nar":2380,"ĠwartoÅĽci":2381,"fia":2382,"sÅĤy":2383,"sen":2384,"Ġskute":2385,"Ġnor":2386,"gram":2387,"18":2388,"ĠprzykÅĤad":2389,"Ġtyle":2390,"moÅĽci":2391,"ĠCen":2392,"Ġwidoczny":2393,"ĠFa":2394,"Ġwody":2395,"Mo":2396,"zmu":2397,"Ġzad":2398,"âĢĻ":2399,"Ä¹Åº":2400,"siÄĻcy":2401,"Ġkraju":2402,"Ġindy":2403,"Ġpart":2404,"ĠogÅĤo":2405,"Ġpomoc":2406,"Ġznajdu":2407,"Ġuzna":2408,"Ġtrak":2409,"ĠdziÅĽ":2410,"Ġwymia":2411,"Ġtrady":2412,"Ġnatomiast":2413,"Ġobro":2414,"Ġjedynie":2415,"tkowo":2416,"zdy":2417,"owiem":2418,"Ġbezpiecze":2419,"ĠÅĽwiata":2420,"Ġprzej":2421,"Ġuli":2422,"Ġzalog":2423,"szyscy":2424,"tal":2425,"ĠzwiÄĻk":2426,"Ġdowo":2427,"ĠgÃ³":2428,"Å¼one":2429,"ĠMia":2430,"ĠobowiÄħz":2431,"OR":2432,"To":2433,"Ġrzecz":2434,"ĠTu":2435,"link":2436,"Ġsamym":2437,"ĠPola":2438,"Ġwystar":2439,"cep":2440,"ĠÅĽrodowi":2441,"niwer":2442,"zyden":2443,"Ġnapisa":2444,"tna":2445,"szczÄĻ":2446,"sami":2447,"ld":2448,"struk":2449,"Ġwra":2450,"Ġwykorzy":2451,"jnie":2452,"Ġwrze":2453,"Ġdie":2454,"sÅĤaw":2455,"Ġintere":2456,"Ġisto":2457,"czonych":2458,"ownika":2459,"gina":2460,"dzone":2461,"ĠmoÅ¼li":2462,"cyjnej":2463,"ckie":2464,"Ġkredy":2465,"ĠzostaÅĤy":2466,"ĠspeÅĤ":2467,"Pa":2468,"ĠgÅĤ":2469,"ĠdziaÅĤalnoÅĽci":2470,"czona":2471,"liÄĩ":2472,"Ġimpre":2473,"Ġprzyj":2474,"Ġile":2475,"Ġpodstawie":2476,"Dz":2477,"ĠGdy":2478,"torÃ³w":2479,"Ġrozwi":2480,"suje":2481,"para":2482,"Ġwynika":2483,"Ġoferu":2484,"pier":2485,"gar":2486,"lika":2487,"Ġatrak":2488,"Ġrodzaju":2489,"lony":2490,"ĠumoÅ¼li":2491,"Å¼ony":2492,"dowy":2493,"ĠCe":2494,"Ġ+":2495,"nÄħÅĤ":2496,"niku":2497,"Ġpopular":2498,"gniÄĻ":2499,"ĠpomocÄħ":2500,"Ġdniu":2501,"Ġinformacje":2502,"liwoÅĽci":2503,"Ġlepiej":2504,"ĠÅĽwiÄĻ":2505,"wan":2506,"sh":2507,"Ġuczni":2508,"Ġnowych":2509,"rtu":2510,"ĠogÃ³l":2511,"Ġoce":2512,"ĠKie":2513,"poÅĽ":2514,"widual":2515,"ĠLo":2516,"siaj":2517,"Ġkier":2518,"Ka":2519,"ĠzaÅĽ":2520,"lach":2521,"Ġsport":2522,"jne":2523,"ownik":2524,"Ġpomocy":2525,"ministra":2526,"ĠpoÅĤo":2527,"Ġinnymi":2528,"owany":2529,"cjon":2530,"ĠwzglÄĻdu":2531,"ĠproduktÃ³w":2532,"nomi":2533,"ĠdoÅĽÄĩ":2534,"ĠzdjÄĻcia":2535,"cami":2536,"lone":2537,"Å¼na":2538,"mentÃ³w":2539,"west":2540,"menty":2541,"Ġinwesty":2542,"ĠPrzed":2543,"Ġogrom":2544,"ĠJednak":2545,"rÃ³j":2546,"cam":2547,"biega":2548,"Ġobu":2549,"nien":2550,"Ġpotrafi":2551,"Ġzalogowanych":2552,"moc":2553,"Ġgwaran":2554,"trza":2555,"ðŁ":2556,"wiajÄħ":2557,"Ġchoro":2558,"owski":2559,"lami":2560,"Ġonline":2561,"let":2562,"Ġudzie":2563,"Ġkole":2564,"kowy":2565,"szuki":2566,"Ġinte":2567,"Ġustawy":2568,"Od":2569,"Ġeko":2570,"dr":2571,"Ġoczy":2572,"200":2573,"giel":2574,"ndy":2575,"Ġzostanie":2576,"Ġsytuacji":2577,"Ġproduk":2578,"bieg":2579,"Ġnigdy":2580,"Ġmasz":2581,"chwa":2582,"przy":2583,"Ġprofesjona":2584,"wany":2585,"Ġprzedmio":2586,"ĠmoÅ¼esz":2587,"ntÃ³w":2588,"Ġzmiany":2589,"ĠâĢĶ":2590,"Ġzbyt":2591,"Ġzdoby":2592,"ĠInter":2593,"Ġnadzie":2594,"Ġpowodu":2595,"Ġfizy":2596,"Ã³gÅĤ":2597,"ÅĦskiej":2598,"Ġprawdzi":2599,"ĠswÃ³j":2600,"Ġpozwo":2601,"Ġusu":2602,"Ġodpowiedzia":2603,"ksy":2604,"dowanie":2605,"Ġocze":2606,"Ġnowoczes":2607,"kce":2608,"Ġzgodnie":2609,"mat":2610,"CZ":2611,"niesie":2612,"Åºdzier":2613,"Ġx":2614,"Ġ2015":2615,"ĠTwoje":2616,"Ġlisto":2617,"Ġszczeg":2618,"Ġsen":2619,"Ġdrew":2620,"rych":2621,"Ġprzyjem":2622,"24":2623,"sowaÄĩ":2624,"IN":2625,"Ġ?":2626,"ĠSzcze":2627,"rocÅĤa":2628,"Ġswojego":2629,"nny":2630,"nione":2631,"lka":2632,"ĠusÅĤugi":2633,"Ġprzyzna":2634,"Ġdrugi":2635,"iÄħ":2636,"Âħ":2637,"Ġtermi":2638,"Ġjednost":2639,"Ġindywidual":2640,"Ġdokona":2641,"Ġzim":2642,"Ġ2014":2643,"16":2644,"ĠpostÄĻp":2645,"Ġorganiza":2646,"Ġdwie":2647,"Ġopera":2648,"14":2649,"ĠUS":2650,"ĠzwiÄħzku":2651,"narod":2652,"Ð¾":2653,"nnych":2654,"Ġpotem":2655,"dzeÅĦ":2656,"ĠRy":2657,"obec":2658,"Ġzaczyna":2659,"Ġlecz":2660,"dna":2661,"va":2662,"ĠPR":2663,"wiam":2664,"Ġprzyczy":2665,"wienia":2666,"Ġkategor":2667,"unda":2668,"jecha":2669,"tion":2670,"Ġjednej":2671,"Ġwyj":2672,"ĠznaleÅºÄĩ":2673,"ciaÅ¼":2674,"ĠmÄĻÅ¼czy":2675,"ĠDoda":2676,"dziaÅĤa":2677,"Ġpopra":2678,"ĠuwaÅ¼a":2679,"tkÃ³w":2680,"cem":2681,"owaniu":2682,"zw":2683,"ĠsobÄħ":2684,"ĠwÅĽrÃ³d":2685,"Ġgodz":2686,"ĠprÃ³":2687,"ĠRze":2688,"ĠSer":2689,"godnie":2690,"syw":2691,"Ġrazie":2692,"Ġhttp":2693,"Ġsez":2694,"Ġtwa":2695,"CH":2696,"Ġzy":2697,"szyÄĩ":2698,"Ġbrak":2699,"Ġludzie":2700,"ĠkoÅĦcu":2701,"Ġeksp":2702,"ver":2703,"Ġcel":2704,"ĠchÄĻ":2705,"Ġuczestni":2706,"ÅĦska":2707,"gno":2708,"gry":2709,"ĠHi":2710,"Ġ22":2711,"Ġokaza":2712,"Ġrazy":2713,"ĠNe":2714,"ĠPozna":2715,"Ġoznacza":2716,"ĠpoÅ¼y":2717,"Ġnoc":2718,"Ġtakiego":2719,"ĠbezpoÅĽ":2720,"Ġprzemy":2721,"Ġwej":2722,"wal":2723,"ĠFran":2724,"âĢŀ":2725,"ĠpaÅºdzier":2726,"mal":2727,"ĠjeÅ¼eli":2728,"krÄĻ":2729,"Ġcodzien":2730,"ĠâĢľ":2731,"ĠskÃ³ry":2732,"Jak":2733,"ĠcaÅĤkowi":2734,"Ġeta":2735,"Ġinsta":2736,"ÄħdÅº":2737,"ĠÅĽmier":2738,"dzieÅ¼":2739,"ÅĽmie":2740,"Ġtowarzy":2741,"wym":2742,"Ġdzien":2743,"ĠoczywiÅĽcie":2744,"Ġdostar":2745,"Ġpierwsze":2746,"peÅĤnie":2747,"Ġkolor":2748,"lin":2749,"tyczny":2750,"Ġapli":2751,"piera":2752,"Ġdar":2753,"Ġwymie":2754,"Ġdane":2755,"Ġowo":2756,"ĠnajwyÅ¼":2757,"mpa":2758,"kon":2759,"Ġleka":2760,"cym":2761,"ĠksiÄĻ":2762,"Ġrealizacji":2763,"dami":2764,"lepiej":2765,"Ġodwie":2766,"Ġprogram":2767,"Ġpotwier":2768,"Ġfotogra":2769,"ĠDy":2770,"Ġumowy":2771,"Ġmedy":2772,"ĠAnd":2773,"Ġpostaci":2774,"13":2775,"undu":2776,"rÃ³ci":2777,"Ġrozu":2778,"ĠszczegÃ³lnie":2779,"ckiej":2780,"giem":2781,"ĠFo":2782,"Ġstara":2783,"ĠciÄħgu":2784,"Ġanali":2785,"ĠnajwaÅ¼":2786,"Ġautor":2787,"ĠRady":2788,"jekt":2789,"qu":2790,"Ã³z":2791,"ĠszkoÅĤy":2792,"ĠgdyÅ¼":2793,"nos":2794,"trÃ³w":2795,"mencie":2796,"Ġprawie":2797,"rygina":2798,"Ġdobra":2799,"Pod":2800,"Ġjednego":2801,"ĠMy":2802,"Ġeuro":2803,"Ġnierucho":2804,"Ġwyna":2805,"Ġdopiero":2806,"siÅĤ":2807,"ĠPla":2808,"Ġnale":2809,"Ġprak":2810,"stoÅĽci":2811,"Ġdziecka":2812,"czeniem":2813,"ĠmÃ³gÅĤ":2814,"ĠGminy":2815,"wyczaj":2816,"stw":2817,"Ġkomunika":2818,"zer":2819,"Ġstand":2820,"ĠsprzedaÅ¼y":2821,"Ġbowiem":2822,"Ġfirma":2823,"Ġkosme":2824,"ĠKaÅ¼":2825,"ad":2826,"Ġstwier":2827,"Ġdia":2828,"mula":2829,"ĠPO":2830,"Ġszkole":2831,"ĠRu":2832,"Ġforma":2833,"Ġosobi":2834,"Ð°":2835,"ton":2836,"Ġbizne":2837,"Ġpowia":2838,"ĠkaÅ¼dej":2839,"Ġmaja":2840,"Ġczasem":2841,"czym":2842,"rzej":2843,"ĠPan":2844,"szech":2845,"towania":2846,"Ġnasz":2847,"ĠpracÄĻ":2848,"towi":2849,"Ġprzypo":2850,"Ãª":2851,"ĠÅĤat":2852,"ĠPoli":2853,"ĠjakiÅĽ":2854,"puszcza":2855,"Ro":2856,"Ġdoty":2857,"Ġkonsu":2858,"mon":2859,"rzeÅĦ":2860,"Ġczyta":2861,"Ġzabezpie":2862,"Ġdrugiej":2863,"Ġnieco":2864,"Ġpowinien":2865,"17":2866,"ĠPolska":2867,"ÅĤeÅĽ":2868,"zjÄĻ":2869,"ĠklientÃ³w":2870,"rwi":2871,"fon":2872,"Ġraczej":2873,"Ġjakim":2874,"Ġoferty":2875,"Ġ40":2876,"ĠðŁ":2877,"spi":2878,"ĠÄĩ":2879,"ĠÅĽredni":2880,"Ġsystemu":2881,"bÃ³r":2882,"ĠY":2883,"Å¼d":2884,"Ġstron":2885,"Ġrobo":2886,"Ġgrupy":2887,"Ġwyro":2888,"kÅĤadu":2889,"Ġpomie":2890,"lik":2891,"ÅĦstw":2892,"stry":2893,"Ġprywa":2894,"zio":2895,"Ġrozwoju":2896,"ĠkrÃ³t":2897,"ĠÅĽcia":2898,"Ġpracu":2899,"Ġdaje":2900,"Ġbran":2901,"Ġtranspo":2902,"zywa":2903,"Ġtaka":2904,"cznoÅĽÄĩ":2905,"szczenia":2906,"nce":2907,"ÅĽcio":2908,"ĠsÅĤy":2909,"ksztaÅĤ":2910,"publi":2911,"ĠEuropej":2912,"Å»":2913,"organi":2914,"Ġminut":2915,"lizacji":2916,"Ġkwo":2917,"Ġproducen":2918,"kowane":2919,"Ġchwili":2920,"ĠâĢ¢":2921,"Ġtakim":2922,"Ġedu":2923,"ĠMini":2924,"ĠÅ¼yciu":2925,"Ġkoniec":2926,"ĠDlatego":2927,"ut":2928,"ĠJo":2929,"ĠKra":2930,"Ġpowierzchni":2931,"Ġnauczycie":2932,"cyjna":2933,"Ġboga":2934,"Ġsier":2935,"Ġtempera":2936,"Ġpowy":2937,"25":2938,"styczne":2939,"Ġkwa":2940,"Ġzawod":2941,"Ġokazji":2942,"ĠporÃ³w":2943,"dny":2944,"zÄĻ":2945,"ÅĤaszcza":2946,"Ġsklep":2947,"Ġtry":2948,"ĠJeÅ¼eli":2949,"kniÄĻ":2950,"Ãĵ":2951,"ĠzajÄĻ":2952,"wszy":2953,"rzÄħdu":2954,"ĠumiejÄĻ":2955,"lno":2956,"ĠÅļwiÄĻ":2957,"Ġpromo":2958,"Ġhistorii":2959,"ĠniezbÄĻ":2960,"AM":2961,"Ġfilm":2962,"fii":2963,"ĠGe":2964,"Ġ23":2965,"onu":2966,"miÄĻdzy":2967,"maty":2968,"Ðµ":2969,"nij":2970,"ul":2971,"Ġple":2972,"ĠroÅĽli":2973,"Ġzmienia":2974,"Ã³Å¼":2975,"Ġ>":2976,"Ġpojawi":2977,"is":2978,"ĠspÃ³ÅĤ":2979,"Ġmm":2980,"Ġodda":2981,"ĠsÅĤowa":2982,"kowej":2983,"nica":2984,"rÃ³t":2985,"Ġab":2986,"ÅĽciach":2987,"niejszych":2988,"kÅĤadnie":2989,"cznik":2990,"ĠduÅ¼e":2991,"dowaÄĩ":2992,"Ġdziedzi":2993,"ĠÅĽrodkÃ³w":2994,"lam":2995,"ĠjakÄħ":2996,"Ġ60":2997,"ĠwrzeÅĽnia":2998,"ĠGra":2999,"Ġopar":3000,"Ġsposob":3001,"ciÄħga":3002,"szki":3003,"wnÄħ":3004,"ciel":3005,"cieli":3006,"ĠsÅĤa":3007,"Ġregi":3008,"lii":3009,"ĠjednÄħ":3010,"ĠkoÅĦca":3011,"ĠÅ»y":3012,"Ġniepo":3013,"Ġtelefo":3014,"ĠzarzÄħdza":3015,"Ġskrzy":3016,"ower":3017,"Ġsiedzi":3018,"Co":3019,"iÄĩ":3020,"ĠPar":3021,"misji":3022,"Ġwww":3023,"ĠbÄħdÅº":3024,"trum":3025,"Czy":3026,"br":3027,"ĠPio":3028,"sowane":3029,"ĠHa":3030,"Ġprodukty":3031,"ĠmaÅĤo":3032,"ĠKrak":3033,"Ġwszyscy":3034,"Ġanty":3035,"bro":3036,"tnej":3037,"dostÄĻp":3038,"Ġosoba":3039,"dnikÃ³w":3040,"land":3041,"Ġsub":3042,"Ġwypad":3043,"dzeniu":3044,"Ġokres":3045,"ĠczÅĤowieka":3046,"Ġelektroni":3047,"rÃ³cz":3048,"ÄĤ":3049,"ĠmogÄĻ":3050,"ĠwysokoÅĽci":3051,"Ġkm":3052,"ĠuÅ¼ywa":3053,"trona":3054,"Ġkonkre":3055,"gÅĤa":3056,"SZ":3057,"Ġelektry":3058,"ĠWarszawie":3059,"mor":3060,"Ġsukce":3061,"lkoho":3062,"zujÄħ":3063,"meryka":3064,"Ġhand":3065,"bÄħ":3066,"Ġtrakcie":3067,"ĠspÄĻ":3068,"resz":3069,"Ġspoko":3070,"chani":3071,"Ġdal":3072,"ĠopÅĤa":3073,"Ġml":3074,"Ġstycz":3075,"ĠnarzÄĻ":3076,"szczegÃ³l":3077,"Ġostat":3078,"Ġprodukcji":3079,"AL":3080,"ĠnastÄĻpu":3081,"Ġmarki":3082,"Ġutwo":3083,"Ġbio":3084,"Ġnajmniej":3085,"ĠstronÄĻ":3086,"lona":3087,"ĠurzÄħdzenia":3088,"99":3089,"Ġnieu":3090,"Ġkwest":3091,"Ġdziecko":3092,"ĠjednoczeÅĽnie":3093,"widÅĤ":3094,"Ġtar":3095,"Ġefe":3096,"ĠniÄħ":3097,"lta":3098,"Ġskorzysta":3099,"Ġmaszy":3100,"Ġbadania":3101,"chowa":3102,"pienia":3103,"ĠzwiÄħzane":3104,"towych":3105,"ĠPier":3106,"wienie":3107,"Ġstru":3108,"Ġpowa":3109,"rom":3110,"Ġreje":3111,"ote":3112,"Ġmoim":3113,"Ġpacje":3114,"Ġwspar":3115,"tycznej":3116,"Ġznajo":3117,"Ġ2013":3118,"Ġlistopada":3119,"Ġobecnie":3120,"Ġkwiet":3121,"zowane":3122,"Przy":3123,"Ġokresie":3124,"Ġznalaz":3125,"ĠcaÅĤej":3126,"ĠrozpoczÄĻ":3127,"Ġprogramu":3128,"ĠWarszawa":3129,"zumie":3130,"us":3131,"Ġwspania":3132,"ĠgÅĤÄĻ":3133,"ĠrÃ³Å¼ne":3134,"Ġrzeczywi":3135,"ĠSto":3136,"Ġlip":3137,"pach":3138,"Te":3139,"Ġtakiej":3140,"tkÄĻ":3141,"ĠkÄħ":3142,"2018":3143,"Ġ21":3144,"obra":3145,"rea":3146,"nowie":3147,"ĠÅĽw":3148,"In":3149,"lor":3150,"AC":3151,"Ġcharaktery":3152,"JeÅĽli":3153,"ĠBia":3154,"Ġarchi":3155,"peÅĤnia":3156,"ĠwyÅ¼":3157,"ĠpoÅĽwiÄĻ":3158,"ĠWrocÅĤa":3159,"lie":3160,"??":3161,"ĠpaÅºdziernika":3162,"lki":3163,"torem":3164,"Ġodpowiada":3165,"Ġorygina":3166,"Ġceny":3167,"robi":3168,"cjami":3169,"ciej":3170,",,":3171,"ĠpomiÄĻdzy":3172,"Ġâ":3173,"ĠÅ¼ad":3174,"Ġprowadzi":3175,"Ġzasta":3176,"gh":3177,"wek":3178,"Ġgu":3179,"Ġczerwca":3180,"Ġitp":3181,"zacjÄĻ":3182,"owÄĻ":3183,"Ġjas":3184,"ĠJego":3185,"czÄĻÅĽciej":3186,"ĠtwÃ³r":3187,"Ġnowy":3188,"Ġzatru":3189,"Ġdrz":3190,"ÄĤÅĤ":3191,"Ġoczeki":3192,"wyciÄĻ":3193,"szar":3194,"jesz":3195,"ĠwaÅ¼ne":3196,"Ġznacznie":3197,"ĠSk":3198,"ckich":3199,"dopod":3200,"ron":3201,"ros":3202,"ĠskÅĤad":3203,"Ġgrze":3204,"Ġsama":3205,"ĠGru":3206,"Ġtrafi":3207,"mos":3208,"dnoÅĽci":3209,"ĠKar":3210,"ĠBie":3211,"Ġpomaga":3212,"Ġprzekona":3213,"ĠwyÅĤÄħcznie":3214,"Ġprakty":3215,"ĠJez":3216,"ĠZie":3217,"Ġwskaza":3218,"ĠksiÄħÅ¼ki":3219,"ĠnastÄĻpnie":3220,"Ġpotrzebu":3221,"Ġniestety":3222,"Ġstre":3223,"Ġdrze":3224,"Ġtzw":3225,"Ġ27":3226,"Ġboha":3227,"ĠProdu":3228,"40":3229,"60":3230,"Ġgrani":3231,"Ġbudowla":3232,"Â±":3233,"Ġwarszta":3234,"ĠwystÄĻpu":3235,"ĠzgÅĤo":3236,"strzy":3237,"Ġpolega":3238,"dzeniem":3239,"ĠpracownikÃ³w":3240,"tnego":3241,"wio":3242,"tkiem":3243,"Ġutrzyma":3244,"Ġpytanie":3245,"ĠWarto":3246,"OD":3247,"ÂĽ":3248,"ĠciaÅĤa":3249,"syte":3250,"Ġjedna":3251,"Ġkrzy":3252,"tak":3253,"ĠprzecieÅ¼":3254,"ĠCza":3255,"ĠSamo":3256,"nna":3257,"Ġrozwija":3258,"Ġoto":3259,"Ġkwia":3260,"niwersyte":3261,"Ġprojek":3262,"ĠumoÅ¼liwia":3263,"Ta":3264,"Ġv":3265,"Ġrela":3266,"ĠwedÅĤug":3267,"Ġpierwszej":3268,"Ġwysy":3269,"czyÅĤa":3270,"Ġaktual":3271,"ĠzaczÄĻ":3272,"Ġsierp":3273,"Ġfe":3274,"nin":3275,"ktury":3276,"ĠmyÅĽli":3277,"ĠCentrum":3278,"ĠCzÄĻ":3279,"Ġponi":3280,"zowaÄĩ":3281,"Ġmimo":3282,"Ġwizy":3283,"Ġrodziny":3284,"ĠÄĩwi":3285,"Ġreprezen":3286,"Ġpropozy":3287,"rty":3288,"Ġtyp":3289,"Ġdelika":3290,"ĠBez":3291,"Ġlubi":3292,"ĠzaleÅ¼":3293,"Ġhu":3294,"Ġwysta":3295,"ĠÅºrÃ³d":3296,"Ġsce":3297,"ĠjakieÅĽ":3298,"ĠFe":3299,"Ġludz":3300,"ĠwspÃ³ÅĤpracy":3301,"ĠgoÅĽci":3302,"Ġemo":3303,"str":3304,"sÄħ":3305,"22":3306,"Ġ2012":3307,"ÅĽle":3308,"Ġalkoho":3309,"lew":3310,"nikiem":3311,"niony":3312,"ĠbezpoÅĽredni":3313,"mm":3314,"Ġniemie":3315,"ĠgÃ³r":3316,"ĠgÅĤÃ³wnie":3317,"Ġpoziom":3318,"ĠtÄħ":3319,"Ġl":3320,"ĠpeÅĤni":3321,"Ġ28":3322,"Ġpoczu":3323,"zje":3324,"tali":3325,"ĠjesteÅĽmy":3326,"mii":3327,"bry":3328,"ciÄħg":3329,"Ġpolskich":3330,"gach":3331,"ĠCiebie":3332,"Ġryzy":3333,"Ġtys":3334,"Ġedy":3335,"dzony":3336,"cyjnym":3337,"Ġpli":3338,"Ġdr":3339,"ĠÅĤatwo":3340,"jÃ³w":3341,"ĠwewnÄĻtrz":3342,"wnÄħtrz":3343,"ĠIII":3344,"sowe":3345,"rusza":3346,"ĠdotyczÄħce":3347,"lus":3348,"Re":3349,"ĠzamÃ³wienia":3350,"ĠdokÅĤadnie":3351,"ĠchcÄħ":3352,"Ð¸":3353,"Ġthe":3354,"chÃ³d":3355,".)":3356,"Ġinnego":3357,"Ġpodkre":3358,"Ġfan":3359,"dam":3360,"ĠmÄħ":3361,"story":3362,"glÄħd":3363,"ÅĽrod":3364,"ĠwyjÄħtk":3365,"ciÄħÅ¼":3366,"Ġzauwa":3367,"nim":3368,"grze":3369,"ĠKrzy":3370,"Ġzab":3371,"Ġpoziomie":3372,"Ġadres":3373,"Ġformie":3374,"ĠtÅĤuma":3375,"Ġzob":3376,"ĠzupeÅĤnie":3377,"Ġkolejne":3378,"Ġnajlepiej":3379,"woÅĤa":3380,"bili":3381,"ĠSt":3382,"Ġrozumie":3383,"ED":3384,"Ġkontakt":3385,"roz":3386,"__":3387,"Ġtygod":3388,"ĠPK":3389,"ĠnieruchomoÅĽci":3390,"SK":3391,"ĠzewnÄĻtrz":3392,"Ã³le":3393,"ĠÅļwia":3394,"Ġpodzie":3395,"siej":3396,"noc":3397,"ĠbÄĻdziemy":3398,"Ġinstytu":3399,"Ġpowinna":3400,"Ġwynosi":3401,"Ġzni":3402,"Ġpsycho":3403,"Ġnadal":3404,"Ġaku":3405,"Ġdzisiaj":3406,"Ġnowego":3407,"ĠmieszkaÅĦcÃ³w":3408,"ĠbÅĤÄĻ":3409,"Ġzorgani":3410,"ĠAd":3411,"ĠchociaÅ¼":3412,"ĠdÅº":3413,"Ġwyzna":3414,"ĠDzi":3415,"Ġzainteresowa":3416,"Ġodkry":3417,"zdu":3418,"lowe":3419,"fina":3420,"Ġpozytyw":3421,"Ġ26":3422,"ĠPie":3423,"Ġczemu":3424,"Ġwobec":3425,"szÅĤo":3426,"Ġkorzy":3427,"ĠWÅĤa":3428,"ownicy":3429,"ĠdruÅ¼y":3430,"ĠokreÅĽlo":3431,"Ġenergii":3432,"ket":3433,"pisu":3434,"Å¼ona":3435,"Ġmili":3436,"ĠTym":3437,"naczej":3438,"szczenie":3439,"Ġoprac":3440,"nawia":3441,"ĠiloÅĽÄĩ":3442,"ĠsÅĤ":3443,"Ġwielko":3444,"wach":3445,"ĠwÅĤÄħ":3446,"ĠsÅĤucha":3447,"dzieÅ¼y":3448,"ĠwojewÃ³dz":3449,"ownie":3450,"Ġcen":3451,"tnym":3452,"Ġkobiet":3453,"Ġbyli":3454,"jskiej":3455,"Ġdziewczy":3456,"cer":3457,"Mi":3458,"kowania":3459,"Ġkana":3460,"Ġnimi":3461,"cent":3462,"Ġkwietnia":3463,"Ġdowie":3464,"Ġzle":3465,"jaw":3466,"chody":3467,"Ġtelewi":3468,"ĠiloÅĽci":3469,"Ġwybiera":3470,"ĠpieniÄĻ":3471,"obnie":3472,"Ġwygra":3473,"tnÄħ":3474,"pisÃ³w":3475,"bel":3476,"Ġinnym":3477,"Ġniezwykle":3478,"ĠzostaÅĤo":3479,"ĠoglÄħ":3480,"Ġprzeka":3481,"mek":3482,"ÅĦczy":3483,"ĠposzczegÃ³l":3484,"Ġrado":3485,"tual":3486,"Ġrzu":3487,"cin":3488,"licza":3489,"Ġkomputer":3490,"kowaÄĩ":3491,"ĠÅĤÃ³":3492,"Ġzao":3493,"Äħc":3494,"ĠBardzo":3495,"ĠjakoÅĽÄĩ":3496,"Ġciep":3497,"lon":3498,"Ġspotkania":3499,"Ġinten":3500,"Ġtrzech":3501,"ĠmateriaÅĤÃ³w":3502,"Ġ29":3503,"wicz":3504,"Ġzakup":3505,"chÃ³w":3506,"owana":3507,"ĠPaÅĦstwa":3508,"Ġkategorii":3509,"Ġzabu":3510,"klu":3511,"towej":3512,"ĠcaÅĤego":3513,"gaÅ¼":3514,"rÃ³ciÄĩ":3515,"ĠpewnoÅĽciÄħ":3516,"zien":3517,"waniu":3518,"mp":3519,"Ġmojej":3520,"ĠpieniÄħ":3521,"Ġniewiel":3522,"Ġpotrzeby":3523,"Ġistnieje":3524,"bÃ³w":3525,"Ġpowinno":3526,"logia":3527,"Ġpoten":3528,"Ġdrodze":3529,"jazd":3530,"Ġzagro":3531,"kowego":3532,"Å¼yÅĤ":3533,"Ġsprawia":3534,"Ġzmian":3535,"Ġmogli":3536,"Ġzatem":3537,"ĠzwÅĤaszcza":3538,"Ġnorma":3539,"ĠmÃ³j":3540,"szedÅĤ":3541,"wÅĤa":3542,"ÅĦskie":3543,"Ġproduktu":3544,"ĠudaÅĤo":3545,"Ġpogo":3546,"Ġnajbli":3547,"Ġuza":3548,"ĠbezpieczeÅĦstwa":3549,"................":3550,"Ġczerwo":3551,"kierowa":3552,"Ġwycie":3553,"ĠwnÄĻ":3554,"ĠchciaÅĤ":3555,"Ġkrwi":3556,"Ġkomple":3557,"zn":3558,"Ġobser":3559,"Ġgodzin":3560,"ĠÅĽmie":3561,"ĠuczniÃ³w":3562,"Ã³wczas":3563,"tycznego":3564,"Ġpia":3565,"ĠbudÅ¼e":3566,"Ġkuch":3567,"owskiego":3568,"80":3569,"tan":3570,"Ġmarca":3571,"Ġkomfor":3572,"dziaÅĤem":3573,"Ġakcji":3574,"Ġkolek":3575,"ĠodbÄĻ":3576,"Ġgrudnia":3577,"Ġwysokiej":3578,"Ġzmniej":3579,"kaÄĩ":3580,"ÅĦskich":3581,"ĠSi":3582,"Ġpodmio":3583,"najmniej":3584,"towanie":3585,"Ġwiedzy":3586,"sjÄĻ":3587,"tle":3588,"Naj":3589,"Ġzak":3590,"ĠstanowiÄħ":3591,"ĠMam":3592,"iÄĻku":3593,"Äĺ":3594,"Ġdodatkowo":3595,"Ġorganizacji":3596,"ĠwidaÄĩ":3597,"Ġnieo":3598,"chowy":3599,"ĠMoÅ¼na":3600,"Ġdrogi":3601,"sila":3602,"ĠprowadzÄħ":3603,"Ġbudynku":3604,"Å¼ek":3605,"lacja":3606,"Ġcentrum":3607,"krotnie":3608,"wzglÄĻ":3609,"Ġspowo":3610,"Ġubezpieczenia":3611,"----":3612,"bliote":3613,"Ġpr":3614,"ĠKiedy":3615,"fie":3616,"fikacji":3617,"Ġangiel":3618,"ĠpielÄĻ":3619,"ĠrozwiÄħzania":3620,"liwoÅĽÄĩ":3621,"Ġpierwszym":3622,"ĠmiesiÄĻcy":3623,"Ġpokaza":3624,"Ã³c":3625,"czkÄĻ":3626,"mnie":3627,"Ġfar":3628,"Ġochrony":3629,"towane":3630,"ĠbÄĻdÄĻ":3631,"Ġwydaje":3632,"Ġkolejny":3633,"Ġtworzy":3634,"ĠCze":3635,"23":3636,"ĠpiÄħ":3637,"ll":3638,"Ġwykorzysty":3639,"ĠmoÅ¼liwe":3640,"Ġniedo":3641,"ĠPL":3642,"ĠtakÄħ":3643,"Ġodpowiednie":3644,"dzonych":3645,"ĠGÅĤÃ³w":3646,"Ġadministra":3647,"Ġskar":3648,"chem":3649,"Ġdysku":3650,"ĠwrÄĻ":3651,"niÅĤ":3652,"domoÅĽci":3653,"zÃ³w":3654,"Ch":3655,"ĠprÃ³b":3656,"Ġgi":3657,"Ġzestaw":3658,"Ġdyspo":3659,"pow":3660,"Ġprzeczy":3661,"ĠpodrÃ³Å¼":3662,"Ġbru":3663,"Ġnag":3664,"Ġpio":3665,"ĠzobowiÄħ":3666,"sam":3667,"Ġefekt":3668,"ÑĤ":3669,"Ġzaraz":3670,"dnik":3671,"Ġpomi":3672,"Ġdora":3673,"Ġnikt":3674,"Ġzadowo":3675,"Ġprzewi":3676,"usz":3677,"mÄħ":3678,"ger":3679,"Ġsamego":3680,"mbo":3681,"ÅĤach":3682,"cio":3683,"Wie":3684,"ĠKul":3685,":)":3686,"Ġstan":3687,"ĠwpÅĤyw":3688,"Ġwersji":3689,"Ġdrzwi":3690,"ĠwyrÃ³Å¼":3691,"jedno":3692,"Âĩ":3693,"Ġpokry":3694,"Ġuroczy":3695,"Ġplan":3696,"strzega":3697,"Ġmiesza":3698,"kÃ³j":3699,"Ġmieli":3700,"gia":3701,"Sz":3702,"Ġ)":3703,"ĠXX":3704,"Ġkonferen":3705,"nnego":3706,"Ġpkt":3707,"Ġjakby":3708,"Ġzabie":3709,"Witam":3710,"ĠsÅĤuÅ¼":3711,"ĠdostÄĻpne":3712,"ĠzaleÅ¼y":3713,"ĠNiem":3714,"ĠprzyjÄĻ":3715,"Ġzapozna":3716,"Ġbla":3717,"ĠspoÅĽrÃ³d":3718,"tyczna":3719,"Ġ;)":3720,"Ġupraw":3721,"Ġnajnow":3722,"fy":3723,"czno":3724,"Ġmonta":3725,"ckim":3726,"ĠmÅĤody":3727,"ĠobsÅĤugi":3728,"Ġstuden":3729,"skiem":3730,"ĠpodÅĤo":3731,"siÄĩ":3732,"ĠzaczÄħ":3733,"Ġrazu":3734,"Ġinfor":3735,"Ġzdrowia":3736,"Ġzapy":3737,"rzÄĻdu":3738,"NE":3739,"ning":3740,"ĠpowiedziaÅĤ":3741,"Ġodci":3742,"ĠTen":3743,"Ġkata":3744,"tacja":3745,"Ġkomp":3746,"Ġlipca":3747,"stau":3748,"gre":3749,"ft":3750,"Ġkomenta":3751,"ĠcaÅĤym":3752,"ĠNarod":3753,"Ġtur":3754,"dko":3755,"NI":3756,"ĠnadziejÄĻ":3757,"ĠWas":3758,"Ġosobowych":3759,"OL":3760,"ĠGdaÅĦ":3761,"czeni":3762,"kali":3763,"Ġwier":3764,"Ġinaczej":3765,"Ġgrafi":3766,"szek":3767,"cznymi":3768,"weÅĤ":3769,"Ġmechani":3770,"Ġodbywa":3771,"ĠKlien":3772,"Ġtera":3773,"SP":3774,"Ġstycznia":3775,"miÄħ":3776,"ĠBan":3777,"ĠÅ¼o":3778,"ĠnajbliÅ¼":3779,"ĠWia":3780,"strowa":3781,"Ġprzetwarza":3782,"ÅĽwietla":3783,"jÄħcymi":3784,"ÄĦ":3785,"ĠPor":3786,"gazy":3787,"Ġsierpnia":3788,"Ġpowinny":3789,"nÄĻÅĤa":3790,"Ġzbior":3791,"Ġzada":3792,"Ġtrzyma":3793,"Åºnie":3794,"ĠDob":3795,"ĠHe":3796,"ĠCiÄĻ":3797,"Ġdwo":3798,"ĠzwiÄħzanych":3799,"ĠprÄĻ":3800,"Ġcier":3801,"Ġjaka":3802,"Ġzja":3803,"gla":3804,"Ġinterne":3805,"ian":3806,"owcÃ³w":3807,"Ġturysty":3808,"Ġmomencie":3809,"ĠzostaÄĩ":3810,"prawy":3811,"Ġ2011":3812,"Ð½":3813,"Ġpan":3814,"jÄħÄĩ":3815,"ĠwciÄħÅ¼":3816,"ĠNiestety":3817,"Ġpostanowi":3818,"mujÄħ":3819,"ĠwiÄĻkszoÅĽÄĩ":3820,"kli":3821,"UR":3822,"ĠwybÃ³r":3823,"syj":3824,"ĠzobaczyÄĩ":3825,"].":3826,"ĠOp":3827,"stycznych":3828,"ÅĤoby":3829,"Ġgodziny":3830,"Ġkobiety":3831,"niejszy":3832,"ĠpowiedzieÄĩ":3833,"Ġpojawia":3834,"ĠpÄĻ":3835,"Ġspotkanie":3836,"Ġzaprasza":3837,"Ġsprawdza":3838,"niom":3839,"Ġpocz":3840,"ĠmuszÄħ":3841,"Ġatmos":3842,"strz":3843,"dowe":3844,"ĠUniwersyte":3845,"ĠnaszÄħ":3846,"plo":3847,"kowany":3848,"Ġhote":3849,"Ġmocno":3850,"Ġponow":3851,"rzeÄĩ":3852,"Ġsia":3853,"kowanie":3854,"Ġkonku":3855,"stych":3856,"Ġprodukt":3857,"OM":3858,"AD":3859,"Ġruchu":3860,"Ġinny":3861,"ale":3862,"Ġtrans":3863,"ĠInforma":3864,"Ġucz":3865,"45":3866,"ĠzwyciÄĻ":3867,"Å¼ar":3868,"Ġproc":3869,"Ġproblemy":3870,"ĠÅļlÄħ":3871,"ĠumiejÄĻtnoÅĽci":3872,"Ġmodel":3873,"ĠwybraÄĩ":3874,"ĠurzÄħdzeÅĦ":3875,"ĠporÃ³wna":3876,"Ġuszko":3877,"Ġautoma":3878,"Ġfunkcjona":3879,"Ġprezyden":3880,"ĠÅĤo":3881,"Ġjakiego":3882,"jmy":3883,"wana":3884,"stwie":3885,"Ġdyrek":3886,"ĠprawidÅĤ":3887,"Ġode":3888,"ksyma":3889,"camy":3890,"ĠdziaÅĤaÅĦ":3891,"Ġucie":3892,"Ġserii":3893,"Ġgdyby":3894,"Ġnagro":3895,"letni":3896,"lnia":3897,"ĠszczÄĻ":3898,"ĠPani":3899,"szty":3900,"Ġwyz":3901,"wka":3902,"imna":3903,"ĠspeÅĤnia":3904,"czyli":3905,"Ġpoje":3906,"Ġwarunki":3907,"zem":3908,"legÅĤoÅĽci":3909,"Ġsuper":3910,"Ġpapie":3911,"Ġmln":3912,"ctwem":3913,"Ġchcesz":3914,"ĠszczegÃ³ÅĤ":3915,"Ġniedzie":3916,"Ġuzu":3917,"**":3918,"Ġ80":3919,"Ġcena":3920,"Ġwystarczy":3921,"jach":3922,"ĠSzy":3923,"ĠcaÅĤÄħ":3924,"ĠPowia":3925,"ĠznajdujÄħ":3926,"ĠtreÅĽci":3927,"Ġsoli":3928,"Ġofi":3929,"wski":3930,"ĠMicha":3931,"ĠâĢ¦":3932,"Ġkomi":3933,"Ġodpowiedzi":3934,"Ġster":3935,"ĠkiedyÅĽ":3936,"ĠmiÄĻdzynarod":3937,"iÄĻcej":3938,"Ġprzekaza":3939,"rzem":3940,"towarzy":3941,"Ġnami":3942,"dzieÅĦ":3943,"ĠnajczÄĻÅĽciej":3944,"ĠbadaÅĦ":3945,"ÅĽciu":3946,"Ġlotni":3947,"Ġeduka":3948,"Ġopro":3949,"Ġkierunku":3950,"Ġzakresu":3951,"decznie":3952,"ĠNau":3953,"dziÅĤa":3954,"Ġprzesz":3955,"Ġwykonania":3956,"Ġkart":3957,"Ġdra":3958,"Ġopowie":3959,"Ġoferuje":3960,"Ġbro":3961,"ĠSP":3962,"IT":3963,"mowe":3964,"ĠkupiÄĩ":3965,"Ġdoj":3966,"rki":3967,"Ġdzisiej":3968,"dnio":3969,"ĠWÅĤo":3970,"27":3971,"ĠWiel":3972,"Ġwoj":3973,"pierw":3974,"czymy":3975,"ÅĽciÄĩ":3976,"Ġwspiera":3977,"nicja":3978,"owoÅĽÄĩ":3979,"ciÅĤ":3980,"Ġstylu":3981,"ĠWszystkie":3982,"Ġwyboru":3983,"Ġniemal":3984,"Ġdopa":3985,"sob":3986,"Ġmusia":3987,"Ġzaa":3988,"Ġoba":3989,"Ġpewnie":3990,"Ġoj":3991,"Ġdoskonale":3992,"ĠOczywiÅĽcie":3993,"ĠdziaÅĤalnoÅĽÄĩ":3994,"Ġprzedszko":3995,"sÄĻ":3996,"Ġpraca":3997,"ĠSie":3998,"deÅĤ":3999,"zwyczaj":4000,"ĠwÅĤosÃ³w":4001,"ĠdÅĤuÅ¼":4002,"wanych":4003,"26":4004,"Ġzwyk":4005,"!!!":4006,"ĠpowaÅ¼":4007,"Ġkocha":4008,"ĠogÅĤoszenia":4009,"Ġdlaczego":4010,"Ġopo":4011,"zny":4012,"ĠFor":4013,"mieni":4014,"ryta":4015,"ĠsprzedaÅ¼":4016,"Ġzwro":4017,"Ġumy":4018,"Ġwin":4019,"Ġoni":4020,"krzy":4021,"ol":4022,"stki":4023,"Ġwygod":4024,"Ġgrup":4025,"ĠJan":4026,"Ġtrudno":4027,"ĠwspÃ³ÅĤczes":4028,"Ġzadania":4029,"ĠjesteÅĽ":4030,"lina":4031,"ĠzajÄĻcia":4032,"ĠpieniÄħdze":4033,"Ġwyraz":4034,"nionych":4035,"Å¼ka":4036,"ĠMiasta":4037,"Ġdem":4038,"Ġlitera":4039,"nkiem":4040,"woÅĽci":4041,"ĠciÄħg":4042,"Ġkolei":4043,"US":4044,"ĠPonad":4045,"ĠÅģa":4046,"ĠWojewÃ³dz":4047,"Ġprzyda":4048,"Ġfunkcjon":4049,"Ġand":4050,"ÑĢ":4051,"ĠuÅĤat":4052,"Ġprzedstawia":4053,"skÃ³w":4054,"Ġpotencja":4055,"ĠwziÄĻ":4056,"del":4057,"ĠRob":4058,"ĠPaÅĦstwo":4059,"waÅĤa":4060,"Ġofercie":4061,"Ġpodoba":4062,"Ġen":4063,"ĠĠ":4064,"Ġtka":4065,"www":4066,"niami":4067,"wajÄħ":4068,"âĢ¦]":4069,"Ġodpor":4070,"rego":4071,"Ġpozwoli":4072,"Ġmikro":4073,"leko":4074,"Ġnume":4075,"torzy":4076,"sma":4077,"Ġ2010":4078,"ĠBoga":4079,"owarzy":4080,"ĠelementÃ³w":4081,"Ñģ":4082,"Ġinternetowej":4083,"ĠpaÅĦstwa":4084,"ĠmiÅĤo":4085,"kru":4086,"Ġotrzy":4087,"dom":4088,"ks":4089,"ĠogÃ³le":4090,"Ġstosowa":4091,"Ġobra":4092,"Ġprace":4093,"Ġfakt":4094,"Ġkup":4095,"Ġmedia":4096,"cyjnÄħ":4097,"zeum":4098,"Ġforum":4099,"cale":4100,"Ġkogo":4101,"noszÄħ":4102,"wne":4103,"ĠwiÄħ":4104,"irma":4105,"ĠPoz":4106,"Å¼eÅĦ":4107,"bija":4108,"ĠTeraz":4109,"ĠczÅĤowiek":4110,"szem":4111,"Ġmor":4112,"Ġjakich":4113,"Ġuwagi":4114,"Ġwykonane":4115,"terze":4116,"Ġzwo":4117,"ĠproblemÃ³w":4118,"mart":4119,"Ġkomplek":4120,"ĠzachÄĻ":4121,"diÃ³w":4122,"ĠÅĤazien":4123,"kwi":4124,"Ġdba":4125,"ĠpoÅĽredni":4126,"Ġdosto":4127,"ĠWam":4128,"Ġadre":4129,"ĠÅ¼adnych":4130,"owska":4131,"Ġhistory":4132,"mienie":4133,"chwy":4134,"Ġostatnich":4135,"Ġorze":4136,"rat":4137,"Ġchro":4138,"nok":4139,"Ġprzypomina":4140,"leni":4141,"Ġtr":4142,"Ġubra":4143,"mowaÄĩ":4144,"Ġpopraw":4145,"Ġprzesy":4146,"ĠzdjÄĻÄĩ":4147,"ĠmiejscowoÅĽci":4148,"Ġproste":4149,"ĠTrze":4150,"ĠbieÅ¼Äħ":4151,"Ġsprawy":4152,"kier":4153,"les":4154,"Ġgatu":4155,"Ġklienta":4156,"Ġprawda":4157,"ĠrozwÃ³j":4158,"ĠStu":4159,"ĠzespÃ³ÅĤ":4160,"ĠniezaleÅ¼":4161,"ĠÅĽwiÄħ":4162,"Ġdeko":4163,"deo":4164,"Ġulu":4165,"ĠsamochodÃ³w":4166,"ÅĦca":4167,"Ġczwar":4168,"Ġmoja":4169,"et":4170,"ĠspoÅ¼y":4171,"ĠTra":4172,"Ġuczu":4173,"Ġdniach":4174,"Ġobo":4175,"Ġkuchni":4176,"krai":4177,"ĠniektÃ³rych":4178,"ÅĽciami":4179,"nowaÄĩ":4180,"kÄħd":4181,".:":4182,"ĠudostÄĻp":4183,"09":4184,"ĠTar":4185,"05":4186,"nujemy":4187,"sowych":4188,"pii":4189,"ĠposÅĤu":4190,"prawa":4191,"ĠodÅ¼y":4192,"owaÅĤa":4193,"21":4194,"Ġjazdy":4195,"Ġpory":4196,"Ġsobo":4197,"Ġlinii":4198,"kacje":4199,"ĠkrÄĻ":4200,"nice":4201,"Dla":4202,"ĠrobiÄĩ":4203,"ĠMiÄĻ":4204,"Ġtwarzy":4205,"Ġmagazy":4206,"AW":4207,"ĠzobowiÄħza":4208,"ĠSpe":4209,"Ġkonkuren":4210,"dla":4211,"ĠgÅĤÄĻbo":4212,"Ġkandy":4213,"Ġunika":4214,"Ġsyste":4215,"towego":4216,"Ġwybor":4217,"28":4218,"Ġdotyczy":4219,"Ġnar":4220,"ĠAby":4221,"rodek":4222,"dzona":4223,"godni":4224,"tychczas":4225,"Ġotwo":4226,"Ġsamodzie":4227,"ĠwÃ³wczas":4228,"Ġnumer":4229,"ĠdziaÅĤanie":4230,"np":4231,"ĠwzglÄĻdem":4232,"waÅ¼a":4233,"Ġnaby":4234,"dak":4235,"guje":4236,"OS":4237,"Ġzdecydowanie":4238,"Ġchi":4239,"tujÄħ":4240,"tkÄħ":4241,"ĠchwilÄĻ":4242,"Ġwil":4243,"Ġsporo":4244,"dowych":4245,"stym":4246,"Ġzagrani":4247,"spa":4248,"Ġdecyzji":4249,"ĠpomysÅĤ":4250,"wil":4251,"Ġum":4252,"Ġche":4253,"Ġpowinni":4254,"koÅĤa":4255,"Ġpropo":4256,"ĠThe":4257,"Ġproblemu":4258,"sje":4259,"Ġzwykle":4260,"Å¼eniu":4261,"Ġprof":4262,"biÃ³r":4263,"twÃ³r":4264,"Ġkapita":4265,"ĠmaÅĤ":4266,"onie":4267,"ĠKaÅ¼dy":4268,"sÅĤawa":4269,"Ġzastosowa":4270,"AK":4271,"racja":4272,"Ġ198":4273,"Ġnarod":4274,"kade":4275,"Ġgenera":4276,"Ġinteresu":4277,"sc":4278,"Ġelementy":4279,"ĠMÅĤo":4280,"Ġpolskiej":4281,"Ġameryka":4282,"ĠrodzicÃ³w":4283,"Ġblisko":4284,"Ġciem":4285,"ĠPow":4286,"Ġgar":4287,"IS":4288,"Ġprofi":4289,"simy":4290,"prawia":4291,"ĠodbÄĻdzie":4292,"Ġklucz":4293,"Ġdocho":4294,"Ġmoich":4295,"Ġ=":4296,"ĠpoÅĤu":4297,"ĠzapÅĤa":4298,"Ġmocy":4299,"Ġher":4300,"Ġzasila":4301,"jnych":4302,"06":4303,"wentual":4304,"Ġszpita":4305,"ĠOrgani":4306,"Ġrozmia":4307,"rzÄħdzenie":4308,"Ġzmar":4309,"III":4310,"Ġy":4311,"szymi":4312,"stka":4313,"wacji":4314,"ĠStowarzy":4315,"strza":4316,"ĠbezpoÅĽrednio":4317,"Ġproces":4318,"Ġwprowadza":4319,"mail":4320,"OT":4321,"03":4322,"dnienia":4323,"Ġstanu":4324,"Åºni":4325,"ÅĽcioÅĤa":4326,"kÅĤady":4327,"Ġzamiast":4328,"ĠzaleÅ¼noÅĽci":4329,"ĠszczÄĻÅĽcie":4330,"mujemy":4331,"Ġobok":4332,"zowany":4333,"Ġukry":4334,"samowi":4335,"ĠzÅĤotych":4336,"Ġostatnie":4337,"niec":4338,"ĠmieÅĽcie":4339,"ĠBÄĻ":4340,"ĠzamkniÄĻ":4341,"lient":4342,"kowo":4343,"dka":4344,"AS":4345,"ĠStra":4346,"szto":4347,"ĠÅĽci":4348,"Ġbohater":4349,"piÄħ":4350,"ĠÅĽcie":4351,"Ġtajem":4352,"pina":4353,"EG":4354,"Ġopisa":4355,"Ġ[âĢ¦]":4356,"orÃ³w":4357,"toli":4358,"ĠKi":4359,"piÄĩ":4360,"tykÃ³w":4361,"04":4362,"Â¿":4363,"ÅĦskim":4364,"ĠjÄĻzyka":4365,"ÅĤnie":4366,"kle":4367,"Ġcywi":4368,"end":4369,"szpa":4370,"lowych":4371,"Ġmowa":4372,"ĠCy":4373,"ĠgÃ³ry":4374,"dowania":4375,"Ġnowej":4376,"ĠokreÅĽla":4377,"Ġszla":4378,"owaniem":4379,"gne":4380,"ĠrozwiÄħzanie":4381,"ĠcaÅĤkowicie":4382,"ĠwartoÅĽÄĩ":4383,"Ġprzewodni":4384,"infor":4385,"Ġwyniki":4386,"Ġolej":4387,"Å¼eniem":4388,"styczny":4389,"Ġzasady":4390,"Ġprzesta":4391,"dnym":4392,"Ġnajlepsze":4393,"toÅĽci":4394,"ĠUSA":4395,"ĠudziaÅĤu":4396,"ciela":4397,"tyma":4398,"Ġdoko":4399,"ĠVi":4400,"ĠKrÃ³":4401,"mac":4402,"Ġgwia":4403,"ĠobjÄĻ":4404,"onÃ³w":4405,"lety":4406,"Ġpolskiego":4407,"Ð¾Ð":4408,"stawy":4409,"nnej":4410,"telni":4411,"Ġkandyda":4412,"Ġserca":4413,"fu":4414,"Ġszkolenia":4415,"Ġwyniku":4416,"ĠzespoÅĤu":4417,"Ġpytania":4418,"ĠUÅ¼y":4419,"turze":4420,"Ġsur":4421,"ĠdoÅĽwiadczenie":4422,"Ġpani":4423,"EL":4424,"ĠpodrÃ³":4425,"Ġmaksyma":4426,"zes":4427,"cm":4428,"ĠgorÄħ":4429,"ĠuwzglÄĻ":4430,"tnoÅĽÄĩ":4431,"Ġbrz":4432,"ĠzakÅĤada":4433,"Ġrza":4434,"rag":4435,"ĠSza":4436,"Ġ90":4437,"ĠÅĤy":4438,"ãģ":4439,"Ġposzuki":4440,"Ġzaga":4441,"ĠkosztÃ³w":4442,"ĠmiÅĤoÅĽci":4443,"ciele":4444,"Li":4445,"Ġtwier":4446,"tanie":4447,"ĠgÅĤowy":4448,"ĠwiÄĻkszoÅĽci":4449,"Ġdostaw":4450,"strzo":4451,"Ġdrob":4452,"Ġmojego":4453,"Ġrestau":4454,"ĠGÃ³":4455,"angaÅ¼":4456,"Ġzaprezen":4457,"czyn":4458,"zÅĤ":4459,"ĠEl":4460,"Ġdostarcza":4461,"Ġ70":4462,"Ġkultury":4463,"Ġam":4464,"ET":4465,"lot":4466,"Ġ31":4467,"Ġobli":4468,"Ġzebra":4469,"Ġskierowa":4470,"Ġprawdopod":4471,"Ġabso":4472,"ÅĤania":4473,"tycznym":4474,"ĠcaÅĤe":4475,"ĠNastÄĻp":4476,"dru":4477,"Ġintensyw":4478,"Ġprzynajmniej":4479,"iusz":4480,"logiczne":4481,"Ġpojem":4482,"Ġstrze":4483,"Ġwcale":4484,"ĠdÅĤugi":4485,"ĠQ":4486,"2017":4487,"Ġ'":4488,"Ġmiasto":4489,"zda":4490,"Ġzawie":4491,"Ġhe":4492,"ĠwystÄĻp":4493,"czem":4494,"bki":4495,"mowania":4496,"jeÅ¼d":4497,"Ġmoni":4498,"Ġstaje":4499,"Ty":4500,"ĠDru":4501,"fr":4502,"EM":4503,"Ġniewy":4504,"cjo":4505,"Ġbada":4506,"Ġbiur":4507,"wiej":4508,"Ġkonty":4509,"Ġwypowie":4510,"nospraw":4511,"ĠzakÅĤad":4512,"Ġulicy":4513,"Ġuchwa":4514,"ĠÅĽlub":4515,"07":4516,"ĠWykona":4517,"Ġole":4518,"Ġsklepu":4519,"Ġlutego":4520,"ĠukÅĤad":4521,"Ġtechnologii":4522,"Ġnauki":4523,"leÅĦ":4524,"ĠwarunkÃ³w":4525,"ĠWil":4526,"towaÅĤ":4527,"Ġdrewnia":4528,"ĠPodczas":4529,"Ġhy":4530,"Ġpisze":4531,"Ġofia":4532,"ĠbÄĻdziesz":4533,"ĠmiaÅĤy":4534,"Å¼onych":4535,"Ġprzyro":4536,"Ġmin":4537,"ĠSte":4538,"Ġmodli":4539,"wskiego":4540,"szone":4541,"ĠInstytu":4542,"Ġgminy":4543,"Ġjakiej":4544,"ĠzostanÄħ":4545,"08":4546,"sf":4547,"Ġosie":4548,"Ġ&":4549,"fikowa":4550,"Ġkolorze":4551,"Ġzgod":4552,"ĠduÅ¼Äħ":4553,"sci":4554,"Ġodpowiednio":4555,"ĠwraÅ¼enie":4556,"dÅĤa":4557,"arÃ³w":4558,"Ġwios":4559,"ĠÅĽrodowiska":4560,"dyn":4561,"king":4562,"Ġsubstan":4563,"Ġobja":4564,"Ġreli":4565,"Ġobni":4566,"ecnie":4567,"Ġdoprowa":4568,"Ġcelem":4569,"29":4570,"ĠkomÃ³r":4571,"cesor":4572,"Ġciekawe":4573,"ĠSpraw":4574,"owca":4575,"rodzi":4576,"ĠzadaÅĦ":4577,"ĠMiÄĻdzy":4578,"enty":4579,"Ġit":4580,"Å¼ki":4581,"ĠJana":4582,"ĠwziÄħ":4583,"ĠWal":4584,"Ġnasza":4585,"Ġpolecam":4586,"Ġzapraszamy":4587,"turÄĻ":4588,"towany":4589,"piÄĻk":4590,"groma":4591,"rowaÄĩ":4592,"Ġ!":4593,"ĠPiotr":4594,"ĠniepeÅĤ":4595,"stoÅĽÄĩ":4596,"Ġelegan":4597,"ĠmogÅĤa":4598,"komi":4599,"Ġobywa":4600,"Ġwarunkach":4601,"ĠnapiÄĻ":4602,"macnia":4603,"ĠbranÅ¼y":4604,"cone":4605,"ĠpaÅĦstw":4606,"ĠplacÃ³w":4607,"Ġzatrzyma":4608,"ĠponiÅ¼ej":4609,"Ġwydarzenia":4610,"dwie":4611,"wiÄĻcej":4612,"Ġzazna":4613,"No":4614,"czer":4615,"cina":4616,"wiÅĤ":4617,"ĠzaangaÅ¼":4618,"Ġegza":4619,"ĠmaÅĤe":4620,"ĠsprzÄĻtu":4621,"sowy":4622,"fra":4623,"ĠÅĽmierci":4624,"Ġorga":4625,"ĠÅģo":4626,"reszcie":4627,"ĠBra":4628,"Ġpoinfor":4629,"czoraj":4630,"ou":4631,"ĠporzÄħd":4632,"ĠÅĽle":4633,"Å¼em":4634,"Ġporo":4635,"waÅĤy":4636,"ĠpieniÄĻdzy":4637,"Ġ500":4638,"ĠtysiÄĻcy":4639,"Ġwytrzyma":4640,"ĠzÅĤa":4641,"Ġterminie":4642,"Ġziemi":4643,"Ġpokoju":4644,"Ġopowiada":4645,"Ġzbli":4646,"grywa":4647,"jÄħco":4648,"ruje":4649,"ĠczynnoÅĽci":4650,"ĠWszystko":4651,"ĠSpÃ³ÅĤ":4652,"ĠdokÅĤad":4653,"ĠwokÃ³ÅĤ":4654,"35":4655,"gda":4656,"szczÄħ":4657,"Ġtelefon":4658,"Ġjesie":4659,"Ġ35":4660,"dawcy":4661,"dniki":4662,"Ġzagra":4663,"ĠbezpÅĤa":4664,"ĠToma":4665,"ĠPonadto":4666,"Ġfran":4667,"zowanych":4668,"ingu":4669,"cti":4670,"mieniu":4671,"Ġeuropej":4672,"Ġtea":4673,"ĠPodstaw":4674,"Ġdotychczas":4675,"Ġmieszkania":4676,"Ob":4677,"ĠwypeÅĤ":4678,"ĠuÅ¼ywane":4679,"Ġtor":4680,"ĠosiÄħgniÄĻ":4681,"Ġsklepie":4682,"ĠKultury":4683,"ĠÅĽwietnie":4684,"ĠposzczegÃ³lnych":4685,"ĠwÅĤosy":4686,"Ã©":4687,"02":4688,"Ġpierwszego":4689,"jek":4690,"son":4691,"teli":4692,"Ġlekko":4693,"nal":4694,"Ġewentual":4695,"zdra":4696,"Ġekonomi":4697,"Ġpodatk":4698,"Ġzdaniem":4699,"szczo":4700,"Ġzi":4701,"Ġ2009":4702,"dki":4703,"ĠszczegÃ³lnoÅĽci":4704,"cjali":4705,"Ġwzo":4706,"ĠBoÅ¼e":4707,"ĠspoÅĤecze":4708,"Ġsymbo":4709,"Ġcharakter":4710,"Ġdoros":4711,"Ġkolejnych":4712,"ĠwiadomoÅĽci":4713,"jski":4714,"Ġzaka":4715,"ĠðŁĻ":4716,"parta":4717,"Ġniesamowi":4718,"owiec":4719,"ĠHu":4720,"Ġefektyw":4721,"KA":4722,"Ġwraca":4723,"Ġsyn":4724,"ksu":4725,"czar":4726,"kor":4727,"Ġrowe":4728,"Ġpal":4729,"Ġnasi":4730,"Ġszans":4731,"Ġkor":4732,"Ġrozpozna":4733,"talu":4734,"ĠszkÃ³ÅĤ":4735,"Ġsami":4736,"ĠOsta":4737,"ĠuczestnikÃ³w":4738,"ĠWin":4739,"Ġniebie":4740,"ĠprzepisÃ³w":4741,"ĠEuropy":4742,"Ġkonkursu":4743,"Ġidzie":4744,"ĠoszczÄĻ":4745,"ĠRegu":4746,"sow":4747,"Ġzdecydowa":4748,"Ġkoszty":4749,"Ġatmosfe":4750,"Ġdzieje":4751,"ĠuÅ¼ytkownikÃ³w":4752,"Ġpodpisa":4753,"Ġobszar":4754,"39":4755,"ĠpunktÃ³w":4756,"ĠdotyczÄħcych":4757,"Ġseria":4758,"zdÃ³w":4759,"ĠPana":4760,"Ġstrate":4761,"NA":4762,"ĠsiÃĦ":4763,"terii":4764,"Ġbram":4765,"ĠdoÅĽwiadczenia":4766,"stego":4767,"Ġpozycji":4768,"Ġwese":4769,"ĠuÅĽmie":4770,"sekwen":4771,"Ġostatnio":4772,"ven":4773,"OP":4774,"Ġpunk":4775,"ĠsprzÄĻt":4776,"chaÄĩ":4777,"kowym":4778,"ght":4779,"ĠJuÅ¼":4780,"\\\\":4781,"Ġbym":4782,"Ġwszelkie":4783,"trzeb":4784,"Tak":4785,"Ġsamej":4786,"jna":4787,"Ġodzy":4788,"Ġmusimy":4789,"Bar":4790,"ĠTV":4791,"Ġczo":4792,"ĠsiÅĤ":4793,"Ġport":4794,"Ġudziela":4795,"Ġwykorzystu":4796,"Ġposzu":4797,"Ġzare":4798,"ĠSprze":4799,"Ġkonstruk":4800,"Ġzajmuje":4801,"at":4802,"niona":4803,"Roz":4804,"Ġ*":4805,"ĠGÃ³r":4806,"Ġodw":4807,"dzanie":4808,"Ġoku":4809,"Ġrach":4810,"Ġutra":4811,"ĠKomi":4812,"wielbia":4813,"Ġnajlepszych":4814,"ĠKrakowie":4815,"Ġwypadku":4816,"ciÃ³ÅĤ":4817,"Ġtez":4818,"torium":4819,"Ġinspi":4820,"Ġhar":4821,"Ġregular":4822,"metry":4823,"ĠcaÅĤkiem":4824,"Ġzacho":4825,"ĠzÄĻ":4826,"ĠPole":4827,"ssi":4828,"stej":4829,"Ġwas":4830,"waj":4831,"Ġprzestrzeni":4832,"ĠChry":4833,"Ġszere":4834,"ĠdoÅĤÄħ":4835,"gÅĤÄĻ":4836,"Ġostate":4837,"Ġpodda":4838,"dnego":4839,"Ġchoroby":4840,"Ġbudowy":4841,"niÄĻcia":4842,"dzania":4843,"Ġoficja":4844,"port":4845,"Ġwyobra":4846,"ĠPubli":4847,"nictwo":4848,"Ġinstru":4849,"rzuca":4850,"prawie":4851,"ĠwÅĤasne":4852,"toÅĽÄĩ":4853,"Ġagen":4854,"Ġpodobnie":4855,"ĠST":4856,"jeÅ¼dÅ¼a":4857,"ĠpostÄĻpowania":4858,"produ":4859,"Ġniebezpie":4860,"Ġfunkcji":4861,"ĠtworzÄħ":4862,"terna":4863,"rej":4864,"ÅĦstwie":4865,"nujÄħ":4866,"ĠCzÄĻsto":4867,"Ġzmieni":4868,"ĠprzeglÄħ":4869,"ÅĽciej":4870,"ĠzaÅĤÄħ":4871,"Ġpali":4872,"ĠpamiÄĻtaÄĩ":4873,"nÃ³":4874,"Ġporusza":4875,"2016":4876,"Ġsumie":4877,"ĠrÃ³wno":4878,"Ġnowa":4879,"Ġfinan":4880,"ĠmiaÅĤam":4881,"ĠðŁĻĤ":4882,"kcja":4883,"Ġstandard":4884,"ĠÅ¼Ã³ÅĤ":4885,"Ġur":4886,"Ġwyka":4887,"Ġpierwszych":4888,"Ġliczba":4889,"ĠzwierzÄĻ":4890,"Ġobsza":4891,"jÄħÅĤ":4892,"ĠChi":4893,"Ġpowro":4894,"ĠrolÄĻ":4895,"dnej":4896,"Ġ000":4897,"rzÄħdzenia":4898,"Ġsprawa":4899,"gÃ³":4900,"Ġniech":4901,"Ġnazwi":4902,"Ġcentra":4903,"Ġapara":4904,"ĠcaÅĤoÅĽci":4905,"Ġuczy":4906,"ĠprzeÅ¼y":4907,"tujemy":4908,"Ġstopni":4909,"Ġspad":4910,"Ġpowszech":4911,"Ġinnowa":4912,"obraz":4913,"pki":4914,"lti":4915,"Ġkrea":4916,"Ġpowietrza":4917,"ĠRodzi":4918,"ĠPoza":4919,"We":4920,"gami":4921,"ĠÅĤu":4922,"Ġjuz":4923,"Ġkwali":4924,"Ġpiersi":4925,"Ġinwestycji":4926,"nale":4927,"Ġkoszt":4928,"Ġodbior":4929,"mery":4930,"Ġstrona":4931,"Ġkilo":4932,"ĠurzÄĻ":4933,"ĠCzar":4934,"Ġskoro":4935,"ĠOl":4936,"grodzenia":4937,"ĠDziaÅĤa":4938,"Ġpomieszcze":4939,"Ġaplikacji":4940,"Ġwarzy":4941,"Ġdow":4942,"Ġzwraca":4943,"Ġmarket":4944,"Ġj":4945,"ĠpamiÄĻci":4946,"Ġspecy":4947,"spekty":4948,"AP":4949,"ĠzajÄĻÄĩ":4950,"ĠbÅĤo":4951,"rzÄħt":4952,"brze":4953,"Ġdrog":4954,"dry":4955,"jak":4956,"Ġpowoduje":4957,"rzeniu":4958,"ĠdrogÄħ":4959,"ÅĤod":4960,"ĠjakoÅĽ":4961,"Ġopieku":4962,"Ġzbiera":4963,"Ġzanie":4964,"Ġela":4965,"ĠgÅĤoÅĽ":4966,"Ġchcemy":4967,"rzone":4968,"Ġrejestra":4969,"ÅĤowi":4970,"pÃ³w":4971,"ĠrÃ³Å¼no":4972,"gnÄħÄĩ":4973,"ES":4974,"Ġponownie":4975,"spie":4976,"ĠduÅ¼ej":4977,"dawca":4978,"Ġstandar":4979,"ĠprÄħ":4980,"twie":4981,"ĠOgÃ³l":4982,"czyk":4983,"Ġwojny":4984,"EK":4985,"Ġwojs":4986,"Ġpoziomu":4987,"kacja":4988,"mowanie":4989,"ĠprzyszÅĤoÅĽci":4990,"ĠBer":4991,"dzimy":4992,"Ġspi":4993,"Ġakcesor":4994,"Ġodczu":4995,"dziaÅĤy":4996,"dziÄĻ":4997,"jÄĻcie":4998,"nikami":4999,"Ġpodatku":5000,"ĠFunda":5001,"nowu":5002,"skÄĻ":5003,"noÅĽ":5004,"Ġmasa":5005,"wiaÄĩ":5006,"ĠPamiÄĻ":5007,"owali":5008,"Ġstyl":5009,"Ġznaczenie":5010,"Ġteren":5011,"ĠpielÄĻgna":5012,"czoÅĽci":5013,"War":5014,"ĠoÅĽwiad":5015,"Ġkonsekwen":5016,"Ġinstalacji":5017,"ĠIV":5018,"Ġkrze":5019,"Ġofert":5020,"nieÅĽÄĩ":5021,"ĠwÄħtp":5022,"ĠwrÄĻcz":5023,"ĠKatowi":5024,"...)":5025,"ktura":5026,"90":5027,"Ġinternetowych":5028,"Ġkola":5029,"kracza":5030,"Ġ2008":5031,"Ġtj":5032,"Ġszczy":5033,"zeta":5034,"Ġsztuki":5035,"ĠoÅĽwiet":5036,"Ġzrozumie":5037,"70":5038,"rzyÅĤ":5039,"Ġutrzy":5040,"ĠKraj":5041,"Ġwitami":5042,"Ra":5043,"ĠIm":5044,"Ġkg":5045,"Ãħ":5046,"Ġpaz":5047,"ĠIz":5048,"33":5049,"Ġniniej":5050,"ĠwysÅĤa":5051,"ĠmiaÅĤo":5052,"ĠnastÄħpi":5053,"Ġwniosku":5054,"Ba":5055,"ĠXV":5056,"iach":5057,"Ġgeo":5058,"Ġcenie":5059,"ĠEle":5060,"ĠuzyskaÄĩ":5061,"ĠmiÄĻk":5062,"Ä¹Åºe":5063,"ĠTur":5064,"dziale":5065,"Ġformy":5066,"stawa":5067,"Ġchrze":5068,"Ġsamochodu":5069,"Ġpolski":5070,"dnÄħ":5071,"Ġpane":5072,"bierz":5073,"Ġprzer":5074,"ĠÅĽre":5075,"Ġmetody":5076,"ĠrozwiÄħzaÅĦ":5077,"Ġzdrowo":5078,"Ġzachwy":5079,"wolu":5080,"imi":5081,"Pra":5082,"Ġznajdziesz":5083,"Ġkontroli":5084,"Ġprosto":5085,"ĠPolakÃ³w":5086,"ÅĽciÃ³ÅĤ":5087,"ĠczegoÅĽ":5088,"kola":5089,"Kon":5090,"ÅĽcija":5091,"ml":5092,"Ġidealnie":5093,"Ġwypa":5094,"ĠpowyÅ¼ej":5095,"ĠniepeÅĤnospraw":5096,"Ġrezer":5097,"ĠStani":5098,"ĠOn":5099,"alne":5100,"Ġstoi":5101,"Ġspoj":5102,"ĠofertÄĻ":5103,"ĠnaleÅ¼Äħ":5104,"Bo":5105,"Ġweek":5106,"ĠSpoÅĤe":5107,"cony":5108,"ktor":5109,"dle":5110,"dej":5111,"ĠczÅĤonkÃ³w":5112,"Ġtygodniu":5113,"ĠCon":5114,"woz":5115,"ĠmateriaÅĤ":5116,"lim":5117,"Ġzreali":5118,"Ġzasad":5119,"Ġniewie":5120,"Ġner":5121,"ktuali":5122,"biÄĻ":5123,"cyjnie":5124,"Ġozd":5125,"Ġpolskim":5126,"Ġ45":5127,"dyna":5128,"szczu":5129,"zowie":5130,"Ġbry":5131,"Ġzabra":5132,"tarz":5133,"kÅĤadzie":5134,"ĠsprawdziÄĩ":5135,"ĠChrystu":5136,"Ġbal":5137,"ĠZapraszamy":5138,"czania":5139,"ĠWiadomoÅĽci":5140,"jskich":5141,"Ġenerge":5142,"Ġmen":5143,"nom":5144,"Ġsygna":5145,"PS":5146,"Ġstopniu":5147,"ĠSan":5148,"ĠprojektÃ³w":5149,"gn":5150,"Ġreak":5151,"ĠwyÅĽwietla":5152,"ĠproszÄĻ":5153,"Ã³ze":5154,"Dzi":5155,"ĠpochodzÄħ":5156,"kien":5157,"czÄħcy":5158,"ĠTylko":5159,"Ġtable":5160,"rabia":5161,"Ġdodatkowe":5162,"ĠPrzez":5163,"lak":5164,"tania":5165,"Ġwarsza":5166,"Ġuz":5167,"Ġwieczo":5168,"tÄħd":5169,"Ġelektro":5170,"kimi":5171,"Ġsalo":5172,"Ġ2007":5173,"ĠkaÅ¼da":5174,"Ġminima":5175,"ĠmÅĤodzieÅ¼y":5176,"Ġzazwyczaj":5177,"ĠRP":5178,"Ġstosunku":5179,"ĠzwiÄĻksza":5180,"Ġwywo":5181,"kiet":5182,"tycznÄħ":5183,"ĠÅ»e":5184,"ĠprzemysÅĤ":5185,"Å¼ne":5186,"Ġbraku":5187,"ogle":5188,"ĠdokumentÃ³w":5189,"ĠWs":5190,"ĠPosiada":5191,"ĠmaÅĤych":5192,"Ġruch":5193,"44":5194,"Ġdobrym":5195,"rka":5196,"mai":5197,"Ġzmy":5198,"spoli":5199,"Ġmalu":5200,"Ġznaczy":5201,"sÅĤem":5202,"giÄĻ":5203,"Ġcztery":5204,"Ġzabaw":5205,"Ġzabawy":5206,"prost":5207,"Ġpowierzch":5208,"zycji":5209,"ĠPraw":5210,"Ġbior":5211,"Ġdobrej":5212,"Ġkontra":5213,"Ġserwis":5214,"ĠpomÃ³c":5215,"wÃ³d":5216,"wska":5217,"ĠWarszawy":5218,"Ġnocy":5219,"Ġpobli":5220,"ĠDodatkowo":5221,"Ġgimna":5222,"owcy":5223,"Ġata":5224,"Ġtwar":5225,"dÅĤo":5226,"ĠsprawÄĻ":5227,"stycznej":5228,"Ġpocho":5229,"tywa":5230,"Ġzako":5231,"Ġprzechowy":5232,"Ġherba":5233,"Ġspodzie":5234,"ÅĦcu":5235,"):":5236,"ekla":5237,"iÄĻkujÄĻ":5238,"ĠwiedzÄħ":5239,"Ġtematy":5240,"snÄħ":5241,"2015":5242,"ĠÅĽrodki":5243,"Ġleczenia":5244,"Ġmuzyki":5245,"zÄħ":5246,"ĠmuszÄĻ":5247,"Ġwzrost":5248,"niowe":5249,"lowej":5250,"ĠmateriaÅĤu":5251,"ĠskÃ³rÄĻ":5252,"Ġrolni":5253,"Ġiden":5254,"Ġpry":5255,"ĠÅļrod":5256,"ĠSze":5257,"Ġliczby":5258,"moÅĽÄĩ":5259,"ĠÅĽpie":5260,"ĠdodaÄĩ":5261,"wodni":5262,"ĠsÅĤone":5263,"ĠJej":5264,"lum":5265,"OK":5266,"Ġczasach":5267,"Przed":5268,"owskiej":5269,"Ġmody":5270,"Ġinicja":5271,"Ġstudia":5272,"ĠwÅĤaÅĽciwoÅĽci":5273,"nda":5274,"Le":5275,"Â¶":5276,"ĠFil":5277,"ĠKrakÃ³w":5278,"ĠEuropie":5279,"ĠNor":5280,"Ġpoprzedni":5281,"ĠciÅĽnie":5282,"wione":5283,"ĠXI":5284,"ĠDi":5285,"Ġwalki":5286,"Ġspowodowa":5287,"Ġrozpa":5288,"grafi":5289,"mian":5290,"48":5291,"Ġzadba":5292,"licy":5293,"grzy":5294,"Ġgrupa":5295,"Ġszan":5296,"tychmiast":5297,"Ġprzyci":5298,"Ġfrag":5299,"Ġtle":5300,"Ġude":5301,"ĠEx":5302,"Ġniespo":5303,"Ġnagra":5304,"ĠprzeÅĤo":5305,"Ġniezwyk":5306,"ĠrzÄħ":5307,"dowego":5308,"ĠzasÅĤu":5309,"Ġduch":5310,"ÃĵW":5311,"Ġoprogram":5312,"ĠpodÅĤÄħ":5313,"dÅ¼e":5314,"ĠskorzystaÄĩ":5315,"Ġprzepisy":5316,"Ġzago":5317,"tyk":5318,"au":5319,"Ġprowadzenia":5320,"ĠoprÃ³cz":5321,"Ġopubli":5322,"ĠEuropejskiej":5323,"Ġmiejscach":5324,"myÅĽ":5325,"ĠnajwaÅ¼niejsze":5326,"ĠSam":5327,"sznie":5328,"ĠpodrÃ³Å¼y":5329,"Ġformula":5330,"Ġotwiera":5331,"lonych":5332,"IC":5333,"nowane":5334,"Ġ%":5335,"ÅĤowy":5336,"Ġitd":5337,"Ġeksper":5338,"Ġstaro":5339,"ĠKrzyszto":5340,"dniego":5341,"ĀĀ":5342,"nau":5343,"owuje":5344,"bur":5345,"Ġpraco":5346,"ĠszczegÃ³":5347,"Ġwyszuki":5348,"dziel":5349,"Ġmacie":5350,"ĠukÅĤadu":5351,"Ġfanta":5352,"Ġpraktycznie":5353,"Ġ300":5354,"ĠJedno":5355,"tymi":5356,"Ġpaznok":5357,"Ġtygodni":5358,"nor":5359,"Ġautobu":5360,"ÅĤami":5361,"Ġwybu":5362,"ĠzwierzÄħt":5363,"ĠstaÅĤo":5364,"Ġwykonanie":5365,"rob":5366,"wcy":5367,"ĠtytuÅĤu":5368,"IP":5369,"sten":5370,"ĠduÅ¼ym":5371,"waniem":5372,"Ġkarty":5373,"logicznych":5374,"36":5375,"Ġupo":5376,"ts":5377,"ff":5378,"ĠwÅĤasnej":5379,"Ġmle":5380,"ĠbÅĤy":5381,"75":5382,"ÅĽliÄĩ":5383,"mami":5384,"waÅĤo":5385,");":5386,"Ġstatu":5387,"dowi":5388,"Ġspotyka":5389,"lowaÄĩ":5390,"styki":5391,"ĠwÅĤasnych":5392,"dowej":5393,"RZ":5394,"Ġgene":5395,"twier":5396,"ĠBiu":5397,"ĠJÃ³ze":5398,"nnym":5399,"dowo":5400,"ngu":5401,"ĠKolej":5402,"Ġekra":5403,"rzego":5404,"ĠwÅĤaÅĽciwie":5405,"ĠDar":5406,"cebo":5407,"Ju":5408,"Ġrynek":5409,"ĠKla":5410,"ÅĦstwu":5411,"Ze":5412,"Ġdokumenta":5413,"tkami":5414,"ĠPolskiej":5415,"czonego":5416,"Ġwspomnia":5417,"Ġskom":5418,"Ġzostaje":5419,"ĠDÅĤu":5420,"Ġkompozy":5421,"zdrawiam":5422,"ĠbyÅĤoby":5423,"id":5424,"ĠUnii":5425,"Ġwam":5426,"dzaÄĩ":5427,"ph":5428,"Ġwersja":5429,"powa":5430,"Ġplus":5431,"tfor":5432,"biÄĩ":5433,"ĠwystÄħpi":5434,"sio":5435,"Ġmobi":5436,"ĠdÅĤo":5437,"Ġzakupu":5438,"ws":5439,"ÅĽwie":5440,"ĠKonkur":5441,"obacz":5442,"Ġdrugim":5443,"Ġnapo":5444,"Å¼ÄĻ":5445,"lowy":5446,"Ġimprezy":5447,"wÃ³w":5448,"niÄĻcie":5449,"Ġwg":5450,"tch":5451,"ĠGu":5452,"ĠInterne":5453,"âĢº":5454,"ĠPC":5455,"ĠZna":5456,"Ġlogi":5457,"Ġmagi":5458,"ĠSystem":5459,"lizacja":5460,"pieÅĦ":5461,"ĠWybor":5462,"Ġurucho":5463,"ĠFundu":5464,"ĠpotÄĻ":5465,"Ġzjawi":5466,"ĠLubli":5467,"ĠmÅĤodych":5468,"ĠniektÃ³re":5469,"vo":5470,"Ġkoszu":5471,"Ġfilmu":5472,"Ġbieg":5473,"Ġks":5474,"ĠobciÄħ":5475,"widen":5476,"Ġzaprojekt":5477,"Ġtest":5478,"Ġtermin":5479,"nden":5480,"-)":5481,"Ġcieszy":5482,"Ġ36":5483,"czest":5484,"Ġpoma":5485,"Ġwypoczy":5486,"ĠukoÅĦ":5487,"Ġznakomi":5488,"dziemy":5489,"ÄĨ":5490,"dago":5491,"Ġszkla":5492,"ĠoÅĽrod":5493,"RA":5494,"ĠuÅ¼ytkownika":5495,"Ġtwoje":5496,"JeÅ¼eli":5497,"TA":5498,"ĠNawet":5499,"Ġcerty":5500,"ĠJako":5501,"steÅĽmy":5502,"niejsza":5503,"korzy":5504,"ĠSÅĤu":5505,"Ġpiosen":5506,"ĠzmieniÄĩ":5507,"ĠJezu":5508,"Ġdziw":5509,"mych":5510,"ĠprzesÅĤa":5511,"Ġnaczy":5512,"Ġoceny":5513,"Ġwysoko":5514,"Ġmusisz":5515,"Ġstary":5516,"Ġrozgry":5517,"mato":5518,"ĠlubiÄĻ":5519,"Ġnazywa":5520,"miany":5521,"Ġono":5522,"Ġprocedu":5523,"racje":5524,"Ġniedaw":5525,"Ġproducenta":5526,"ĠposiadajÄħ":5527,"Ġczasami":5528,"jskiego":5529,"ĠduÅ¼ych":5530,"ĠobowiÄħzu":5531,"Ġwzmacnia":5532,"ĠRegi":5533,"ĠrÄĻka":5534,"tto":5535,"ĠmateriaÅĤy":5536,"ĠpiÅĤ":5537,"Ġswobo":5538,"ĠwiedzÄĻ":5539,"Ġhistoria":5540,"tarza":5541,"ĠnowÄħ":5542,"Ġprzo":5543,"ĠMuzeum":5544,"Ġwynik":5545,"ĠCar":5546,"Ġwpisa":5547,"Ġmodu":5548,"sjÄħ":5549,"Ġblog":5550,"Wszyst":5551,"ĠtytuÅĤ":5552,"Ġinstruk":5553,"Ġzaufa":5554,"ĠsÅĤÃ³w":5555,"szony":5556,"ĠprzyjaciÃ³ÅĤ":5557,"Å¼Äħda":5558,"kujÄħ":5559,"Ġzasko":5560,"Ġtekst":5561,"EC":5562,"Ġpunkt":5563,"ĠczÄĻÅĽciej":5564,"DZ":5565,"ĠmiaÅĤem":5566,"kowski":5567,"lec":5568,"Ġwro":5569,"ĠcÃ³r":5570,"ĠpodkreÅĽla":5571,"Ġeksplo":5572,"ĠStrona":5573,"ĠÅ¼ywo":5574,"Ġpoch":5575,"Ġtrzeci":5576,"Ġkontynu":5577,"Ġocenia":5578,"ĠrzÄħd":5579,"szczone":5580,"Ġtabli":5581,"ĠGospodar":5582,"Ġekspo":5583,"ĠwiÄĻksze":5584,"ĠrÃ³Å¼norod":5585,"Ġwychowa":5586,"ĠdÅĤugie":5587,"De":5588,"Ġmeczu":5589,"styka":5590,"ĠGre":5591,"dob":5592,"mocy":5593,"ĠKomisji":5594,"ĠkorzystaÄĩ":5595,"Ġsre":5596,"Ġzawodni":5597,"nci":5598,"Dzie":5599,"Jest":5600,"ĠBÃ³g":5601,"ĠniezbÄĻdne":5602,"Ġchor":5603,"Ġus":5604,"ps":5605,"Ġbudowa":5606,"ĠDyrek":5607,"Ġnowym":5608,"sand":5609,"Ġznowu":5610,"rÃ³g":5611,"Ġprzeciwko":5612,"metrÃ³w":5613,"Ġopinii":5614,"ĠspÃ³ÅĤki":5615,"Ġwiecz":5616,"ĠmnÃ³":5617,"Ġzastosowanie":5618,"ĠPKD":5619,"ĠsiÅĤy":5620,"ĠwrÃ³ci":5621,"ĠIN":5622,"ĠspoÅĤecznoÅĽci":5623,"ĠJestem":5624,"ĠchÅĤop":5625,"ĠwyglÄħd":5626,"ĠdziaÅĤ":5627,"fini":5628,"Ġzapisa":5629,"Ġpublicznych":5630,"ĠPolskiego":5631,"cjonar":5632,"ĠwykoÅĦ":5633,"ĠrÄĻce":5634,"eli":5635,"Ġdam":5636,"ĠsiÄĻga":5637,"Ġnatychmiast":5638,"bienia":5639,"minu":5640,"frastru":5641,"ĠnapÄĻ":5642,"Ġpobra":5643,"Ġds":5644,"Ġdynami":5645,"ĠksiÄħÅ¼ka":5646,"ÅĤabym":5647,"Ġboi":5648,"Sta":5649,"Ġobejmuje":5650,"dzili":5651,"Ġdi":5652,"Ġscho":5653,"Ġuczniowie":5654,"Ġfirmie":5655,"ĠmaÅĤy":5656,"ĠÅ¼yw":5657,"Ġbr":5658,"strybu":5659,"Ġgor":5660,"ĠGro":5661,"Ġmodelu":5662,"lnymi":5663,"ĠgÅĤa":5664,"Ġdiagno":5665,"ĠKsiÄĻ":5666,"Ġdziennika":5667,"Ġprzetar":5668,"Ġoptyma":5669,"ĠrÃ³wnie":5670,"Ġinnej":5671,"ĠdÅºwiÄĻ":5672,"Ġkomfort":5673,"Ġnega":5674,"Ġfundu":5675,"ĠchÄĻtnie":5676,"100":5677,"Pier":5678,"Ġpolicja":5679,"Ġglo":5680,"Ġkupu":5681,"ĠInternet":5682,"Ġrozsze":5683,"Ġustaw":5684,"Ġrozmawia":5685,"Da":5686,"Ġpokona":5687,"lizm":5688,"ĠKsiÄħ":5689,"jska":5690,"ĠWyso":5691,"kowÄħ":5692,"ĠwypÅĤa":5693,"Ġserdecznie":5694,"finans":5695,"nowy":5696,"ĠsÅĤuÅ¼Äħ":5697,"metr":5698,"Ġrower":5699,"Ġpt":5700,"Ġprote":5701,"skar":5702,"ĠstaÄĩ":5703,"Ġpewne":5704,"Ġtransport":5705,"Ġpremie":5706,"ya":5707,"Ġref":5708,"Bardzo":5709,"KI":5710,"jestrowa":5711,"Ġstosowania":5712,"ĠObecnie":5713,"ĠchcÄĻ":5714,"ĠAndrzej":5715,"Ġwniosek":5716,"rzony":5717,"38":5718,"Ġkonstru":5719,"ĠpiÄĻkne":5720,"ĠksiÄħÅ¼ek":5721,"Ġpodlega":5722,"lanie":5723,"ĠNastÄĻpnie":5724,"liny":5725,"Ġ<":5726,"ĠUkrai":5727,"ĠwnÄĻtrza":5728,"Ġeme":5729,"dzajÄħ":5730,"Ġstawia":5731,"nkach":5732,"walu":5733,"Ġrozpoczyna":5734,"Ġmecz":5735,"ĠciÄħgle":5736,"Ġpotrzebne":5737,"Ġrodzaj":5738,"Ġwiary":5739,"Ã¦":5740,"czach":5741,"okie":5742,"Å¼sze":5743,"ĠUE":5744,"Ġpozba":5745,"Ġznie":5746,"lozo":5747,"szeni":5748,"ĠmÄĻÅ¼czyzn":5749,"Ġopu":5750,"OÅļ":5751,"Ġwolno":5752,"mera":5753,"Ġrozm":5754,"Ġnajpierw":5755,"jnej":5756,"sch":5757,"ĠSko":5758,"sli":5759,"ĠgdzieÅĽ":5760,"Ġspecjalnie":5761,"Ġ2000":5762,"krÃ³t":5763,"Ġist":5764,"ĠMinister":5765,"dziesiÄħ":5766,"Ġmal":5767,"ĠzarzÄħdzania":5768,"ĠokazjÄĻ":5769,"Ġodno":5770,"ĠrzeczywistoÅĽci":5771,"Ġfrancu":5772,"ĠZwiÄħz":5773,"szÅĤa":5774,"Ġnawil":5775,"Ġniczym":5776,"sowej":5777,"Ġcyfr":5778,"Ġzapla":5779,"ĠpoÅĽrednictwem":5780,"ĠfirmÄĻ":5781,"55":5782,"ĠzuÅ¼y":5783,"Ġrady":5784,"lacje":5785,"46":5786,"Ġsio":5787,"WA":5788,"Ġosa":5789,"ĠÅĽwiatÅĤa":5790,"mieÅĦ":5791,"cko":5792,"ĠUsÅĤu":5793,"ĠtysiÄħ":5794,"ĠsamochÃ³d":5795,"ĠgÅĤÃ³wna":5796,"ĠProgra":5797,"Ġzasadzie":5798,"ĠwiedzieÄĩ":5799,"ĠMimo":5800,"czonym":5801,"czasem":5802,"ina":5803,"typ":5804,"ĠPLN":5805,"Ġpasa":5806,"dzono":5807,"ssa":5808,"KaÅ¼":5809,"Ġswego":5810,"Ġwspomaga":5811,"wni":5812,"emu":5813,"Ġkrem":5814,"cieka":5815,"szne":5816,"it":5817,"mnieÄĩ":5818,"Ġprepara":5819,"ĠNatomiast":5820,"styczna":5821,"starczy":5822,"2013":5823,"Ġbibliote":5824,"Ġkobieta":5825,"ĠroÅĽlin":5826,"Kie":5827,"leniu":5828,"gru":5829,"ĠpÅĤo":5830,"Ġspod":5831,"sowany":5832,"Ġzdrowie":5833,"ĠIch":5834,"letnie":5835,"By":5836,"ĠTakie":5837,"tÅĤu":5838,"ĠtrÃ³j":5839,"zju":5840,"ĠsobotÄĻ":5841,"Ġokolicy":5842,"ãĥ":5843,"Sa":5844,"ĠwyjÄħtkowo":5845,"Ġzastanawia":5846,"Ġintegra":5847,"ĠwpÅĤywa":5848,"osob":5849,"wiu":5850,"ĠchrzeÅĽcija":5851,"kija":5852,"ĠCzytaj":5853,"ĠupÅĤy":5854,"Ġzestawie":5855,"ĠUÅ¼ytk":5856,"Ġalbu":5857,"ĠÅĽli":5858,"ryte":5859,"las":5860,"zdr":5861,"31":5862,"miana":5863,"ĠusÅĤy":5864,"Ġzajmu":5865,"dzieli":5866,"wor":5867,"ĠgÄĻ":5868,"raÅ¼":5869,"nopol":5870,"ĠBur":5871,"nÄĻÅĤo":5872,"zowana":5873,"ĠWyda":5874,"ĠAuto":5875,"Ġwzor":5876,"Ġwspomina":5877,"ĠrÃ³":5878,"kres":5879,"ĠUrzÄĻdu":5880,"ĠTowarzy":5881,"trzeÄĩ":5882,"ĠnajwyÅ¼szej":5883,"Ġzapach":5884,"ĠparÄĻ":5885,"ĠWrocÅĤaw":5886,"32":5887,"ĠKata":5888,"set":5889,"hu":5890,"ĠUniwersytetu":5891,"ĠTea":5892,"wziÄĻ":5893,"Ġpolskie":5894,"Ġwsi":5895,"Ġdziew":5896,"ĠmyÅĽlÄħ":5897,"poli":5898,"trwa":5899,"Ġkuchen":5900,"Ġfry":5901,"ĠwewnÄħtrz":5902,"ĠwspÃ³lnie":5903,"shi":5904,"ĠÅ¼oÅĤnie":5905,"ĠsystemÃ³w":5906,"ĠMieszka":5907,"dal":5908,"szeÅĦ":5909,"Me":5910,"ĠrozpoczÄħ":5911,"ĠbezpieczeÅĦstwo":5912,"Ġdrewna":5913,"Ġniena":5914,"Ġjednostki":5915,"Ġpierwsza":5916,"Ġnegatyw":5917,"Ġroczni":5918,"Ni":5919,"bach":5920,"Ġwio":5921,"ÅĤopo":5922,"Ġrecen":5923,"Ġklima":5924,"34":5925,"Ġorganizmu":5926,"Ġzapobiega":5927,"Ġwystarcza":5928,"Ġana":5929,"Ġkonser":5930,"Ġnazwa":5931,"Ġeli":5932,"Ġodpo":5933,"ĠktÃ³rymi":5934,"Ġurodzi":5935,"Ġgier":5936,"Ġtrakt":5937,"ĠNaleÅ¼y":5938,"ĠpowiÄĻk":5939,"ĠpoznaÄĩ":5940,"Ð»":5941,"Ġgodzinie":5942,"ĠuzaleÅ¼":5943,"Ġgrzy":5944,"ĠCzer":5945,"tyku":5946,"Ġpunktu":5947,"Ġfunda":5948,"OB":5949,"pto":5950,"ĠðŁĺ":5951,"czonej":5952,"Au":5953,"37":5954,"liza":5955,"Ġoczyszcza":5956,"ĠstÃ³":5957,"ĠKaro":5958,"NY":5959,"ĠNA":5960,"Ġprocesu":5961,"ĠwÅĤasnego":5962,"wczych":5963,"uje":5964,"ÅĽciem":5965,"ĠOj":5966,"ĠmÃ³z":5967,"ĠVAT":5968,"ĠciÄħÅ¼y":5969,"wien":5970,"ĠPer":5971,"ĠMamy":5972,"stÄħpienia":5973,"dgo":5974,"derni":5975,"up":5976,"Ġprzypadkach":5977,"twy":5978,"Ġcztere":5979,"Ġcele":5980,"zjum":5981,"pienie":5982,"Ġupa":5983,"brzy":5984,"Ġturniej":5985,"woje":5986,"dium":5987,"Ġzaledwie":5988,"Ġzm":5989,"czÄħc":5990,"Ġsytuacja":5991,"Ġocho":5992,"niewaÅ¼":5993,"Ġpola":5994,"ĠMon":5995,"Ġserwisu":5996,"Ġstanowisko":5997,"ID":5998,"Ġkawa":5999,"ĠÅĽrodku":6000,"ĠdÅĤugoÅĽci":6001,"Ġniko":6002,"Ġnadz":6003,"Ã³ki":6004,"ĠWiÄĻcej":6005,"ĠzewnÄħtrz":6006,"ĠpiÄĻÄĩ":6007,"pio":6008,"ĠkaÅ¼dÄħ":6009,"ĠKur":6010,"ĠwÄħtpliwoÅĽci":6011,"Ġostro":6012,"naÅĽcie":6013,"ĠciepÅĤa":6014,"toni":6015,"ĠmojÄħ":6016,"Ġkorzystania":6017,"kura":6018,"Ġbrzu":6019,"ĠÅĤatwiej":6020,"Ġwsta":6021,"Ġroze":6022,"ĠmusiaÅĤ":6023,"Ġarchite":6024,"Ġprojekty":6025,"Ġlepsze":6026,"nkÄĻ":6027,"ĠFina":6028,"Ġozdob":6029,"ĠrÄħ":6030,"ĠwiÄĻkszÄħ":6031,"Ġoferta":6032,"Ġrezu":6033,"ĠKom":6034,"Ġwchodzi":6035,"Ġlekarza":6036,"Ġtransa":6037,"Ġprzepisa":6038,"Ġsystemie":6039,"zajem":6040,"ted":6041,"Ġdobrego":6042,"Ġplanu":6043,"tacjÄĻ":6044,"Ġefekty":6045,"lory":6046,"Ġfu":6047,"ĠcelÃ³w":6048,"ĠÅĽla":6049,"ĠZespo":6050,"ĠmiesiÄħc":6051,"Ġzadanie":6052,"dziaÅĤam":6053,"Ġkultura":6054,"ferujemy":6055,"Ġkolory":6056,"Ġwsparcie":6057,"ĠgÅĤu":6058,"Ġpozostaje":6059,"Ġpojedyn":6060,"Ġwilgo":6061,"myka":6062,"Ġzamieszka":6063,"Ġkampa":6064,"Ġmeble":6065,"ĠwielkoÅĽci":6066,"ĠwykorzystaÄĩ":6067,"Ġ150":6068,"lary":6069,"Ġprzekro":6070,"Ġprecy":6071,"ĠDlaczego":6072,"ĠWÄĻ":6073,"ĠmetrÃ³w":6074,"luje":6075,"JA":6076,"rÄĻb":6077,"ĠmnÃ³stwo":6078,"ĠciaÅĤo":6079,"Ġprag":6080,".âĢĿ":6081,"Ġwielkie":6082,"rowania":6083,"Ġdanego":6084,"stycznego":6085,"Ġmetal":6086,"Ġniezna":6087,"ĠCha":6088,"Ġzga":6089,"Ġwywia":6090,"Ġpublicznej":6091,"Ġrezulta":6092,"Ġgodzinach":6093,"Ġblu":6094,"ĠFesti":6095,"ĠKry":6096,"ciera":6097,"ĠkogoÅĽ":6098,"Ġtelefonu":6099,"ĠTrzeba":6100,"ĠcaÅĤa":6101,"Ġzlo":6102,"ĠodpowiedzialnoÅĽci":6103,"ĠMary":6104,"fil":6105,"ĠniedzielÄĻ":6106,"czko":6107,"Ġdrugiego":6108,"ĠZdr":6109,"Ġmoze":6110,"Ġklub":6111,"pospoli":6112,"Ðº":6113,"portu":6114,"Ġsezonie":6115,"tt":6116,"Ġdiety":6117,"Ġodcie":6118,"niwersa":6119,"praszam":6120,"liÅĤ":6121,"2014":6122,"Ġtymi":6123,"Ġroli":6124,"ĠdobrÄħ":6125,"ĠpoÅĤÄħczenie":6126,"kiety":6127,"zujemy":6128,"ree":6129,"sztÄħ":6130,"ĠskÅĤadnikÃ³w":6131,"szoÅĽÄĩ":6132,"tio":6133,"Ġemi":6134,"cona":6135,"ĠzwrÃ³ciÄĩ":6136,"Ġmaszyn":6137,"nel":6138,"ĠciÄĻÅ¼ko":6139,"ĠwodÄħ":6140,"Ġostatnim":6141,"ĠPaweÅĤ":6142,"gor":6143,"Ġchemi":6144,"ĠtydzieÅĦ":6145,"Ġjo":6146,"Ġnaro":6147,"Ġmieszkanie":6148,"ĠWz":6149,"Ġopis":6150,"ĠznÃ³w":6151,"Gdy":6152,"lenda":6153,"Ġpsychi":6154,"Ġprocent":6155,"owaÅĤo":6156,"Ġsaty":6157,"ĠOchro":6158,"Ġzanim":6159,"Ġwykonany":6160,"Ġkoncep":6161,"Ġtransportu":6162,"dera":6163,"stek":6164,"ĠSzkoÅĤy":6165,"Ġczytelni":6166,"wamy":6167,"ĠAlek":6168,"kowana":6169,"ĠAdministra":6170,"Ġbiega":6171,"Ġprzyby":6172,"Mam":6173,"ore":6174,"ĠprÃ³bu":6175,"Å¼ynie":6176,"Ġwszystkiego":6177,"zowanie":6178,"wam":6179,"____":6180,"cro":6181,"Ġtury":6182,"Ġnadaje":6183,"ĠUbezpie":6184,"kiewicz":6185,"ĠpodjÄĻ":6186,"szeniu":6187,"lecia":6188,"Ġcodziennie":6189,"Ġbrze":6190,"bka":6191,"Ġkompe":6192,"Ġtrening":6193,"Ã³sÅĤ":6194,"ĠokazaÅĤo":6195,"ĠmiesiÄĻ":6196,"mowaÅĤ":6197,"czami":6198,"Ġpobiera":6199,"szaÄĩ":6200,"Ġuzasa":6201,"ĠoglÄħda":6202,"stwem":6203,"towym":6204,"Ġ2006":6205,"Ġsali":6206,"habili":6207,"pisz":6208,"Ġstabi":6209,"ĠduÅ¼a":6210,"ĠczasÃ³w":6211,"ĠÅ¼adnego":6212,"Bu":6213,"ĠdaÄĩ":6214,"Ġkoncer":6215,"Ġseku":6216,"Ġwoda":6217,"gl":6218,"wiony":6219,"mum":6220,"ĠwziÄħÄĩ":6221,"ĠwstÄĻp":6222,"Ġzdarza":6223,"Ġalterna":6224,"jciec":6225,"Spo":6226,"tkowe":6227,"jka":6228,"Ġmart":6229,"ĠrÃ³Å¼nego":6230,"Ġuka":6231,"Ġnaci":6232,"ĠsÄĻ":6233,"ĠÅģÃ³":6234,"Ġwszelkich":6235,"tacza":6236,"ĠTran":6237,"Ġpracuje":6238,"dego":6239,"ĠKto":6240,"!!!!":6241,"Ġskutecznie":6242,"ĠczÅĤonk":6243,"ĠGazeta":6244,"cznika":6245,"nnie":6246,"ril":6247,"Ġ2004":6248,"Ġzali":6249,",,,,":6250,"boga":6251,"taÅĤ":6252,"rÄħg":6253,"raÅ¼a":6254,"ĠZjedno":6255,"ĠukÅĤada":6256,"car":6257,"ĠstaÅĤ":6258,"zyg":6259,"tema":6260,"lski":6261,"Ġoby":6262,"Ġinni":6263,"Ġmg":6264,"rowane":6265,"Ale":6266,"Ġfaktycznie":6267,"szt":6268,"ĠmiÅĤoÅĽÄĩ":6269,"figu":6270,"Mar":6271,"blo":6272,"ĠDro":6273,"Ġzaw":6274,"Ġedycji":6275,"Ġkomen":6276,"Ġmomentu":6277,"Ġzmu":6278,"ĠdzieciÄĻ":6279,"ĠmogÅĤy":6280,"ĠzdjÄĻcie":6281,"cymi":6282,"mem":6283,"ĠGoogle":6284,"PL":6285,"Ġwydaj":6286,"Ġzba":6287,"Ġprzesu":6288,"ĠJaro":6289,"paÄĩ":6290,"IM":6291,"Ġstali":6292,"biu":6293,"kowie":6294,"char":6295,"Ġpodstawowych":6296,"Ġnieprze":6297,"ĠKlu":6298,"Ġ197":6299,"ĠpÅĤatnoÅĽci":6300,"Ġpublicznego":6301,"Ġzarejestrowa":6302,"ĠSport":6303,"tywy":6304,"ĠNiemie":6305,"Ġgaz":6306,"Ġkwestii":6307,"Ġwiesz":6308,"lowane":6309,"Ġbrakuje":6310,"ĠhistoriÄĻ":6311,"ĠdÅĤuÅ¼ej":6312,"ÅĽlÄĻ":6313,"Ġoczekiwania":6314,"Ġpodsu":6315,"Ġsmu":6316,"Ġkontaktu":6317,"ĠZnaj":6318,"Ġmagne":6319,"Ġpokar":6320,"ĠmÃ³wiÄħc":6321,"Ġsamych":6322,"stre":6323,"Ġnieod":6324,"Ġwczoraj":6325,"ĠmaÅĤÅ¼e":6326,"logu":6327,"Ġkoja":6328,"miary":6329,"Ġwez":6330,"ĠStar":6331,"munika":6332,"Ġosobom":6333,"wicza":6334,"Ġwychodzi":6335,"Ġinstytucji":6336,"rzch":6337,"Ġwykonywania":6338,"ĠwodÄĻ":6339,"ĠpojazdÃ³w":6340,"lce":6341,"ĠNowa":6342,"Ġsezon":6343,"ĠCena":6344,"âĦ":6345,"ĠcenÄĻ":6346,"Ġlekar":6347,"mierza":6348,"Ġkim":6349,"Ġopinie":6350,"Ġrecep":6351,"ĠcaÅĤoÅĽÄĩ":6352,"Ġseksu":6353,"Ġobia":6354,"roczy":6355,"ĠdrogÄĻ":6356,"ĠMateria":6357,"ĠpÅĤyty":6358,"Ġzgroma":6359,"ĠszczÄĻÅĽli":6360,"Ġzamierza":6361,"ĠÅºle":6362,"ot":6363,"ĠszczegÃ³ÅĤy":6364,"Ġodz":6365,"Ġ32":6366,"Ġtery":6367,"Pre":6368,"Ġperspekty":6369,"ĠjakiegoÅĽ":6370,"Ġspecyfi":6371,"Ġkomputera":6372,"Ġtelefoni":6373,"ĠmontaÅ¼":6374,"peu":6375,"padÃ³w":6376,"ĠchÅĤopa":6377,"ĠÅĽnia":6378,"ĠwyÅ¼ej":6379,"ĠmÃ³wiÄħ":6380,"Ġdystrybu":6381,"Ġzaawan":6382,"ĠznaczÄħ":6383,"ĠwnÄĻtrz":6384,"Ġelement":6385,"KS":6386,"ãĤ":6387,"Ġhotelu":6388,"Ġregula":6389,"Ġwitry":6390,"ĠimiÄĻ":6391,"Ġbiznes":6392,"ĠMiejs":6393,"Ġpracowni":6394,"rym":6395,"PR":6396,"lania":6397,"Ġzgody":6398,"ĠPozdrawiam":6399,"Ġakurat":6400,"zowania":6401,"Ġwykonana":6402,"ĠDziÅĽ":6403,"Ġmoto":6404,"ĠEdu":6405,"ĠPierw":6406,"ĠobiektÃ³w":6407,"Ġilu":6408,"pka":6409,"Ġplanowa":6410,"tkach":6411,"rzeniem":6412,"Ġuprze":6413,"ĠpeÅĤne":6414,"Ġzrozu":6415,"ĠmiÄĻÅĽni":6416,"jÃĦ":6417,"Ġkomunikacji":6418,"ĠprÄĻd":6419,"ownia":6420,"die":6421,"ĠplikÃ³w":6422,"ĠspÅĤa":6423,"ĠzastÄĻp":6424,"bami":6425,"ĠWojcie":6426,"Ġ196":6427,"Ġizo":6428,"ĠkoÅĦc":6429,"Ġulubio":6430,"wcze":6431,"ĠkrajÃ³w":6432,"Ġcudow":6433,"Ġaro":6434,"Ġkolekcji":6435,"Ġkonto":6436,"ĠprzedsiÄĻwziÄĻ":6437,"ĠDzieci":6438,"dor":6439,"CI":6440,"Ġlisty":6441,"ĠmÅĤodzieÅ¼":6442,"Ġzakres":6443,"Ġposie":6444,"ĠTer":6445,"Ġoczywi":6446,"nowe":6447,".).":6448,"Ã¡":6449,"niejszym":6450,"teru":6451,"Ġperso":6452,"ÅĤaÅĽ":6453,"lwen":6454,"Äĩmi":6455,"ĠPoznaniu":6456,"ĠPowie":6457,"Ġpochodzi":6458,"Ġzez":6459,"ĠwojewÃ³dztwa":6460,"Äħd":6461,"Ġkonferencji":6462,"ĠwÅĤasnÄħ":6463,"ĠrzeczywiÅĽcie":6464,"Ġtworzenia":6465,"Ġpolity":6466,"ligen":6467,"towana":6468,"ÅĤÄħd":6469,"ĠpozostaÅĤych":6470,"Ġrozmiar":6471,"nieÅĦ":6472,"ĠwÅĤasnym":6473,"Ġstaty":6474,"krÃ³tce":6475,"Ġminera":6476,"zwo":6477,"Ġwodo":6478,"Ġwych":6479,"ĠWsp":6480,"fli":6481,"doby":6482,"tnia":6483,"pt":6484,"ĠwyrÃ³Å¼nia":6485,"Ġwoje":6486,"Ġuzyskania":6487,"Ġszereg":6488,"Ġ2005":6489,"Ca":6490,"ĠnarzÄĻdzia":6491,"Ġaktuali":6492,"Ġleczenie":6493,"ĠrealizacjÄĻ":6494,"bora":6495,"Ġoparciu":6496,"bÃ³":6497,"ĠstudiÃ³w":6498,"Ġ38":6499,"Ġtemperatury":6500,"Ġczterech":6501,"skach":6502,"Tu":6503,"ĠwysyÅĤa":6504,"ĠÅĤ":6505,"Ġzachowania":6506,"Å¼onego":6507,"Ġnaturalne":6508,"ĠchoÄĩby":6509,"niesienia":6510,"Ġmeta":6511,"Ġwiemy":6512,"ĠAdam":6513,"Ġalu":6514,"Ġpolu":6515,"Ġkonieczne":6516,"âĦ¢":6517,"ÅĽwiÄĻ":6518,"ĠwidzÄĻ":6519,"pety":6520,"ĠwystÄĻpuje":6521,"czkÄħ":6522,"Ã³wki":6523,"Ġbuty":6524,"dujÄħ":6525,"IL":6526,"Ġwscho":6527,"ĠliczyÄĩ":6528,"kowanych":6529,"Kiedy":6530,"ĠdomÃ³w":6531,"Ġtrenin":6532,"ĠKor":6533,"Ġwsparcia":6534,"rasta":6535,"ĠmiarÄĻ":6536,"alny":6537,"ĠZosta":6538,"Ġdyplo":6539,"ĠTwÃ³j":6540,"Su":6541,"Ġryzyko":6542,"Ġdanej":6543,"ĠPaÅĦstwu":6544,"Ġzielo":6545,"ĠpoczÄħtek":6546,"Ġprzycho":6547,"Ġszt":6548,"Ġow":6549,"Ce":6550,"Ġogrze":6551,"woju":6552,"towanych":6553,"Ġcyklu":6554,"ĠdostÄĻpu":6555,"ĠNowo":6556,"ĠuÅ¼yciu":6557,"Ġzbudowa":6558,"Ġbur":6559,"Mie":6560,"Ġdodatkowych":6561,"ĠKobie":6562,"Ġprawdopodobnie":6563,"Ġnieba":6564,"ĠDom":6565,"ĠPrezyden":6566,"czyÅĤy":6567,"sla":6568,"Ġprowadzenie":6569,"ï¿½ï¿½":6570,"ĠpiÄħtek":6571,"chwaÅĤa":6572,"Ġfesti":6573,"Ġstopnia":6574,"Ġmiast":6575,"Ġwreszcie":6576,"lle":6577,"mÅĤod":6578,"ĠWystarczy":6579,"Ġdomy":6580,"ĠprzestÄĻp":6581,"ĠtowarÃ³w":6582,"owicz":6583,"Ġsukie":6584,"Ġokresu":6585,"Ġciebie":6586,"âĢ¢":6587,"ĠMiÄĻdzynarod":6588,"niowych":6589,"Ġdyspozycji":6590,"Ġchwil":6591,"ĠdostÄĻpny":6592,"ĠpeÅĤno":6593,"ĠDzia":6594,"podlegÅĤoÅĽci":6595,"Ġnagrody":6596,"ĠpowoÅĤa":6597,"Ġpost":6598,"ĠbudÅ¼etu":6599,"ÅĦcÃ³w":6600,"miu":6601,"ĠAkade":6602,"Ġpapier":6603,"Å¼onej":6604,"ĠwykonaÄĩ":6605,"ĠTomasz":6606,"47":6607,"ĠWspÃ³ÅĤ":6608,"ĠZarzÄħdu":6609,"Ġdziedzinie":6610,"spek":6611,"Ġpewnym":6612,"ĠpomoÅ¼e":6613,"ĠWielko":6614,"49":6615,"Ġzapewne":6616,"Ġreklama":6617,"Ġubieg":6618,"ĠliÅĽcie":6619,"ĠpÃ³ÅĤnoc":6620,"ĠSamochody":6621,"ciar":6622,"sÅĤÃ³w":6623,"Ġwytwarza":6624,"Ġdotar":6625,"Ġap":6626,"Ġpokazuje":6627,"Ser":6628,"zeru":6629,"ĠHar":6630,"ĠpacjentÃ³w":6631,"win":6632,"ĠkÅĤopo":6633,"anna":6634,"ds":6635,"Ġczekola":6636,"ĠwÃ³z":6637,"Ġrano":6638,"Ġrelacji":6639,"ĠPy":6640,"Ġspek":6641,"ĠwywoÅĤa":6642,"zwa":6643,"cyk":6644,"Ġsyl":6645,"Ġinterpre":6646,"Ġorganizm":6647,"ĠdorosÅĤych":6648,"toria":6649,"ĠZÅĤo":6650,"MS":6651,"Ġkoncent":6652,"Ñĥ":6653,"ĠWydaw":6654,"Ġvi":6655,"oo":6656,"Ġwoli":6657,"lska":6658,"ĠEk":6659,"Ġprzysta":6660,"dzam":6661,"ĠjÄĻzyku":6662,"ĠAleksand":6663,"Ġkwar":6664,"ĠdÄħ":6665,"jki":6666,"ĠokrÄĻ":6667,"Ġzorganizowa":6668,"ĠokolicznoÅĽci":6669,"dziesz":6670,"ÅĽrodek":6671,"ĠwysokoÅĽÄĩ":6672,"Ġpartner":6673,"Ġrodzin":6674,"Ġsmart":6675,"DziÄĻki":6676,"ĠProgram":6677,"ĠurzÄħdzenie":6678,"jskie":6679,"ĠKlienta":6680,"ĠmyÅĽla":6681,"ĠprzedsiÄĻbiorstwa":6682,"Ġwczes":6683,"decy":6684,"Pi":6685,"dzki":6686,"ĠstosowaÄĩ":6687,"ĠRÃ³w":6688,"Ġwidzenia":6689,"tce":6690,"landii":6691,"Ġrozmowy":6692,"ĠuÅ¼ytkowania":6693,"Ġuwielbia":6694,"Ġfla":6695,"bla":6696,"Ġnajlepszy":6697,"ĠjÄĻzyk":6698,"Ġmotyw":6699,"Ġrodzice":6700,"tli":6701,"Fo":6702,"ĠwynikÃ³w":6703,"ĠSkar":6704,"niny":6705,"pem":6706,"ĠHD":6707,"Ġdyrektor":6708,"Ġ1000":6709,"ĠÅģodzi":6710,"Ġwidzi":6711,"ÅĤowe":6712,"ĠbÃ³l":6713,"Ġkredyt":6714,"sfak":6715,"zach":6716,"ĠodsÅĤo":6717,"ĠmÃ³wiÅĤ":6718,"ĠmÃ³wiÄĩ":6719,"ĠzapewniÄĩ":6720,"Ġprosty":6721,"trzu":6722,"chno":6723,"Ġgmin":6724,"Å¼yÅĤa":6725,"Ġklas":6726,"Ġetapie":6727,"scypli":6728,"ĠPozosta":6729,"Ġprogramie":6730,"ĠpokÃ³j":6731,"ĠartykuÅĤ":6732,"ĠUczest":6733,"Ġplatfor":6734,"Ġhor":6735,"Lu":6736,"Ġhotel":6737,"zjÄħ":6738,"ĠpozwalajÄħ":6739,"ĠczymÅĽ":6740,"Ġwzmoc":6741,"Ġwyp":6742,"Ġregiona":6743,"ĠpiÅĤka":6744,"ĠByÅĤ":6745,"zujÄħc":6746,"ĠPawÅĤa":6747,"ĠodpowiedÅº":6748,"Ġstruktu":6749,"Ġodzyska":6750,"ĠÅĽlu":6751,"Ġabsolu":6752,"mowych":6753,"Ġwenty":6754,"ĠnajwiÄĻkszych":6755,"Ġtore":6756,"Ġobszarze":6757,"Ġeste":6758,"tyfika":6759,"ĠpoÅĤowie":6760,"Ġprzygotowania":6761,"Ġrywali":6762,"Ġhttps":6763,"ĠspotkaÅĦ":6764,"Ġpoby":6765,"Ġnieprzy":6766,"mentem":6767,"OG":6768,"ĠMaÅĤ":6769,"ĠskoÅĦ":6770,"Ġkore":6771,"ĠPara":6772,"Ġmoment":6773,"szona":6774,"Ġkara":6775,"ĠdostÄĻpnych":6776,"Ġgabi":6777,"Ġrozry":6778,"siÄĻbior":6779,"kÅĤo":6780,"ĠKrzysztof":6781,"Ġurlo":6782,"Ġcertyfika":6783,"ĠÄĩwiczenia":6784,"ĠumÃ³w":6785,"Ġfinansowych":6786,"ĠpiÄĻknie":6787,"ĠosiÄħga":6788,"ĠmnÄħ":6789,"Ġzabrak":6790,"bienie":6791,"ĠJezusa":6792,"Ġogranicza":6793,"ĠChe":6794,"ĠLon":6795,"Ġwspom":6796,"Å¼liwoÅĽÄĩ":6797,"ĠWtedy":6798,"zywaÄĩ":6799,"Ġopieki":6800,"laÄĩ":6801,"Ġliczne":6802,"Ġ00":6803,"Ġprzekracza":6804,"dzonej":6805,"Ġdoce":6806,"Ġspokojnie":6807,"Â°":6808,"ZY":6809,"ĠÅĽcieÅ¼":6810,"Ġfoto":6811,"ĠkrÄħ":6812,"ĠPÃ³ÅĤ":6813,"Ġzawi":6814,"Ġakcesoria":6815,"Ġakcep":6816,"ĠaktywnoÅĽci":6817,"Ġinfrastru":6818,"ĠprzeglÄħdar":6819,"ĠSztu":6820,"Ġprzeczyta":6821,"âĢļ":6822,"jnego":6823,"Ġwarst":6824,"ĠWY":6825,"Ġoli":6826,"Ġchcieli":6827,"miona":6828,"ĠmyÅĽlÄĻ":6829,"szyb":6830,"ĠAnna":6831,"Ġplasti":6832,"Ġgrupie":6833,"Ġpowoli":6834,"ĠPiS":6835,"Ġunik":6836,"42":6837,"ĠProjekt":6838,"ĠtuÅ¼":6839,"Ġwzrostu":6840,"ĠSerwi":6841,"Ġpotwierdza":6842,"waÅĦ":6843,"wcÃ³w":6844,"ĠzasiÄĻ":6845,"ĠkoÅĤo":6846,"Sy":6847,"Ġwysokie":6848,"Ġpromocji":6849,"Ġzmiana":6850,"Ġrozli":6851,"ĠokreÅĽlonych":6852,"media":6853,"ĠfilmÃ³w":6854,"ĠRegiona":6855,"dagogi":6856,"es":6857,"Ġsypia":6858,"siaÅĤa":6859,"Ġmiejscem":6860,"Ġdzielni":6861,"Firma":6862,"Ġwpis":6863,"Ġfilmy":6864,"ĠkÄħpie":6865,"ĠproducentÃ³w":6866,"dnienie":6867,"Ġograniczenia":6868,"Ġinternetowy":6869,"Ġprzycze":6870,"Ġstacji":6871,"ĠodbyÅĤ":6872,"Ġbazie":6873,"IK":6874,"ĠbudynkÃ³w":6875,"ĠbrÄħ":6876,"Ġwykaza":6877,"Ġinteligen":6878,"ĠPoznaÅĦ":6879,"Ġniewiele":6880,"ĠpowinniÅĽmy":6881,"Ġeksploa":6882,"Ġpracownika":6883,"ĠkoÅĦczy":6884,"ĠPrawo":6885,"ĠTwojej":6886,"Ġteor":6887,"ctwie":6888,"dows":6889,"ĠBogu":6890,"Ġgaler":6891,"Ġpoleca":6892,"Ġletni":6893,"Ġskon":6894,"ĠRozwoju":6895,"ranÅ¼a":6896,"zuka":6897,"Ġkonstrukcji":6898,"rzyja":6899,"Ġistotne":6900,"ĠNiektÃ³":6901,"ĠtÅĤuszcz":6902,"ĠdrugÄħ":6903,"Ġlist":6904,"ĠzamÃ³w":6905,"niÃ³sÅĤ":6906,"ĠnarzÄĻdzi":6907,"ĠtaÅĦ":6908,"Ġfilozo":6909,"Ġmarketing":6910,"Ġmakija":6911,"Ġpodzi":6912,"Ġterenu":6913,"Ġdruga":6914,"Ga":6915,"dzÄħc":6916,"Ġwice":6917,"Ġwiek":6918,"szÄĻdzie":6919,"sar":6920,"ĠKoÅĽcioÅĤa":6921,"Ġstosuje":6922,"Ġwybi":6923,"ĠOprÃ³cz":6924,"ĠszansÄĻ":6925,"Äħza":6926,"Ġkwoty":6927,"razy":6928,"Ġtwarz":6929,"Ġwpisu":6930,"row":6931,"ĠAf":6932,"nÄĻÅĤy":6933,"ĠmiesiÄħce":6934,"Ġwizeru":6935,"Ġbazy":6936,"Ġposze":6937,"Ġkrajach":6938,"ĠfunkcjÄĻ":6939,"rodÄĻ":6940,"Ġpewien":6941,"zz":6942,"Wa":6943,"2012":6944,"zon":6945,"stawia":6946,"Ġkatoli":6947,"Ġgospo":6948,"ĠstworzyÄĩ":6949,"ĠosobÄĻ":6950,"ĠpÃ³j":6951,".\"":6952,"tele":6953,"ĠBlu":6954,"Ġfach":6955,"pen":6956,"ĠUni":6957,"56":6958,"ĠpierwszÄħ":6959,"krea":6960,"rowanie":6961,"ction":6962,"ĠSh":6963,"ĠSzkÃ³ÅĤ":6964,"ĠgÅĤos":6965,"Ġwyjazd":6966,"nen":6967,"unku":6968,"ĠÅĽciÄħ":6969,"ĠMaria":6970,"ĠkoÅĽcie":6971,"ĠRi":6972,"Ġwalu":6973,"UM":6974,"ĠNowy":6975,"ĠIde":6976,"nina":6977,"ĠwÅĤÃ³":6978,"ĠwydarzeÅĦ":6979,"gli":6980,"ĠrÃ³Å¼ni":6981,"ĠspÃ³":6982,"Ġwierzy":6983,"int":6984,"Ġdokony":6985,"Ġnauczycieli":6986,"Ġsposobu":6987,"ĠFirma":6988,"Ġjednostek":6989,"ÅĤama":6990,"Ġsprawdzi":6991,"ĠprogramÃ³w":6992,"ĠmyÅĽl":6993,"43":6994,"ĠspoÅĤecznej":6995,"ĠwyglÄħ":6996,"Ġkot":6997,"Fi":6998,"Ġmulti":6999,"Ġrysu":7000,"Zapraszamy":7001,"ĠpowyÅ¼":7002,"ĠbudowÄĻ":7003,"Ġbak":7004,"cuje":7005,"ĠodbyÅĤa":7006,"ĠSej":7007,"Ġlicen":7008,"ĠÅĽwiatowej":7009,"ĠwysokÄħ":7010,"mont":7011,"leb":7012,"ĠpoÅĤÄħczenia":7013,"Ġfabry":7014,"wskiej":7015,"Ġnagle":7016,"Ġdroga":7017,"ĠpostaÄĩ":7018,"iar":7019,"jechaÄĩ":7020,"...]":7021,"ĠpobliÅ¼u":7022,"ĠpotrafiÄħ":7023,"ntar":7024,"Ġspecjalne":7025,"cal":7026,"Ġprzeja":7027,"ĠksiÄħÅ¼kÄĻ":7028,"ĠprzysÅĤu":7029,"ĠÅĽwiadczenia":7030,"Ġ,,":7031,"gene":7032,"ĠpeÅĤnÄħ":7033,"dzonego":7034,"Ġol":7035,"Ġklimaty":7036,"Ġwakacje":7037,"ĠzaczÄħÅĤ":7038,"ĠdoszÅĤo":7039,"Ġzainsta":7040,"Ġtajemni":7041,"Ġgroma":7042,"Ġkondy":7043,"Ġzwa":7044,"owaÅĦ":7045,"Ġalkoholu":7046,"ĠRober":7047,"wnie":7048,"czonÄħ":7049,"ĠStowarzyszenia":7050,"ĠÃ":7051,"Ġzagospodar":7052,"Ġprzyw":7053,"Ġogni":7054,"Ġtechniczne":7055,"Ġzakupy":7056,"Ġuniwersa":7057,"Ġfigu":7058,"owiska":7059,"ĠBydgo":7060,"Ġuwie":7061,"ĠZacho":7062,"ĠuzupeÅĤ":7063,"ĠmiesiÄħca":7064,"ĠgÅĤowie":7065,"ĠTru":7066,"Ġkuli":7067,"ĠÅĽnie":7068,"%.":7069,"ĠnajmÅĤod":7070,"Ġsprawi":7071,"ĠudostÄĻpnia":7072,"Ġkoncert":7073,"ĠZamawia":7074,"kujemy":7075,"towaÅĤa":7076,"ĠTwojego":7077,"ckÄħ":7078,"Ġmro":7079,"Kolej":7080,"ĠdowÃ³d":7081,"szÃ³w":7082,"dziaÅĤek":7083,"Ġprzeci":7084,"Ġwskazuje":7085,"zur":7086,"ĠIP":7087,"ĠWyborcza":7088,"Ġ400":7089,"Ġczuj":7090,"Ġkorzyst":7091,"ĠstaÅĤa":7092,"ĠzaczÄħÄĩ":7093,"La":7094,"ĠWojewÃ³dztwa":7095,"ĠwielkÄħ":7096,"dniu":7097,"ĠÅĤÄħczy":7098,"--------":7099,"ĠTi":7100,"Strona":7101,"ĠprzepÅĤy":7102,"ĠMikoÅĤa":7103,"Ġprosimy":7104,"Ġswoimi":7105,"ĠlodÃ³w":7106,"ĠwyraÅ¼a":7107,"cjonu":7108,"ĠÅĽwiado":7109,"Ġzapropo":7110,"ĠÂ§":7111,"Ġdesi":7112,"Ġkontek":7113,"ĠDzieÅĦ":7114,"Ġodebra":7115,"Ġukaza":7116,"ance":7117,"tent":7118,"Ġwyklu":7119,"ciach":7120,"ĠsÅĤuÅ¼y":7121,"ĠczÄĻÅĽciÄħ":7122,"Ġupad":7123,"ĠOpera":7124,"nowaÅĤ":7125,"Ġrekru":7126,"ĠdzieÄĩmi":7127,"Ġodleg":7128,"stycznym":7129,"Ġzyska":7130,"Ġobiektu":7131,"waga":7132,"ĠprzygotowaÄĩ":7133,"ĠWor":7134,"Ġkurs":7135,"Ġpierwo":7136,"Ġprzygotowy":7137,"Ġdarmo":7138,"ĠÅĽwiÄħte":7139,"ĠuÅĤo":7140,"ceÅĦ":7141,"Ġreligi":7142,"Ġodczy":7143,"ĠwchodzÄħ":7144,"Ġokna":7145,"ĠMÄĻ":7146,"Ġdobrych":7147,"Ġdawno":7148,"nowo":7149,"siÅĤku":7150,"Ġpta":7151,"zar":7152,"mpo":7153,"ĠosobiÅĽcie":7154,"nder":7155,"Ġtrudne":7156,"Ã³rek":7157,"ĠmoÅ¼ecie":7158,"Ġfinansowe":7159,"Ġklient":7160,"ĠwyraÅºnie":7161,"EJ":7162,"Ġustawie":7163,"Ġkonkurs":7164,"ĠOs":7165,"ĠDÅĤugo":7166,"ĠskÅĤadniki":7167,"Ġwszech":7168,"Ġdziennie":7169,"ĠporÃ³wnaniu":7170,"domoÅĽÄĩ":7171,"ls":7172,"ĠBibliote":7173,"Ġpopro":7174,"uch":7175,"ĠrÃ³wnowa":7176,"Ġtegoro":7177,"ĠOdpowie":7178,"Ġodnale":7179,"tre":7180,"Ġwiec":7181,"Podczas":7182,"Ġidealny":7183,"ĠProgramu":7184,"Ġokazuje":7185,"ĠMuzy":7186,"twar":7187,"Ġspace":7188,"cek":7189,"Ġzbro":7190,"Ġszef":7191,"ciÅĤa":7192,"Ġbroni":7193,"Ġkamie":7194,"ĠpoÅĤudni":7195,"Ġprzeznaczone":7196,"ht":7197,"Ġewiden":7198,"Ġopiera":7199,"szaÅĤ":7200,"gowa":7201,"chroni":7202,"Ġmasy":7203,"ĠMichaÅĤ":7204,"logicznej":7205,"ĠbyÅĤam":7206,"Ġweekend":7207,"Ġcookie":7208,"Ġmaj":7209,"Ġnocleg":7210,"Ġkoro":7211,"ach":7212,"ĠChoÄĩ":7213,"ĠstaÅĤy":7214,"laminu":7215,"ĠpowiÄħza":7216,"ĠMistrzo":7217,"Ġobrazu":7218,"ĠÅģuka":7219,"ĠgotÃ³w":7220,"Ġpodobne":7221,"Ġznane":7222,"ĠwspÃ³lnego":7223,"Ġuchwy":7224,"liwie":7225,"ĠOrganiza":7226,"NIE":7227,"iÄĻkszoÅĽÄĩ":7228,"ĠSprzeda":7229,"ang":7230,"Ġskompli":7231,"ĠOC":7232,"ĠNIE":7233,"Ġbloga":7234,"ĠwolnoÅĽci":7235,"wami":7236,"Pe":7237,"ĠrozwiÄħzaniem":7238,"ĠOÅĽrod":7239,"iÃ³w":7240,"ĠTro":7241,"Ġpostanowie":7242,"cielem":7243,"ĠOfer":7244,"dnoÅĽÄĩ":7245,"ĠzmÄĻ":7246,"rÃ³bu":7247,"Ġdedy":7248,"ĠbÃ³":7249,"dowym":7250,"Ġauta":7251,"ĠWrocÅĤawiu":7252,"Ġpowtarza":7253,"ĠWedÅĤug":7254,"ĠdziesiÄĻ":7255,"szkÄĻ":7256,"ĠzawodnikÃ³w":7257,"bioru":7258,"ĠjeÅº":7259,"Ġjezio":7260,"Ġportalu":7261,"Ġznaczenia":7262,"Ġpunkty":7263,"ilka":7264,"Ġgospodarczej":7265,"ÅĦskÄħ":7266,"Ġgrubo":7267,"spery":7268,"gowe":7269,"mierz":7270,"ĠzamÃ³wienie":7271,"ĠKazi":7272,"ĠrosnÄħ":7273,"ĠkawaÅĤ":7274,"pospolitej":7275,"Ġwymiany":7276,"twor":7277,"rur":7278,"ĠQu":7279,"minie":7280,"tno":7281,"ĠtoÅ¼":7282,"ĠsprawÄħ":7283,"ĠPaÅĦstw":7284,"Ġinformuje":7285,"Ġ75":7286,"Ġmedycy":7287,"Ġ2003":7288,"ĠArchi":7289,"tnik":7290,"wange":7291,"ĠwspÃ³lno":7292,"ĠWÅĽrÃ³d":7293,"Ġkibi":7294,"ĠdecyzjÄĻ":7295,"Ġtekstu":7296,"nemu":7297,"ĠpoÅ¼yczki":7298,"Ġsche":7299,"Ġujaw":7300,"Ġprzygotowanie":7301,"Ġdokumenty":7302,"rÃ³deÅĤ":7303,"ĠdÅĤugoÅĽÄĩ":7304,"Ġproto":7305,"Ġkryzy":7306,"Ġdochodzi":7307,"ĠwyksztaÅĤ":7308,"ĠAutor":7309,"Cho":7310,"ÅĤbym":7311,"Ġharmo":7312,"Ġtara":7313,"ĠEko":7314,"ĠchorÃ³b":7315,"ĠMor":7316,"Ġelementem":7317,"ĠuÅĤatwia":7318,"Go":7319,"Ġpotrzebuje":7320,"Ġniczego":7321,"ĠdrÃ³g":7322,"Ġindywidualnych":7323,"Ġsposobem":7324,"ĠÅ¼adnej":7325,"Ġzastrze":7326,"ĠskÃ³ra":7327,"Ġpolityki":7328,"ĠPia":7329,"Ġdodaje":7330,"ĠTre":7331,"Ġwideo":7332,"Ġface":7333,"ĠwÅĤasny":7334,"czyÅĤo":7335,"tniej":7336,"Ġwymagania":7337,"Ġogrod":7338,"ÅĤby":7339,"ĠprzedÅĤu":7340,"ĠÃ³w":7341,"ĠgÅĤÃ³wnym":7342,"dziela":7343,"ĠSuper":7344,"ker":7345,"fla":7346,"ĠNic":7347,"Ġhipo":7348,"Ġlogo":7349,"ĠAp":7350,"Ġcharakterze":7351,"ĠNasze":7352,"ĠwiÄĻkszej":7353,"ĠBel":7354,"Ġpartne":7355,"ĠÅĽwiatÅĤo":7356,"ĠBla":7357,"ĠsprÃ³b":7358,"Ġunie":7359,"Ġkreatyw":7360,"cena":7361,"Ġzmianie":7362,"ĠpodwÃ³j":7363,"gnia":7364,"ĠwskaÅº":7365,"Ġdofinans":7366,"zmie":7367,"Ġnajwy":7368,"ĠTam":7369,"ĠporzÄħdku":7370,"ĠJeszcze":7371,"Ġnet":7372,"Ġpoprawia":7373,"Ġprzygot":7374,"ĠSÅĤo":7375,"Ġrea":7376,"Ġkompeten":7377,"blem":7378,"................................":7379,"ĠniezaleÅ¼nie":7380,"Ġkompa":7381,"Ġsesji":7382,"78":7383,"Ġgrun":7384,"Ġeki":7385,"ownictwa":7386,"ĠopÅĤaty":7387,"psu":7388,"ĠosobÄħ":7389,"ĠpojawiajÄħ":7390,"ĠpracowaÄĩ":7391,"Ġwdro":7392,"Ġodwiedza":7393,"ĠMiejskiej":7394,"Ġplu":7395,"wna":7396,"Ġwarsztaty":7397,"Ġzaleca":7398,"ĠliczbÄĻ":7399,"Ġwizu":7400,"ĠnaleÅ¼a":7401,"Ġsamolo":7402,"ruszy":7403,"ĠÅ¼yÄĩ":7404,"Ġpotrzeba":7405,"Ġbedzie":7406,"ĠRosji":7407,"robo":7408,"mysÅĤ":7409,"Ġkalenda":7410,"Ġkost":7411,"41":7412,"Ġprezent":7413,"ĠktÃ³remu":7414,"ĠkorzyÅĽci":7415,"Ġlokalizacji":7416,"ciÄħgniÄĻ":7417,"Ġsukces":7418,"Ġkredytu":7419,"ĠreÅ¼y":7420,"JuÅ¼":7421,"bek":7422,"Ġkonkursie":7423,"ĠpasaÅ¼e":7424,"czce":7425,"Ġskali":7426,"Ġkolorysty":7427,"ĠpodwyÅ¼":7428,"OC":7429,"nnÄħ":7430,"MI":7431,"Ġsilnik":7432,"Ġmuzyka":7433,"ĠArt":7434,"ĠszukaÄĩ":7435,"ego":7436,"Ġzaby":7437,"Ġznanych":7438,"Ġzarzu":7439,"ĠzgÅĤa":7440,"65":7441,"szer":7442,"ĠprzestrzeÅĦ":7443,"http":7444,"95":7445,"ĠGi":7446,"Ġprawnych":7447,"Ġpisem":7448,"Ġwykry":7449,"ĠÅĤatwe":7450,"ĠmontaÅ¼u":7451,"ĠCu":7452,"Ġfunkcje":7453,"dliwoÅĽci":7454,"ĠpowstaÅĤ":7455,"Ġpojazdu":7456,"Ġpokoje":7457,"zor":7458,"><":7459,"ĠÅºrÃ³dÅĤa":7460,"Ġidealne":7461,"tnio":7462,"ĠWiele":7463,"Ġemery":7464,"Ġsamodzielnie":7465,"ĠGrzego":7466,"My":7467,"mna":7468,"torek":7469,"owin":7470,"Ġszac":7471,"Ġorganizacja":7472,"TY":7473,"regu":7474,"kowaÅĤ":7475,"Ġpomimo":7476,"usza":7477,"ĠIS":7478,"Ġrosyj":7479,"rzaÅĤ":7480,"ĠAng":7481,"UL":7482,"byÅĽmy":7483,"ĠÅºrÃ³deÅĤ":7484,"Ġodbiera":7485,"Ġanalizy":7486,"Ġtygodnie":7487,"Ġzarazem":7488,"mani":7489,"ĠodwoÅĤa":7490,"ĠdowiedzieÄĩ":7491,"ĠzresztÄħ":7492,"demu":7493,"ĠÅ¼aden":7494,"Ġfotografi":7495,"daj":7496,"sowanych":7497,"ĠwÅĤadzy":7498,"Ġprzodu":7499,"OWY":7500,"tko":7501,"Ġblogu":7502,"czanie":7503,"Ġbank":7504,"ĠartykuÅĤÃ³w":7505,"ĠÄ¹Åºe":7506,"Ġkasy":7507,"Ġinternecie":7508,"Ġstronach":7509,"Ġdodatek":7510,"ĠMoÅ¼esz":7511,"soli":7512,"ĠBru":7513,"Ġdzwo":7514,"Ġsposoby":7515,"chÅĤo":7516,"owaÅĤy":7517,"Ġgospodarki":7518,"Ġsklepach":7519,"pek":7520,"tz":7521,"Ġredu":7522,"rzona":7523,"seÅĤ":7524,"Ġuprawia":7525,"szuka":7526,"ĠgÅĤÃ³wnej":7527,"ĠuzupeÅĤnia":7528,"ĠDia":7529,"ĠToru":7530,"ĠbyÅĤem":7531,"systen":7532,"Ġpil":7533,"wiona":7534,"tero":7535,"Ġnarze":7536,"ĠmusiaÅĤa":7537,"iera":7538,"Ġzje":7539,"ĠwkÅĤad":7540,"Ġpodstawowe":7541,"Ġstanowiska":7542,"Ġsilnika":7543,"Ġosobowe":7544,"ĠÅ¼Äħ":7545,"ĠstudentÃ³w":7546,"piec":7547,"Ġmani":7548,"ĠPracy":7549,"Ġsmaku":7550,"Ġtel":7551,"Ġwymienia":7552,"ÅĦstwem":7553,"ÅĦce":7554,"ĠzachÄĻca":7555,"ĠSzkoÅĤa":7556,"ĠJezus":7557,"Ġreal":7558,".),":7559,"Ġbywa":7560,"Ġfunkcjonowania":7561,"ĠBro":7562,"Ġkompo":7563,"ĠDÄħ":7564,"ĠmÅĤod":7565,"ĠdruÅ¼yny":7566,"nowany":7567,"Ġciekawych":7568,"Ġakty":7569,"ĠnajwiÄĻcej":7570,"ĠRozpo":7571,"Ġszybciej":7572,"Ġdrzew":7573,"Ġproducent":7574,"ĠksztaÅĤt":7575,"szli":7576,"ieÅĤ":7577,"ioryte":7578,"ĠJaku":7579,"ĠkoniecznoÅĽci":7580,"Ġserce":7581,"Ġbierze":7582,"ĠNiemiec":7583,"ĠpodejÅĽcie":7584,"Ġawar":7585,"Ġznany":7586,"dap":7587,"Ġrzadko":7588,"ĠkolorÃ³w":7589,"Ġniem":7590,"Ġwielkim":7591,"ĠMer":7592,"kocha":7593,"inte":7594,"Ġmebli":7595,"Ġ48":7596,"ĠLED":7597,"Ġ37":7598,"Ġzlokali":7599,"Ġsprzyja":7600,"ĠSpotka":7601,"Åĥ":7602,"Ġremon":7603,"mistrz":7604,"Ġodrobi":7605,"powtarz":7606,"popular":7607,"ĠChcia":7608,"Ġnogi":7609,"ces":7610,"ĠFrancji":7611,"rzyna":7612,"ĠWielkopol":7613,"korzyst":7614,"obi":7615,"Ġzastosowania":7616,"Ġprosta":7617,"ĠPart":7618,"Ġkrok":7619,"Ġsatysfak":7620,"Ġmusie":7621,"ĠpowtÃ³":7622,"nkowe":7623,"Ġmodele":7624,"Ġwielki":7625,"Ġopcji":7626,"rowany":7627,"Ġoprogramowania":7628,"ĠTego":7629,"trak":7630,"Ġrehabili":7631,"ĠsÅĤod":7632,"Ġpoczucie":7633,"ĠKolor":7634,"ĠIT":7635,"que":7636,"Â»":7637,"taria":7638,"bina":7639,"ĠsÅĤowo":7640,"ĠkoÅĽcioÅĤa":7641,"Ġlegen":7642,"Ġsubstancji":7643,"ĠpowstaÅĤa":7644,"ĠPowsta":7645,"ÅĤuje":7646,"Ġlam":7647,"ĠForum":7648,"ĠprowadziÄĩ":7649,"Ġtrybie":7650,"Ġnazwy":7651,"ĠBank":7652,"Wo":7653,"sorty":7654,"czono":7655,"Ġznajdziemy":7656,"owskich":7657,"Ġszeroko":7658,"ĠCzas":7659,"ĠBryta":7660,"ĠUrzÄħd":7661,"ĠwszÄĻdzie":7662,"Ġutru":7663,"Ġtrafia":7664,"Åºnia":7665,"ĠobowiÄħzkÃ³w":7666,"ĠKR":7667,"ĠMal":7668,"ĠnajwaÅ¼niejszych":7669,"ĠHen":7670,"szonych":7671,"Ġzasob":7672,"ĠZobacz":7673,"Ġformu":7674,"ĠPrac":7675,"ĠwpÅĤa":7676,"Ġtowarzyszy":7677,"ĠFranci":7678,"Ġrat":7679,"Ġwyci":7680,"Ġzwycza":7681,"nkÄħ":7682,"genera":7683,"pry":7684,"nastu":7685,"Ġ01":7686,"stycznÄħ":7687,"Ġrestauracji":7688,"ĠWindows":7689,"2011":7690,"ĠsÄħsie":7691,"Ġwina":7692,"Ġsprawach":7693,"Ġdopuszcza":7694,"ĠjakimÅĽ":7695,"Ġdosy":7696,"Ġ120":7697,"Ġprzyspie":7698,"ĠspoÅĤecznych":7699,"ĠWiÄĻ":7700,"Ġedukacji":7701,"Ġterminu":7702,"Ġranki":7703,"ĠrozwiÄħ":7704,"Ġciasto":7705,"koje":7706,"Ġodpowiedniej":7707,"Ġrodzinie":7708,"dii":7709,"tacje":7710,"czniki":7711,"ĠpowieÅĽci":7712,"dÅĤuÅ¼":7713,"ĠMedy":7714,"ĠWielkiej":7715,"Ġzamyka":7716,"ĠkrÃ³tko":7717,"conych":7718,"ĠMan":7719,"ĠTele":7720,"Ġdaleko":7721,"Ġgnia":7722,"nkowo":7723,"ĠsiedzibÄħ":7724,"ĠDzien":7725,"Ġ2002":7726,"Ġpracownicy":7727,"Ġzaopa":7728,"Ġodpowiednich":7729,"ĠoddziaÅĤy":7730,"low":7731,"Ġ55":7732,"ĠpytaÅĦ":7733,"))":7734,"zki":7735,"Ġis":7736,"ĠuroczystoÅĽci":7737,"ĠAgen":7738,"Ġsprawoz":7739,"Ġtermo":7740,"OZ":7741,"ĠZapew":7742,"ÅĽnikÃ³w":7743,"ĠstaÅĤe":7744,"ĠgrÄĻ":7745,"Ġ(...)":7746,"ĠMinistra":7747,"IG":7748,"Ġpobu":7749,"ĠPolecam":7750,"woka":7751,"ĠOpo":7752,"ĠZiemi":7753,"ĠobsÅĤuga":7754,"pel":7755,"Ġkle":7756,"sier":7757,"ĠotrzymaÅĤ":7758,"sady":7759,"Ġnawie":7760,"ĠJesteÅĽmy":7761,"ĠâĨ":7762,"ĠskÅĤadzie":7763,"ĠwnioskÃ³w":7764,"Ġowoc":7765,"Ġwzajem":7766,"Ġpewnego":7767,"ĠrobiÄħ":7768,"ĠKre":7769,"racjÄĻ":7770,"ĠXIX":7771,"Ġoleju":7772,"niÅ¼ej":7773,"Ġwygodne":7774,"mowane":7775,"Ġ33":7776,"ĠlÄĻ":7777,"Ġnatury":7778,"Ġtanie":7779,"ĠwyjaÅĽnia":7780,"ĠnaleÅ¼":7781,"ĠosiÄħgnÄħÄĩ":7782,"Ġczasy":7783,"Ġmodeli":7784,"Ġzdra":7785,"Ġmenu":7786,"lontar":7787,"sÅĤucha":7788,"liÅĽcie":7789,"Ġliczy":7790,"Ġkoniecznie":7791,"tes":7792,"Ġteksty":7793,"gÃ³lnie":7794,"ĠUrzÄĻ":7795,"ĠdostÄĻpna":7796,"ĠzbiÃ³r":7797,"tow":7798,"iusza":7799,"Ġspotkaniu":7800,"gorza":7801,"ĠkwotÄĻ":7802,"Ġprzeznaczony":7803,"Ġbiura":7804,"Ġpowiatu":7805,"Ġwypada":7806,"Ġprezydenta":7807,"ĠChrystusa":7808,"ĠTry":7809,"Ġakumula":7810,"sel":7811,"ĠwypeÅĤnia":7812,"Ġsystemy":7813,"Ġaktor":7814,"ĠspoÅĤeczeÅĦstwa":7815,"Ġnowoczesne":7816,"Ġzmniejsza":7817,"ĠsklepÃ³w":7818,"cs":7819,"ĠEn":7820,"98":7821,"Ġzwal":7822,"Ġprzysto":7823,"Ġodpowiedniego":7824,"Ġprzychodzi":7825,"Å¼nej":7826,"Ġinna":7827,"zesa":7828,"Ġserwe":7829,"ĠksiÄħÅ¼ce":7830,"Ġoperacji":7831,"ĠJedy":7832,"Ġprezes":7833,"ĠmogÅĤo":7834,"ĠWÃ³j":7835,"czeka":7836,"ĠPZ":7837,"Ġzamon":7838,"ĠnaÅĤo":7839,"Ġopisy":7840,"Ġsuple":7841,"Ġtowar":7842,"Ġryzyka":7843,"ĠwyÅĽci":7844,"Ġpoe":7845,"ĠPotem":7846,"ĠÅĽwiÄĻta":7847,"nkami":7848,"Ġsympa":7849,"jnym":7850,"Ġkoszy":7851,"Ġubo":7852,"Ġpomieszczenia":7853,"niÄĻte":7854,"Ġudo":7855,"ĠNajlep":7856,"ĠstÄħd":7857,"Ġsezonu":7858,"Ġzanieczy":7859,"ĠMarek":7860,"ĠAkademii":7861,"Mu":7862,"ĠHer":7863,"Ġjab":7864,"ĠudziaÅĤem":7865,"ĠOchrony":7866,"Ġstart":7867,"wkÄĻ":7868,"sujÄħ":7869,"mes":7870,"IV":7871,"iÅĤ":7872,"Ġwaka":7873,"Ġszybkie":7874,"ĠnazwÄĻ":7875,"dwi":7876,"lonej":7877,"ĠFacebo":7878,"Ġaparta":7879,"ĠAgnie":7880,"larÃ³w":7881,"ĠUr":7882,"Ġura":7883,"Ġzarabia":7884,"Ġzobaczy":7885,"Ġdziewczyny":7886,"Ġzai":7887,"Ġproblemem":7888,"Ġargu":7889,"Ġpraktyce":7890,"ĠKami":7891,"Ġzapowie":7892,"dztwo":7893,"ĠOlszty":7894,"linie":7895,"mujÄħc":7896,"strak":7897,"oku":7898,"ĠKro":7899,"smo":7900,"ĠzauwaÅ¼y":7901,"techni":7902,"Ġulega":7903,"miaru":7904,"Ġwpad":7905,"ĠGar":7906,"Ġprowadzone":7907,"ĠwiÄĻkszych":7908,"Ġagre":7909,"Ġwymo":7910,"Ġwyprze":7911,"Ġaler":7912,"dziÅĤy":7913,"ĠÅ¼yci":7914,"67":7915,"chan":7916,"Ġatmosfery":7917,"ĠZda":7918,"Ġex":7919,"Ġdobro":7920,"ĠinformacjÄĻ":7921,"jowe":7922,"ĠZd":7923,"trzÄħ":7924,"AB":7925,"ĠjakÄħÅĽ":7926,"ĠpodrÄĻ":7927,"ĠtrudnoÅĽci":7928,",...":7929,"ĠRzeczy":7930,"logiczny":7931,"Ten":7932,"ĠÅĽciany":7933,"owanej":7934,"ĠproÅĽ":7935,"ĠskÄħd":7936,"Ġpsa":7937,"ĠzgodÄĻ":7938,"ĠskrÃ³":7939,"ĠodbyÅĤo":7940,"skimi":7941,"ĠnapisaÅĤ":7942,"Ġprezentuje":7943,"Ġlapto":7944,"gier":7945,"ham":7946,"Ġreflek":7947,"Ġnapi":7948,"Ġsekre":7949,"Ġpode":7950,"Ġpobytu":7951,"ĠkoÅĦcÃ³w":7952,"ĠStaro":7953,"ĠmieszkaÅĦcy":7954,"Osta":7955,"ĠZespÃ³ÅĤ":7956,"ĠsamÄħ":7957,"MA":7958,"Ġsynte":7959,"Ġmetod":7960,"waÅ¼nie":7961,"ĠuÅ¼ywaÄĩ":7962,"czba":7963,"torze":7964,"Ġwykorzystania":7965,"EST":7966,"Â®":7967,"Ġpozby":7968,"zywania":7969,"Å¼onÄħ":7970,"ĠKe":7971,"Ġprecyzy":7972,"Ġciekawy":7973,"ling":7974,"Ġswej":7975,"Ġkierowni":7976,"Ġminimum":7977,"Ġpublikacji":7978,"ĠĠĠĠ":7979,"ĠnarzÄĻdzie":7980,"Ġniepowtarz":7981,"czak":7982,"mana":7983,"Ġniedawno":7984,"ĠÄĩwiczeÅĦ":7985,"dziÅĤo":7986,"Ġtren":7987,"Ġpragnie":7988,"ĠobowiÄħzek":7989,"ĠaranÅ¼a":7990,"naliza":7991,"Ġkonsulta":7992,"Ġbarw":7993,"ĠowocÃ³w":7994,"Ġ250":7995,"Ġkatalog":7996,"ĠsposobÃ³w":7997,"ĠOto":7998,"ĠdajÄħ":7999,"Ġtematu":8000,"Ġostatniej":8001,"ĠfirmÄħ":8002,"ĠSka":8003,"Ġogromne":8004,"Ġpowietrze":8005,"ĠpojÄĻcia":8006,"Ġznajdziecie":8007,"ĠSÅĤowa":8008,"ĠGenera":8009,"ĠOgÅĤo":8010,"ĠodlegÅĤoÅĽci":8011,"»¿":8012,"Ġbiuro":8013,"Ġkultur":8014,"ĠgÅĤowÄĻ":8015,"ĠPraca":8016,"Ġpana":8017,"Ġtrwania":8018,"Ġimieniu":8019,"Ġwidok":8020,"ĠpamiÄħ":8021,"Ġnajszyb":8022,"Ġodde":8023,"Ġekspery":8024,"ï»¿":8025,"Ġsuge":8026,"cku":8027,"Ġuj":8028,"58":8029,"Ġodpoczy":8030,"ĠmaÅĤa":8031,"Fa":8032,"Ġsztuk":8033,"GO":8034,"Ġprzedszkola":8035,"Ġwybranych":8036,"ĠcieszyÄĩ":8037,"Ġprzypa":8038,"ĠdokonaÄĩ":8039,"So":8040,"Ġprzeko":8041,"Ġ[...]":8042,"dziesiÄħt":8043,"Ġasorty":8044,"ĠpÅĤ":8045,"ĠzakoÅĦczeniu":8046,"ĠCom":8047,"stnieje":8048,"steÅĽ":8049,"Ġdzieciom":8050,"czech":8051,"ĠzbliÅ¼a":8052,"68":8053,"ĠprzeszÅĤoÅĽci":8054,"Aby":8055,"dzeni":8056,"dÅºmi":8057,"Ġdelikatnie":8058,"ĠnapisaÄĩ":8059,"Ġwygo":8060,"ĠwskazÃ³w":8061,"ĠAktual":8062,"ĠnawiÄħ":8063,"ĠrÄĻki":8064,"Ġimprez":8065,"lom":8066,"Ġmon":8067,"ĠuchwaÅĤy":8068,"Ġdokumentu":8069,"zjo":8070,"ĠpokazaÄĩ":8071,"towÄħ":8072,"Ġszkodli":8073,"ĠPrzygo":8074,"Ġelektronicznej":8075,"ĠdostaÄĩ":8076,"kl":8077,"storia":8078,"Ġreko":8079,"ĠmÄĻÅ¼czyzna":8080,"scie":8081,"Ġsmak":8082,"Ġkompleks":8083,"terem":8084,"dowie":8085,"stola":8086,"Ġklubu":8087,"Ġlimi":8088,"Ġwielka":8089,"ĠnawilÅ¼a":8090,"Ġmono":8091,"Ġprzetwarzania":8092,"Ġaplika":8093,"ĠzdolnoÅĽci":8094,"Ñı":8095,"ĠspotkaÄĩ":8096,"ĠuÅĽmiech":8097,"Ġprzeszko":8098,"Ġtrzecie":8099,"ĠkoÅĽci":8100,"Ġznam":8101,"html":8102,"Ġzabieg":8103,"owano":8104,"Ġdanym":8105,"Ġraba":8106,"ĠNiemcy":8107,"Ġpary":8108,"ĠpiÄĻkna":8109,"ĠJanu":8110,"lizmu":8111,"Ġpozyska":8112,"Ġgwarantuje":8113,"Ġprocesie":8114,"ĠZawsze":8115,"Ġleczni":8116,"Ġfotograf":8117,"ĠÅĽrednio":8118,"raÅĦ":8119,"Ġprzebie":8120,"ĠnakÅĤada":8121,"ĠMate":8122,"ĠBoÅ¼ego":8123,"Ġmora":8124,"UD":8125,"Ġwydru":8126,"Ġstworzy":8127,"Ġkawy":8128,"ĠdÅºwiÄĻk":8129,"Ġpowstania":8130,"ĠDO":8131,"Ġczarny":8132,"ĠJapo":8133,"Ġdodatku":8134,"dziaÅĤÃ³w":8135,"ĠWscho":8136,"Ġzer":8137,"ÅĤaby":8138,"owanego":8139,"ĠodpadÃ³w":8140,"wencji":8141,"ĠÅĽrodka":8142,"ĠzmianÄĻ":8143,"âĢĶ":8144,"Ġlekarz":8145,"Ġchu":8146,"Ġbisku":8147,"Ġczaso":8148,"ĠElekt":8149,"Ġautora":8150,"dzkie":8151,"Ġredak":8152,"ĠJoh":8153,"ĠBiaÅĤo":8154,"miÄĩ":8155,"Ġbanku":8156,"Ġbudowlanych":8157,"ÅĤudni":8158,"Ġtabe":8159,"zaleÅ¼":8160,"ĠlistÄĻ":8161,"ĠsytuacjÄĻ":8162,"Ġregionu":8163,"Ġspor":8164,"ĠâĢ¹":8165,"Ġdorad":8166,"WiÄĻcej":8167,"Ġemocji":8168,"ĠwpÅĤywu":8169,"Ġbudynek":8170,"Ġautomatycznie":8171,"ĠZw":8172,"ĠVI":8173,"ĠTade":8174,"Ġgospoda":8175,"ĠmieÅĽci":8176,"Ġgaze":8177,"Or":8178,"ĠÅ¼ywnoÅĽci":8179,"niejszÄħ":8180,"ĠnastÄĻpuje":8181,"ĠogrÃ³d":8182,"ĠÅĽmierÄĩ":8183,"Ġobiek":8184,"Ġwysokim":8185,"Ġcechy":8186,"Ġodchu":8187,"ĠPiÄĻk":8188,"logicznego":8189,"ĠZawo":8190,"ĠwypoÅ¼y":8191,"ĠDie":8192,"owaÅĤem":8193,"ĠAm":8194,"Ġzachowanie":8195,"tywne":8196,"prz":8197,"Ġstaran":8198,"stami":8199,"legi":8200,"ĠsÅĤuÅ¼by":8201,"ĠkilkanaÅĽcie":8202,"Ġprzeprowadza":8203,"ĠbÅĤÄħd":8204,"Ġnajlepszym":8205,"Ġkosmetyki":8206,"wice":8207,"Ã³Åºniej":8208,"Ġprzew":8209,"datk":8210,"ĠMaÅĤo":8211,"Ġczynienia":8212,"97":8213,"Å¼onym":8214,"ĠwykÅĤad":8215,"MoÅ¼e":8216,"ÅĽlÄħ":8217,"Ġsprowa":8218,"ĠnastÄĻpujÄħce":8219,"Ġradio":8220,"Ġ65":8221,"ĠdziaÅĤaÄĩ":8222,"Ġprzybli":8223,"Ġprawem":8224,"Ġzdarzenia":8225,"skry":8226,"Ġowoce":8227,"ĠÅĤÄħcznie":8228,"Ġswe":8229,"Ġprzepis":8230,"Ġsmo":8231,"ĠsÅĤuÅ¼b":8232,"ĠPolacy":8233,"Ġwzboga":8234,"ĠprzeciÄĻ":8235,"jskim":8236,"Ġdawna":8237,"Ġniewi":8238,"lla":8239,"Ġoddzie":8240,"ĠÅĤÃ³Å¼":8241,"Ġstosowane":8242,"ÅĿ":8243,"ĠFunduszu":8244,"ĠNasza":8245,"tale":8246,"ture":8247,"Ho":8248,"ĠzagroÅ¼enia":8249,"lakty":8250,"Ġremont":8251,"ĠznajdÄħ":8252,"szÅĤy":8253,"iÄĻkujemy":8254,"ĠpewnoÅĽÄĩ":8255,"owice":8256,"ther":8257,"ĠâĨĴ":8258,"trio":8259,"Ġzysku":8260,"ĠwzÃ³r":8261,"Ġklimat":8262,"ĠmilionÃ³w":8263,"ĠwÄĻd":8264,"Ġatrakcji":8265,"Ġresz":8266,"ĠRzy":8267,"tui":8268,"ĠopÅĤat":8269,"ÅĤymi":8270,"Ġrad":8271,"Ġskarb":8272,"Ġoczu":8273,"Ġprzestrzega":8274,"Ġznik":8275,"ĠpielÄĻgnacji":8276,"ĠbezpoÅĽre":8277,"Ġzdanie":8278,"ĠProwa":8279,"Ġakade":8280,"kiedy":8281,"ĠpiÄĻkny":8282,"Ġcukier":8283,"ĠtyÅĤu":8284,"ĠludÅºmi":8285,"ĠtudzieÅ¼":8286,"66":8287,"Ġkwiaty":8288,"ĠuÅ¼ytku":8289,"ĠwyÅĤo":8290,"Ġtrasy":8291,"ĠopÅĤaca":8292,"Ġobiekty":8293,"ĠNiemczech":8294,"ĠJÄĻ":8295,"cyjno":8296,"Ġzostali":8297,"turÄħ":8298,"ĠZu":8299,"Ġziem":8300,"Ġcerami":8301,"Ġobserw":8302,"kowaniu":8303,"ĠCD":8304,"ela":8305,"Ġustalenia":8306,"Ġochronie":8307,"ĠskÅĤadania":8308,"Ġwprost":8309,"emo":8310,"nictwa":8311,"Ġcmenta":8312,"niÅĤa":8313,"ĠÅĤadnie":8314,"ntro":8315,"ĠsiÅĤÄĻ":8316,"Ġprzedmiotu":8317,"Ġsrebr":8318,"Ġbadaw":8319,"Ġwodzie":8320,"Ġparafii":8321,"sowana":8322,"logie":8323,"Ġgloba":8324,"ĠzaÅĤoÅ¼enia":8325,"Ġkwestia":8326,"ĠâĢ¹âĢº":8327,"ĠprzyjÄĻcia":8328,"ĠuwaÅ¼am":8329,"Produ":8330,"\\\\\\\\":8331,"ĠrÄħk":8332,"ĠbaweÅĤ":8333,"ĠMarcin":8334,"Ġscenar":8335,"sion":8336,"Ġdok":8337,"âĢľ":8338,"nikach":8339,"nujÄħc":8340,"Ġokien":8341,"ceum":8342,"%,":8343,"Ġwydania":8344,"ĠczynnikÃ³w":8345,"Ġpodu":8346,"Ġ\\":8347,"ĠinnÄħ":8348,"ĠmieliÅĽmy":8349,"ĠwaÅ¼na":8350,"nionym":8351,"dÅĤugo":8352,"ĠGÅĤo":8353,"lena":8354,"Ġodpa":8355,"Ġpodaje":8356,"tÃ³Å¼":8357,"ĠzrozumieÄĩ":8358,"Ġmaszyny":8359,"rzec":8360,"Ġkampanii":8361,"powszech":8362,"ĠData":8363,"ĠzaÅĤat":8364,"Ġkolum":8365,"rus":8366,"Ġregularnie":8367,"Ġrejestracji":8368,"Ġnosi":8369,"ĠofertÄħ":8370,"Ġzapowiada":8371,"ĠzastÄħpi":8372,"Ġwor":8373,"leniem":8374,"mistrza":8375,"Ġzamawia":8376,"ĠobrÄĻ":8377,"Ġminister":8378,"Ġkonfigu":8379,"57":8380,"Dru":8381,"ĠPOL":8382,"sÅĤownie":8383,"owskie":8384,"Ġgre":8385,"ĠprzejÅĽÄĩ":8386,"Ġhodow":8387,"cyjnymi":8388,"Ġtale":8389,"godzi":8390,"ono":8391,"Bi":8392,"ĠpoÅ¼ar":8393,"Ġlubel":8394,"Ġwysu":8395,"Ġnadmier":8396,"ĠKli":8397,"rÃ³wna":8398,"koma":8399,"Ġrodzina":8400,"ĠwyposaÅ¼one":8401,"Ġobcho":8402,"ĠskÃ³rze":8403,"ĠciepÅĤo":8404,"Ġzapomina":8405,"ĠJakie":8406,"Ġoskar":8407,"bierze":8408,"ĠgÅĤÃ³wnych":8409,"pÅĤo":8410,"Ð°Ð":8411,"ĠksiÄĻg":8412,"Ġroboty":8413,"Ġprzyczyny":8414,"ĠrzÄĻ":8415,"ĠWszyscy":8416,"ĠumowÄĻ":8417,"Ġszu":8418,"ĠMiÅĤo":8419,"ĠEuropejskiego":8420,"ĠrÄĻkÄĻ":8421,"Ġstacjonar":8422,"GA":8423,"Ġzapoznania":8424,"Ġczwartek":8425,"Ġlokalnych":8426,"ĠskoÅĦczy":8427,"ĠprzyznaÄĩ":8428,"ĠpoÅĤ":8429,"ĠKali":8430,"Ġwidzia":8431,"Ġserwisie":8432,"ÅĽwiadczenie":8433,"Ġwykonaniu":8434,"ĠPS":8435,"ĠInd":8436,"ies":8437,"ĠWielka":8438,"Ġwery":8439,"ĠpisaÄĩ":8440,"Ġokolicach":8441,"Ġzaska":8442,"Ġ34":8443,"Ġlokalu":8444,"Ġskonta":8445,"Ġmotory":8446,"dan":8447,"Ġdekora":8448,"ĠdosyÄĩ":8449,"sport":8450,"ĠwspÃ³ÅĤprac":8451,"owaÅĤam":8452,"Ġuszkodzenia":8453,"Ġtryb":8454,"ĠCieka":8455,"Ġuleg":8456,"wic":8457,"dÅĤem":8458,"nili":8459,"Ġpasuje":8460,"ĠsiÃª":8461,"Ġotacza":8462,"obo":8463,"ĠprzyszÅĤoÅĽÄĩ":8464,"ĠMazowie":8465,"ĠdziaÅĤajÄħ":8466,"KaÅ¼dy":8467,"ĠodpowiedniÄħ":8468,"wÄħtp":8469,"Ġdrzewa":8470,"ĠÅļwie":8471,"Ġskupia":8472,"ĠprzedmiotÃ³w":8473,"Ġnaturalny":8474,"Ġinternetowe":8475,"ĠwaÅ¼ny":8476,"Ġmoderni":8477,"ĠPrzedsiÄĻbior":8478,"smy":8479,"ĠÅ»a":8480,"ĠGry":8481,"Ġprysz":8482,"stronomi":8483,"ed":8484,"ĠNad":8485,"Ġcebu":8486,"leÄĩ":8487,"ĠSpa":8488,"ĠgodzinÄĻ":8489,"Ġkoloru":8490,"hen":8491,"ĠradoÅĽci":8492,"ĠpaÅĤa":8493,"gÃ³r":8494,"zacjÄħ":8495,"Ġwysoki":8496,"Ġform":8497,"ĠÅĽmia":8498,"Ġszer":8499,"ine":8500,"dowÄħ":8501,"ĠDobrze":8502,"Ġniby":8503,"Ġlikwi":8504,"ĠNowe":8505,"ĠÅĽwi":8506,"Ġprzeszka":8507,"ĠZy":8508,"ĠmetodÄħ":8509,"ĠpoÅĤÄħczeniu":8510,"LE":8511,"Ġzmo":8512,"ĠpiÄĻciu":8513,"ĠspecjalistÃ³w":8514,"ciÅĽnie":8515,"Ġruszy":8516,"ĠDostÄĻp":8517,"ĠModel":8518,"Ġponadto":8519,"wny":8520,"ĠTwoim":8521,"Ġpilo":8522,"Ġludziom":8523,"ĠponiedziaÅĤek":8524,"Ġsytuacjach":8525,"Ku":8526,"ĠwyrobÃ³w":8527,"Ġabsolwen":8528,"Ġszeroki":8529,"Ġrozegra":8530,"ĠOzna":8531,"ĠPeÅĤ":8532,"ĠKrakowa":8533,"ĠÅļwiat":8534,"Ġreklamy":8535,"Ġnego":8536,"wela":8537,"przewo":8538,"kr":8539,"Ġwystaw":8540,"Ġzag":8541,"kaz":8542,"ĠÅĽwiadomoÅĽÄĩ":8543,"towano":8544,"ĠprzyjemnoÅĽÄĩ":8545,"Ġkrajobraz":8546,"Ġkr":8547,"ĠsÅĤabo":8548,"Ġwirtu":8549,"Ġwzbu":8550,"ĠjakaÅĽ":8551,"Ġwitaminy":8552,"wiec":8553,"ĠSzczeci":8554,"nionego":8555,"Ġkwalifika":8556,"dzwo":8557,"lgrzy":8558,"88":8559,"Ġparking":8560,"iuszy":8561,"ĠformÄĻ":8562,"Ġpartii":8563,"Ġtworzenie":8564,"ĠzwrÃ³ci":8565,"ĠmaÅĤej":8566,"ĠwiÄĻksza":8567,"ĠBÄĻdzie":8568,"Ġznajdowa":8569,"konie":8570,"Ġstyli":8571,"ram":8572,"DF":8573,"ĠwÅĤaÅĽciciel":8574,"Ġsymboli":8575,"Ġznajomych":8576,"Ġtechniki":8577,"bile":8578,"Ġportal":8579,"Ġpacjenta":8580,"ĠzawodÃ³w":8581,"szeniem":8582,"Ġcech":8583,"Ġwycieczki":8584,"Ġzaburzenia":8585,"nowania":8586,"59":8587,"Ġgraczy":8588,"szczony":8589,"Ġobjawy":8590,"RE":8591,"Ġteore":8592,"ĠlubiÄħ":8593,"ĠStanisÅĤaw":8594,"aa":8595,"Ġwyco":8596,"ĠwyraÅº":8597,"ĠPary":8598,"Ġzasadni":8599,"strÃ³w":8600,"Ġ2001":8601,"ĠChce":8602,"Ġgabine":8603,"taÅĦ":8604,"ĠMyÅĽlÄĻ":8605,"nieniu":8606,"UN":8607,"Ġstale":8608,"Ġwydawni":8609,"ĠosiÄħgniÄĻcia":8610,"loga":8611,"ĠDoskona":8612,"UT":8613,"Ġprzyczyn":8614,"op":8615,"ĠWspÃ³l":8616,"Bez":8617,"Ġnies":8618,"Ġhigie":8619,"ĠzaÅĤoÅ¼y":8620,"ĠrobÃ³":8621,"Ġnazwie":8622,"ĠHiszpa":8623,"ĠpamiÄĻtam":8624,"Ġkol":8625,"kieru":8626,"ĠPamiÄĻtaj":8627,"Ġodmie":8628,"ĠÅĽrodowisko":8629,"ĠZwiÄħzku":8630,"Ø§":8631,"Ìģ":8632,"ĠwkrÃ³tce":8633,"czajÄħ":8634,"tÅĤuma":8635,"rÃ³Å¼nic":8636,"niesieniu":8637,"sne":8638,"Ġzegar":8639,"iery":8640,"Ġtransakcji":8641,"test":8642,"Wszystkie":8643,"Ġjaj":8644,"ĠkÃ³ÅĤ":8645,"dnieniem":8646,"ĠciÄĻÅ¼ar":8647,"ĠAndrze":8648,"Ġojca":8649,"ĠsamorzÄħd":8650,"Ġzbu":8651,"ĠÅĽwiet":8652,"dÄħc":8653,"Ġuczestnicy":8654,"ĠwyposaÅ¼ony":8655,"ĠEner":8656,"ĠinÅ¼ynie":8657,"ĠpozycjÄĻ":8658,"Å¼nych":8659,"gni":8660,"Ġgranicy":8661,"Ġkod":8662,"czoÅĽÄĩ":8663,"Ġwrzu":8664,"Ġczytaj":8665,"ĠdziesiÄħ":8666,"ĠkandydatÃ³w":8667,"Ġodtwarza":8668,"ĠPowiatu":8669,"ĠNew":8670,"Ġposi":8671,"Ñĭ":8672,"ĠWoj":8673,"ĠpaÅĦstwo":8674,"Ġinstala":8675,"ĠWojciech":8676,"Cza":8677,"Ġspektak":8678,"ĠmiesiÄħcu":8679,"Ġsystemem":8680,"hy":8681,"taÅ¼":8682,"Ġlabora":8683,"kse":8684,"finan":8685,"Ġpakie":8686,"Ġwizyty":8687,"ĠStowarzyszenie":8688,"ĠÅĽwieÅ¼y":8689,"Ġmniejsze":8690,"Ġturnieju":8691,"Ġjapo":8692,"und":8693,"ĠVe":8694,"ĠwiÄħÅ¼e":8695,"ĠpozostaÅĤe":8696,"ĠChyba":8697,"Ġpen":8698,"Ġpolska":8699,"Ġwieczorem":8700,"ĠStro":8701,"Ġ600":8702,"ĠWnio":8703,"Ġadresem":8704,"Ġkolejnym":8705,"Ġdotk":8706,"ĠprÃ³by":8707,"Ġ42":8708,"ĠskÃ³r":8709,"ĠAni":8710,"Ġ39":8711,"Ġusy":8712,"Ġnetto":8713,"Ġke":8714,"ĠkoÅĤa":8715,"Ġrozstrzy":8716,"Ġemocje":8717,"dawcÃ³w":8718,"ĠTwoich":8719,"Ġwysp":8720,"Ġbadanie":8721,"Cie":8722,"ĠprzedsiÄĻbiorstw":8723,"Ġkolejna":8724,"ĠÅºrÃ³dÅĤo":8725,"Ġzapraszam":8726,"ĠTwoja":8727,"Ġkonfli":8728,"Ġdrukar":8729,"budowy":8730,"Ġbiznesu":8731,"\":":8732,"Ġbezrobo":8733,"Ġprzepisami":8734,"Ġnaturalnych":8735,"ĠksztaÅĤcenia":8736,"Ġprzegra":8737,"kazuje":8738,"Ã¼":8739,"wiado":8740,"Ġzatwier":8741,"Ġinformacja":8742,"Ġbutel":8743,"ĠbrÄħz":8744,"xi":8745,"ĠobsÅĤugÄĻ":8746,"Ġjedzenie":8747,"Ġobywatel":8748,"Ġfabu":8749,"ĠpÅĤu":8750,"Ġzas":8751,"ĠpamiÄĻta":8752,"Ġet":8753,"ĠPolskÄĻ":8754,"ĠZjednoczonych":8755,"Ġpiekar":8756,"ĠartykuÅĤu":8757,"ĠuÅ¼yte":8758,"ĠkolejnÄħ":8759,"ria":8760,"Ġwynagro":8761,"ĠspoÅĤeczne":8762,"ĠGdyby":8763,"ĠPodobnie":8764,"Ġwynaj":8765,"Ġdokumentacji":8766,"ĠtÅĤo":8767,"Ġbeton":8768,"ĠtoÅ¼sa":8769,"Ġbiegu":8770,"ĠMagda":8771,"LU":8772,"ĠBio":8773,"ĠmÃ³c":8774,"urea":8775,"ĠpomieszczeÅĦ":8776,"lf":8777,"Ġtakimi":8778,"ĠFundacji":8779,"Ġmatema":8780,"niosÅĤa":8781,"ÅĤÄħcznik":8782,"Ġczuje":8783,"dziÄĻk":8784,"Ġogrodzenia":8785,"ĠgranicÄħ":8786,"ĠRosja":8787,"ÄĤÅĤw":8788,"Ġsensu":8789,"gdzie":8790,"ÅĽwiado":8791,"ĠOferujemy":8792,"stero":8793,"Ġzapomnia":8794,"Ġniespodzia":8795,"Ġostatecznie":8796,"ĠleÅ¼y":8797,"Ġdekla":8798,"Ġama":8799,"myÅĽla":8800,"Se":8801,"Ġzrezyg":8802,"nionej":8803,"ĠNasz":8804,"ĠokreÅĽlone":8805,"Ġklik":8806,"bin":8807,"Ġstowarzy":8808,"Ġmatki":8809,"ĠKlient":8810,"Ì¨":8811,"ĠCentra":8812,"Ġdostawy":8813,"Ġziemnia":8814,"ĠwyposaÅ¼enia":8815,"ĠrozmÃ³w":8816,"ĠNaro":8817,"Ġpocie":8818,"ZE":8819,"ĠwiÄĻkszy":8820,"Ġotrzymuje":8821,"don":8822,"Ġjutro":8823,"ĠzwiÄħzek":8824,"ĠstÃ³p":8825,"Ġdzieckiem":8826,"tuj":8827,"strzyma":8828,"ĠlekÃ³w":8829,"Ġstopy":8830,"Ġzacznie":8831,"dujemy":8832,"Ġzabiegu":8833,"ĠStre":8834,"ĠObie":8835,"ĠzapewniajÄħ":8836,"Ġpas":8837,"Ġstarszych":8838,"ĠSklep":8839,"Ġwykorzystaniem":8840,"ĠznalazÅĤ":8841,"towali":8842,"Ġnaukow":8843,"Ġdopu":8844,"LA":8845,"sycho":8846,"ĠRzeczypospolitej":8847,"wid":8848,"ĠwspÃ³ÅĤpracÄĻ":8849,"Ġtemacie":8850,"ĠMoje":8851,"Ġtowaru":8852,"Ġprzechodzi":8853,"ĠbiÅ¼u":8854,"ĠuwzglÄĻdnia":8855,"boru":8856,"ĠDzisiaj":8857,"poko":8858,"ĠMaÅĤgorza":8859,"lono":8860,"ĠdziaÅĤki":8861,"lowania":8862,"ĠzachowaÄĩ":8863,"fiÄĻ":8864,"ĠPierwszy":8865,"Ġtemperatura":8866,"vel":8867,"Ġkomisji":8868,"niesienie":8869,"Ġdziu":8870,"ĠwystÄĻpujÄħ":8871,"Ġwyrzu":8872,"Ġprojekcie":8873,"Åºli":8874,"chami":8875,"Ġcos":8876,"2010":8877,"gon":8878,"ĠzaczÄĻÅĤa":8879,"Ġnapa":8880,"Ġroman":8881,"Ġodrzu":8882,"ĠzdÄħ":8883,"ĠpojawiÅĤ":8884,"ä¸":8885,"ĠksztaÅĤcie":8886,"Ġzatrudnienia":8887,"ĠiÅĽÄĩ":8888,"iny":8889,"ĠogromnÄħ":8890,"ĠKaÅ¼da":8891,"ĠzrobiÅĤ":8892,"Ġetap":8893,"Ġmiaste":8894,"znÄĻ":8895,"Ġdale":8896,"77":8897,"ĠMusi":8898,"ĠEmi":8899,"Ġdemok":8900,"xy":8901,"ĠÅģÄħ":8902,"Ġanima":8903,"Ġkomuni":8904,"Ġsamochody":8905,"Ġdyscypli":8906,"ĠwymagajÄħ":8907,"rowo":8908,"dzaj":8909,"Ġcytry":8910,"Ġlewej":8911,"alna":8912,"Ġprzebywa":8913,"matyczne":8914,"Ġulubi":8915,"Ġzadaniem":8916,"Ġprogno":8917,"Ġnaw":8918,"Ġsportowe":8919,"ĠTom":8920,"lit":8921,"Ġmistrz":8922,"Ġbudowlane":8923,"Ġtradycji":8924,"lk":8925,"Ġarchitek":8926,"ĠlÄħ":8927,"ĠkaÅ¼demu":8928,"ĠMatki":8929,"lip":8930,"ĠwiÄħza":8931,"Ġcukru":8932,"Ġzabiera":8933,"Ġkrak":8934,"ĠnawiÄħza":8935,"Ġgril":8936,"UP":8937,"Ġnara":8938,"ĠAmeryka":8939,"ĠtowarzyszÄħ":8940,"ĠPoniewaÅ¼":8941,"Ġwyma":8942,"ĠJor":8943,"ĠProszÄĻ":8944,"ĀĀĀĀ":8945,"Ġraj":8946,"Ġpodstawy":8947,"ent":8948,"owanym":8949,"ĠKodek":8950,"Ġnajpopular":8951,"Ġhurt":8952,"Ġryb":8953,"ĠTutaj":8954,"Ġ46":8955,"Ġwypowiedzi":8956,"ĠKowa":8957,"ĠzakupÃ³w":8958,"Ġbile":8959,"Ġkorzystanie":8960,"caÄĩ":8961,"Ġprokura":8962,"ĠmajÄħc":8963,"52":8964,"owskim":8965,"ĠszkoÅĤa":8966,"Ġwykonuje":8967,"Ġzobacz":8968,"szku":8969,"ĠobecnoÅĽci":8970,"Ġkt":8971,"ĠrzeÅº":8972,"Ġbasen":8973,"Ġmld":8974,"Ġutrzymy":8975,"Ġepi":8976,"Ġdecyduje":8977,"ĠOkrÄĻ":8978,"czÄħcych":8979,"Ġuczelni":8980,"bignie":8981,"Ġrewolu":8982,"Ġpropa":8983,"ĠartykuÅĤy":8984,"ĠAmery":8985,"ĠÄ¹":8986,"Ġkopa":8987,"metra":8988,"Ġzmaga":8989,"nitar":8990,"godne":8991,"Ġwolny":8992,"wiania":8993,"ĠHotel":8994,"har":8995,"Ġznak":8996,"Ġdecyzja":8997,"Ġprzyrody":8998,"szczeÅĦ":8999,"Ġklientom":9000,"Ġedycja":9001,"ĠwejÅĽÄĩ":9002,"ĠAb":9003,"Ã±":9004,"Ġbryty":9005,"Ġakademi":9006,"Ġtechnicznych":9007,"Ġkuchnia":9008,"Ġprzynosi":9009,"ĠzakoÅĦczenie":9010,"wnej":9011,"zmem":9012,"ĠczÄĻstot":9013,"km":9014,"Ġluksu":9015,"Ġrozumiem":9016,"dzonym":9017,"stycznie":9018,"Ġrozdziel":9019,"IÄĺ":9020,"szak":9021,"ĠchociaÅ¼by":9022,"ĠDomu":9023,"Ġleki":9024,"owujÄħc":9025,"ĠcieszÄħ":9026,"sna":9027,"Ġrekor":9028,"ĠuÅ¼ytkownik":9029,"brew":9030,"Ġuszcze":9031,"ĠMateriaÅĤ":9032,"Ġmama":9033,"ĠJÃ³zef":9034,"Ġzagranicznych":9035,"zienia":9036,"ĠpodmiotÃ³w":9037,"pomnia":9038,"Å¼ni":9039,"Ġgwiazd":9040,"ĠÅĽwiade":9041,"ĠÅĤaÅĦcu":9042,"å¤":9043,"zujÄħce":9044,"Ġzwolnie":9045,"ĠZespoÅĤu":9046,"54":9047,"Ġostatniego":9048,"Ġdniem":9049,"ĠobrÃ³b":9050,"Ġulo":9051,"Ġustala":9052,"Ġprzebiega":9053,"Ġnowoczesnych":9054,"Zd":9055,"ĠpeÅĤnym":9056,"Ġradi":9057,"ĠSty":9058,"ĠWiÄĻc":9059,"KO":9060,"Ġsyna":9061,"gres":9062,"Ġparku":9063,"ĠkÄħtem":9064,"Ġprezydent":9065,"ĠJerzy":9066,"ĠzrÃ³Å¼nic":9067,"ĠWydziaÅĤu":9068,"ĠwÅĤasnoÅĽci":9069,"Ġobwo":9070,"niajÄħ":9071,"ĠKoÅĽciÃ³ÅĤ":9072,"sowego":9073,"Ġprzeby":9074,"UchwaÅĤa":9075,"ĠsprÃ³bowaÄĩ":9076,"Ġzio":9077,"ĠMÃ³w":9078,"gÃ³ÅĤ":9079,"ĠGor":9080,"Ġwyk":9081,"integ":9082,"ĠbohaterÃ³w":9083,"Ġodse":9084,"Ġspecjalnych":9085,"ĠðŁĺī":9086,"Ġzabezpieczenia":9087,"zowanego":9088,"Ġkosztuje":9089,"ĠMiasto":9090,"des":9091,"Ġsch":9092,"Ġprioryte":9093,"Ġwidoczne":9094,"ĠokazaÄĩ":9095,"woli":9096,"Ġlepszy":9097,"Ġorien":9098,"ĠturystÃ³w":9099,"Ġprzewidzia":9100,"yo":9101,"ĠTh":9102,"ĠCzÄĻÅĽÄĩ":9103,"bÃ³j":9104,"Ġmistrzo":9105,"TR":9106,"ĠgÃ³rÄĻ":9107,"ÅĤowych":9108,"Ġzawarte":9109,"Ġbezpieczne":9110,"Ġniemow":9111,"WÅĤa":9112,"Ġniezawo":9113,"Ġchmu":9114,"ĠbiaÅĤy":9115,"ĠsÄħd":9116,"Ġspodoba":9117,"Ġpaliwa":9118,"Ġczytel":9119,"ĠpociÄħ":9120,"ĠKana":9121,"menda":9122,"wskim":9123,"ĠUSB":9124,"lowany":9125,"Ġkierowcy":9126,"ĠÅĽrodowisku":9127,"ENIE":9128,"Ġdach":9129,"Ġmusieli":9130,"Ġano":9131,"Ġlink":9132,"Ġfal":9133,"szel":9134,"ĠÅģÃ³dÅº":9135,"ĠpowodÃ³w":9136,"Ġnaru":9137,"ĠzÅĤÄħ":9138,"nÄĻli":9139,"Ġsekund":9140,"ÅĽciÅĤ":9141,"Ġpatrzy":9142,"Ġfaktu":9143,"ĠpamiÄĻÄĩ":9144,"ĠsprÄĻ":9145,"nes":9146,"Ġpromieni":9147,"Ġchole":9148,"Ġnikogo":9149,"ĠÅļwi":9150,"ĠNarodowego":9151,"ĠnajwiÄĻksze":9152,"ĠkÅĤa":9153,"Ġ1997":9154,"Ġsportowych":9155,"ret":9156,"lowanie":9157,"Ġniepra":9158,"Ġfajnie":9159,"Ġzgi":9160,"ĠwdziÄĻ":9161,"ĠGmin":9162,"ĠkrawÄĻ":9163,"ĠleÅĽ":9164,"Ġdaty":9165,"Ġalar":9166,"Ġprawdziwe":9167,"red":9168,"szania":9169,"minowa":9170,"powaÅ¼":9171,"Ġterapii":9172,"Ġwydanie":9173,"ĠAda":9174,"ĠoÅĽ":9175,"ĠWÅĤady":9176,"Ġpach":9177,"Jestem":9178,"Ġszczo":9179,"ĠprzedsiÄĻbiorcÃ³w":9180,"fikacja":9181,"unki":9182,"Ġprogramy":9183,"Ġszybki":9184,"ĠRado":9185,"Ġdwoma":9186,"ĠprocesÃ³w":9187,"ĠwÄħtro":9188,"Ġbab":9189,"ANIA":9190,"Ġbana":9191,"ĠRÃ³Å¼":9192,"Ġumieszcza":9193,"liki":9194,"Ġklo":9195,"Ġszkoda":9196,"Ġ::":9197,"ĠkolejnoÅĽci":9198,"Ġdziewczyna":9199,"Ġwykorzystanie":9200,"Ġfotografii":9201,"ĠwyglÄħdaÄĩ":9202,"Ġojciec":9203,"Ġpracownik":9204,"ĠStan":9205,"ĠstajÄħ":9206,"Ġepo":9207,"ĠmÃ³gÅĤby":9208,"ĠujÄĻ":9209,"ĠÅ¼ydow":9210,"czkach":9211,"sona":9212,"ĠrobÃ³t":9213,"mimo":9214,"Ġstosowanie":9215,"Ġrodzaje":9216,"ĠprzystÄĻp":9217,"ĠÅĽwiadczy":9218,"Ġwagi":9219,"Ġaktualnie":9220,"ĠkapÅĤa":9221,"ĠwyjÅĽcia":9222,"ĠWiÄĻkszoÅĽÄĩ":9223,"niowej":9224,"Ġnazwisko":9225,"ĠPoczÄħ":9226,"ĠgraÄĩ":9227,"ĠgwaÅĤ":9228,"pomor":9229,"ĠsprawiajÄħ":9230,"ĠZo":9231,"Ġzrozumia":9232,"CE":9233,"Ġzamek":9234,"ĠniemoÅ¼li":9235,"ĠPomocy":9236,"ĠÅĽrodek":9237,"ĠnazwÄħ":9238,"Ġpl":9239,"czekaÄĩ":9240,"ĠoglÄħdaÄĩ":9241,"Ġzapisy":9242,"sieÅĦ":9243,"Ġangielskiego":9244,"ĠochronÄĻ":9245,"kowska":9246,"wiÅĤa":9247,"ĠzdjÄĻciu":9248,"ĠBor":9249,"ĠpowiedziaÅĤa":9250,"Ġpochodzenia":9251,"ĠGdaÅĦsku":9252,"Ġwalce":9253,"ĠSÅĤa":9254,"ĠskÅĤo":9255,"Ġzapotrzeb":9256,"Ġratu":9257,"ĠroÅĽliny":9258,"skami":9259,"sme":9260,"Ġalternatyw":9261,"Ġhandl":9262,"Ġposa":9263,"Ġstosunkowo":9264,"Ġpropozycji":9265,"Ġwynagrodzenia":9266,"ĠodrÄĻb":9267,"ĠÅĽrodowisk":9268,"ordyna":9269,"Ġtygodnia":9270,"Ġmalar":9271,"Ġglu":9272,"Ġwielokrotnie":9273,"stria":9274,"ĠpÅĤyt":9275,"ĠSÄħd":9276,"kg":9277,"ĠgieÅĤ":9278,"Ġ47":9279,"ĠskrÄĻ":9280,"Ġstare":9281,"gowej":9282,"sper":9283,"ĠmaÅĤym":9284,"ĠprzyciÄħga":9285,"ĠzawartoÅĽci":9286,"Ġdefini":9287,"ĠsprzÄħ":9288,"Ġapte":9289,"jechaÅĤ":9290,"ĠbiorÄħ":9291,"ĠWydawnictwo":9292,"grafii":9293,"czaÄĩ":9294,"wnych":9295,"ĠkosmetykÃ³w":9296,"chach":9297,"Ġrezy":9298,"Ġcookies":9299,"Ġste":9300,"Ġ49":9301,"ĠEd":9302,"ĠnajwiÄĻkszÄħ":9303,"Ġzesz":9304,"nko":9305,"ĠradoÅĽÄĩ":9306,"Ġnerw":9307,"ĠzawierajÄħ":9308,"ĠmÃ³zgu":9309,"kul":9310,"Ġobiekt":9311,"Ġwpa":9312,"ĠszczÄĻÅĽcia":9313,"ĠdziÄĻkujÄĻ":9314,"ĠprawdÄĻ":9315,"ĠoÅĽwia":9316,"sole":9317,"âĢ¦âĢ¦":9318,"Ġwentyla":9319,"owne":9320,"Ġbrutto":9321,"Ġparafia":9322,"The":9323,"ĠwyciÄħg":9324,"ĠGrupa":9325,"ĠreÅ¼yser":9326,"Ġpozytywnie":9327,"Lo":9328,"Ġmonito":9329,"ĠSprawdÅº":9330,"Ġwykorzystywane":9331,"dnich":9332,"Ġwyku":9333,"zdro":9334,"ĠszeÅĽÄĩ":9335,"Ġegzem":9336,"ĠSpoÅĤecznej":9337,"ĠotrzymaÄĩ":9338,"ĠopÃ³Åº":9339,"tonu":9340,"Ġdeszcz":9341,"ĠrÄĻcznie":9342,"Ġplaka":9343,"pom":9344,"ĠmÄħÅ¼":9345,"Ġsens":9346,"Ġwolontar":9347,"faÅĤ":9348,"rad":9349,"Ġcharakteru":9350,"Ġchwy":9351,"kowskiego":9352,"ĠprzepiÄĻk":9353,"ĠZale":9354,"pr":9355,"ĠprzeczytaÄĩ":9356,"ĠIzra":9357,"ĠTechni":9358,"ink":9359,"dzisz":9360,"Ġowa":9361,"tecznie":9362,"ĠWÅĤaÅĽci":9363,"51":9364,"ĠwyglÄħdajÄħ":9365,"draÅ¼a":9366,"],":9367,"LD":9368,"ĠSA":9369,"Ã¶":9370,"ĠGdaÅĦsk":9371,"Ġspacer":9372,"fal":9373,"Ġwydzie":9374,"wagi":9375,"kreÅĽ":9376,"ĠPaw":9377,"ĠTaki":9378,"gosÅĤa":9379,"Ġtrybu":9380,"cznoÅĽciÄħ":9381,"Ġwino":9382,"niak":9383,"ĠGaler":9384,"ĠBry":9385,"Ġstolicy":9386,"ĠfaÅĤ":9387,"Ġprzemie":9388,"Ġracji":9389,"Ġkonserwa":9390,"Ġprzedstawicieli":9391,"OWE":9392,"ĠSZ":9393,"Ġdojrza":9394,"ĠleÅ¼Äħ":9395,"ĠpeÅĤna":9396,"ciami":9397,"niesi":9398,"ĠGÅĤÃ³wna":9399,"czÄħce":9400,"klej":9401,"Ġpou":9402,"ĠuniknÄħÄĩ":9403,"ĠprzeksztaÅĤ":9404,"jnÄħ":9405,"Ġpoprowa":9406,"Ġzwrotu":9407,"ĠwraÅ¼li":9408,"ĠsieÄĩ":9409,"ĠczekaÄĩ":9410,"Ġrelacje":9411,"jami":9412,"ÅĤoÅĽciÄħ":9413,"Ġfarma":9414,"towo":9415,"ĠwzdÅĤuÅ¼":9416,"nisa":9417,"ĠBal":9418,"Ġprzebieg":9419,"Ġmery":9420,"ĠroÅĽnie":9421,"Ġzbo":9422,"Ġprzedstawiciele":9423,"ĠtreÅĽÄĩ":9424,"Ġzainteresowania":9425,"Ġtelewizy":9426,"Ġfizycznych":9427,"Ġmeda":9428,"ĠPodstawowej":9429,"Ġwymiar":9430,"Ġzaspo":9431,"ĠEUR":9432,"Ġbyc":9433,"ĠGÃ³ra":9434,"ĠDosta":9435,"Ġ:-)":9436,"Ġperspektywy":9437,"Ġprzele":9438,"Ġpostu":9439,"Ġti":9440,"Ġprawej":9441,"EGO":9442,"Ġchroni":9443,"ĠPosta":9444,"ĠprzypadkÃ³w":9445,"ĠOsob":9446,"Ġobejmu":9447,"termin":9448,"strÃ³j":9449,"Ġpiosenki":9450,"mentach":9451,"Ġrachunk":9452,"cjonowanie":9453,"ĠMicro":9454,"Ġpodo":9455,"ĠwiadomoÅĽÄĩ":9456,"ĠdzieÅĤa":9457,"ĠPÅĤo":9458,"ĠzÅĤoÅ¼yÄĩ":9459,"ĠJednym":9460,"rzach":9461,"ĠstÄĻ":9462,"53":9463,"rab":9464,"rzyÅĤo":9465,"ĠLoka":9466,"Ġobserwa":9467,"Ġmai":9468,"Ġkonsul":9469,"Ġpropozycje":9470,"ĠbieÅ¼Äħco":9471,"ĠbliÅ¼ej":9472,"ms":9473,"ĠNazwa":9474,"Ġindywidualne":9475,"Ġzainteresowanie":9476,"ĠInstytut":9477,"ANIE":9478,"ĠZdrowia":9479,"Ġwtorek":9480,"Ġaudy":9481,"cili":9482,"Ġprzykry":9483,"ĠAli":9484,"Ġwprowadzenia":9485,"ĠgÅĤad":9486,"Sto":9487,"ĠczytaÄĩ":9488,"Ġkryter":9489,"ĠodbyÅĤy":9490,"pisuje":9491,"ĠwÄħt":9492,"ĠstanowiÄĩ":9493,"ĠÅļwiÄĻtego":9494,"ĠBezpie":9495,"odpor":9496,"pami":9497,"ĠzdobyÄĩ":9498,"ĠBrze":9499,"ĠkrÃ³tkim":9500,"tional":9501,"Ġpanie":9502,"ĠKoÅĽcie":9503,"ĠHy":9504,"Ġwyprodu":9505,"Ġszanse":9506,"ĠwymagaÅĦ":9507,"akcep":9508,"ĠzÅĤoÅ¼enia":9509,"ffi":9510,"ĠzapoznaÄĩ":9511,"Ġrapor":9512,"ĠrozsÄħ":9513,"ĠzamÃ³wieÅĦ":9514,"ĠZbignie":9515,"Ġmonitor":9516,"ĠInwe":9517,"Ġwysoka":9518,"rand":9519,"niono":9520,"Ġodszko":9521,"Ġprzytu":9522,"ĠosÅĤo":9523,"ĠwystÄħpienia":9524,"logiÄĻ":9525,"Ġgrunt":9526,"ĠLek":9527,"ĠÅ¼ar":9528,"ÐµÐ":9529,"rent":9530,"GB":9531,"zwycza":9532,"stia":9533,"nujÄĻ":9534,"ĠuÅ¼yÄĩ":9535,"Ġryt":9536,"wiad":9537,"Ġreklam":9538,"xa":9539,"ĠpeÅĤen":9540,"ĠzÄĻbÃ³w":9541,"Ġdozna":9542,"ĠÅģu":9543,"ĠTechno":9544,"ĠczuÄĩ":9545,"wajcar":9546,"ĠÅĽwiÄħty":9547,"Ġpaznokci":9548,"ĠKatowicach":9549,"Ġpowszechnie":9550,"ĠdoÅĽwiadczeniem":9551,"ĠkontekÅĽcie":9552,"ĠrozpoczÄħÅĤ":9553,"jskÄħ":9554,"Ġpokro":9555,"prowadza":9556,"ĠwÅĤadz":9557,"ĠProfe":9558,"Ġpropor":9559,"Ġmaksymalnie":9560,"mki":9561,"czku":9562,"ĠBrak":9563,"Ġmarek":9564,"ĠNowym":9565,"ĠMA":9566,"Ġszczerze":9567,"Ġimi":9568,"Ġpliki":9569,"qua":9570,"ĠprÄĻdkoÅĽci":9571,"ĠsaÅĤa":9572,"walifikowa":9573,"ĠsÄħsia":9574,"ĠdaÅĤ":9575,"ĠInformacje":9576,"Ġdyskusji":9577,"ĠdolarÃ³w":9578,"ĠdÃ³ÅĤ":9579,"ĠSku":9580,"ĠTymczasem":9581,"Ġwaha":9582,"Ġemocjona":9583,"alnie":9584,"Ġskutek":9585,"ĠposiadaÄĩ":9586,"Ġkulinar":9587,"Ġegzy":9588,"Ġtreningu":9589,"Ġklasie":9590,"ĠPrzecieÅ¼":9591,"Ġspada":9592,"ĠKier":9593,"ĠFir":9594,"lku":9595,"96":9596,"nowicie":9597,"skawi":9598,"rujÄħ":9599,"Ġlekarzy":9600,"ĠwyposaÅ¼enie":9601,"Ġsiedem":9602,"Ġnumerem":9603,"ĠpeÅĤnej":9604,"Ġegzempla":9605,"ÅĦcy":9606,"ndard":9607,"Ġrejestru":9608,"ĠÅºrÃ³dÅĤem":9609,"torami":9610,"ĠDane":9611,"ĠAG":9612,"Ġkursu":9613,"Ġprezentacji":9614,"Ġmija":9615,"DziÅĽ":9616,"lekt":9617,"Ġkru":9618,"Ġzwi":9619,"Ġ@":9620,"ĠwpÅĤywem":9621,"czkami":9622,"dzkiego":9623,"Gra":9624,"trafi":9625,"mik":9626,"IR":9627,"à¸":9628,"ĠwÅĤadze":9629,"Ġlokali":9630,"niÄĻty":9631,"mentami":9632,"ĠProje":9633,"Ġgotowe":9634,"ĠPark":9635,"ĠniepeÅĤnosprawnych":9636,"Ġzawodowych":9637,"Ġotrzymy":9638,"Ġwarunkiem":9639,"Ġregenera":9640,"cjom":9641,"Ġpada":9642,"Ġpodstawowej":9643,"ĠobecnoÅĽÄĩ":9644,"ÅĽliÅĤ":9645,"ĠpopeÅĤ":9646,"Hi":9647,"prawdopod":9648,"Ġzamk":9649,"JE":9650,"OWA":9651,"tyna":9652,"SS":9653,"ĠÅĽwiadczeÅĦ":9654,"ĠnapiÄĻcia":9655,"glo":9656,"Ġprzetr":9657,"Ġsukcesu":9658,"85":9659,"ĠdoÅĽwiadczeÅĦ":9660,"zienie":9661,"nieniem":9662,"ĠobejrzeÄĩ":9663,"Ġmozna":9664,"83":9665,"Ġszpitala":9666,"Ġsocja":9667,"DR":9668,"Ġzaprze":9669,"Ġhipote":9670,"Ġplany":9671,"ĠwydÅĤu":9672,"Ġadministracji":9673,"ĠkrÃ³tki":9674,"Ġplacu":9675,"Ġwarzyw":9676,"Ġzalicza":9677,"lio":9678,"ĠPora":9679,"ĠczÄħ":9680,"onki":9681,"ĠÅ¼yje":9682,"kÅĤ":9683,"Ġtelewizji":9684,"ĠPrzede":9685,"ĠchciaÅĤbym":9686,"Ġpowietrzu":9687,"ĠZgodnie":9688,"tri":9689,"zka":9690,"ĠPolicji":9691,"ĠMacie":9692,"Ġosobie":9693,"ĠCzu":9694,"sponden":9695,"tas":9696,"ĠZarzÄħdza":9697,"loÅĽÄĩ":9698,"ĠVa":9699,"Ġtranspor":9700,"ĠzauwaÅ¼yÄĩ":9701,"Ġopisu":9702,"ĠÅ¼yciem":9703,"Ġumowa":9704,"Ġpozostawia":9705,"roi":9706,"ĠosÅĤa":9707,"Ġchirur":9708,"Ġhiszpa":9709,"Ġzamieszkania":9710,"ĠokreÅĽliÄĩ":9711,"Ġszta":9712,"Ġokra":9713,"Ġpoinformowa":9714,"Ġdieta":9715,"Ġnaukowych":9716,"ĠkrÃ³l":9717,"ĠwejÅĽcia":9718,"ÑĮ":9719,"Ġnarciar":9720,"Ġewentualnie":9721,"Ġbieli":9722,"rzchni":9723,"Ġbudowie":9724,"dycha":9725,"Ġinternetu":9726,"Ġposiadamy":9727,"Ġparty":9728,"Ġmerytory":9729,"Ġmiastach":9730,"snÄħÄĩ":9731,"ĠzadbaÄĩ":9732,"Ġjednoli":9733,"ceniu":9734,"ÅĤko":9735,"ÅĤku":9736,"ĠGli":9737,"Ġwielkich":9738,"Ġstworzenie":9739,"gowych":9740,"Ã³ra":9741,"nium":9742,"Ġszaf":9743,"Ġwykorzystuje":9744,"Ġwolne":9745,"Ġodwro":9746,"ĠkwiatÃ³w":9747,"Ġinternetowego":9748,"Ġben":9749,"dziesiÄĻ":9750,"ĠwyjÅĽÄĩ":9751,"rost":9752,"ksa":9753,"ĠpoÅĤowy":9754,"Dob":9755,"Ġzabi":9756,"Ġjedzenia":9757,"Ġrekrea":9758,"ĠpojemnoÅĽci":9759,"wÅĤaÅĽci":9760,"dnicy":9761,"terie":9762,"Ġprywatnych":9763,"niowy":9764,"Ġhormo":9765,"Ġszkolenie":9766,"ĠJacek":9767,"karpa":9768,"ĠInsta":9769,"ĠWyÅ¼":9770,"use":9771,"ĠOP":9772,"zek":9773,"Pla":9774,"ĠSzczegÃ³lnie":9775,"ĠwyÅ¼sze":9776,"ĠnajmÅĤodszych":9777,"ĠOÅĽrodek":9778,"szanie":9779,"Ġwyborze":9780,"ĠDra":9781,"ĠTaka":9782,"UK":9783,"ĠKonsu":9784,"ĠGimna":9785,"Ġ09":9786,"Sza":9787,"Ġtrasie":9788,"Ġpropozycja":9789,"Ġatu":9790,"wanej":9791,"Ġokazja":9792,"Ġgli":9793,"ĠwspÃ³lne":9794,"Ġmail":9795,"Ġ44":9796,"Ġomawia":9797,"Sprze":9798,"ĠprzyÅĤÄħ":9799,"ĠzawartoÅĽÄĩ":9800,"Ġniema":9801,"Ġcenach":9802,"nti":9803,"ĠÅĽwiÄĻto":9804,"chia":9805,"Ġnieograni":9806,"tta":9807,"Ġambi":9808,"Ġmetoda":9809,"ping":9810,"ĠLiczba":9811,"ÅĤoÅ¼y":9812,"Ġwidz":9813,"ĠPomo":9814,"ĠRej":9815,"Ġnadru":9816,"ĠnajwiÄĻkszym":9817,"ĠBrytanii":9818,"KsiÄħ":9819,"ĠKatowice":9820,"Ġkroku":9821,"Ġporozumie":9822,"Ġscenie":9823,"ĠWyko":9824,"Ġlista":9825,"ĠÅļwiÄĻto":9826,"niÄĻciu":9827,"ĠspÃ³j":9828,"wano":9829,"Ġkluczowe":9830,"ĠpojawiÅĤy":9831,"ĠgÅĤÃ³wne":9832,"ĠÅĽwietny":9833,"czucie":9834,"Ġwiru":9835,"ĠSzwe":9836,"ĠogÃ³lnie":9837,"ĠJÃ³zefa":9838,"Ġprawne":9839,"Ġpokoi":9840,"posa":9841,"Ġmil":9842,"ĠÅĽwieÅ¼o":9843,"ĠfanÃ³w":9844,"ptu":9845,"Ġzabawa":9846,"Ġdziecku":9847,"ĠkomÃ³rek":9848,"ĠInstytutu":9849,"ĠTrÃ³j":9850,"Ġwystawy":9851,"leÅ¼an":9852,"Ġrozmai":9853,"dztwa":9854,"Ġadap":9855,"ĠmediÃ³w":9856,"ĠsÅĤysza":9857,"ĠzaczynajÄħ":9858,"Ġzary":9859,"Ġlos":9860,"ĠciepÅĤy":9861,"ĠInne":9862,"ĠPiotra":9863,"ĠogÃ³lno":9864,"Ġnadzo":9865,"alnych":9866,"ĠodpowiedzialnoÅĽÄĩ":9867,"ĠCzÅĤo":9868,"ĠÅĽwiadomoÅĽci":9869,"noszenia":9870,"ĠBanku":9871,"ĠbiaÅĤe":9872,"Ġtrener":9873,"Ġ180":9874,"ĠPowo":9875,"wanego":9876,"Ġsamopo":9877,"Ġchwile":9878,"Ġzawodowe":9879,"czyÅĤem":9880,"Ġwyrazi":9881,"rzyÅĤa":9882,"pora":9883,"ĠpodziÄĻk":9884,"ĠchciaÅĤa":9885,"ĠZarzÄħd":9886,"Ġciekawo":9887,"tujÄĻ":9888,"sse":9889,"stuje":9890,"Ġwyszukiwar":9891,"Ġprzygotowane":9892,"ĠInternetu":9893,"Ġpopularne":9894,"towaniu":9895,"ĠTrzy":9896,"ĠZakÅĤad":9897,"grafia":9898,"Ġkwadra":9899,"df":9900,"Ġstrasznie":9901,"Ġdokument":9902,"Ġnauczania":9903,"ĠÅĽrodÄĻ":9904,"ĠrzÄħdu":9905,"Ġpresti":9906,"Ġwytwo":9907,"tter":9908,"cik":9909,"Ġoczach":9910,"ĠSil":9911,"ĠbÅĤÄĻdÃ³w":9912,"Projekt":9913,"Ġmary":9914,"Ġklienci":9915,"ĠPÅĤy":9916,"czeÅĦstwo":9917,"Ġzwyczaj":9918,"Dy":9919,"owem":9920,"Ġzdrowe":9921,"ĠumysÅĤ":9922,"ĠByÄĩ":9923,"Ġpn":9924,"ĠChodzi":9925,"ÅģA":9926,"ĠsÅĤoÅĦca":9927,"ĠprzyczynÄħ":9928,"ĠSzero":9929,"ĠnagrÃ³d":9930,"ĠÅ¼u":9931,"ley":9932,"64":9933,"Ġpopar":9934,"Du":9935,"ĠwieczÃ³r":9936,"ĠReje":9937,"Hz":9938,"ĠplaÅ¼y":9939,"Ġmio":9940,"ĠwnÄĻtrze":9941,"Ġubrania":9942,"Ġjednoraz":9943,"iusze":9944,"fan":9945,"Ġdodatkiem":9946,"ĠkilometrÃ³w":9947,"Ġzdobywa":9948,"ĠreguÅĤy":9949,"Ġinterak":9950,"Ġlicznych":9951,"Ġakcja":9952,"rowana":9953,"ĠPr":9954,"terapii":9955,"Ġuczucie":9956,"ĠsÄĻdzi":9957,"ĠSK":9958,"HP":9959,"ĠOsoby":9960,"Ġjedyny":9961,"ĠtysiÄħce":9962,"ĠczujÄĻ":9963,"Ġlikwida":9964,"ĠkoÅĽciÃ³ÅĤ":9965,"Ġdoleg":9966,"ĠpoÅĤoÅ¼ony":9967,"ĠPanie":9968,"Ġlega":9969,"Ġzasadach":9970,"sora":9971,"ĠokÅĤad":9972,"siu":9973,"ĠSÅĤ":9974,"ral":9975,"Ġpraktyczne":9976,"Ġmazowie":9977,"ĠwyjaÅĽnie":9978,"Ġekran":9979,"Ġfryzje":9980,"sur":9981,"ĠwersjÄĻ":9982,"kin":9983,"karz":9984,"Kom":9985,"budowany":9986,"ĠHan":9987,"ĠkoÅĽciele":9988,"wiga":9989,"Ġutrzymania":9990,"Ġawan":9991,"ĠobrÄĻbie":9992,"czesne":9993,"nty":9994,"ĠgÅĤosÃ³w":9995,"ĠdoskonaÅĤe":9996,"Ġ..":9997,"Ġsalonu":9998,"ĠChociaÅ¼":9999,"Â¼":10000,"czeÅĦstwa":10001,"kowano":10002,"Ġwolnego":10003,"ĠTobie":10004,"Ġpostrzega":10005,"ĠByÅĤo":10006,"Cze":10007,"dziliÅĽmy":10008,"Ġ43":10009,"Ġpanu":10010,"Ġ).":10011,"posto":10012,"Ġnauka":10013,"Ġdomowych":10014,"ĠzgÅĤoszenia":10015,"sing":10016,"ĠSkle":10017,"Ġrej":10018,"ĠKlientÃ³w":10019,"ĠZam":10020,"ĠpomysÅĤy":10021,"Ġwieczor":10022,"ĠWÅĤaÅĽnie":10023,"ĠÅļrodowiska":10024,"wiar":10025,"ĠrozporzÄħdzenia":10026,"Ġciekawa":10027,"ÅĦsko":10028,"ĠobowiÄħzku":10029,"kadem":10030,"Ġpowodzeniem":10031,"czycy":10032,"waÅĤem":10033,"gowego":10034,"ÅĤyÅĽmy":10035,"Ġzaofer":10036,"pÄħ":10037,"ĠmÄĻÅ¼a":10038,"Ġpomiar":10039,"Ġdrewniane":10040,"nowanie":10041,"ĠniektÃ³rzy":10042,"Informa":10043,"Ġhumo":10044,"Ġchorych":10045,"ĠgadÅ¼e":10046,"Ġnaturalnego":10047,"ĠPri":10048,"ĠprzeglÄħda":10049,"JI":10050,"Ġzdaje":10051,"mym":10052,"ÅĤty":10053,"ĠporÄĻ":10054,"rdze":10055,"Ġkursy":10056,"ĠzwiÄĻkszenie":10057,"Ġdostrze":10058,"przez":10059,"ĠczÅĤowiekiem":10060,"lonego":10061,"Ġszpi":10062,"stroju":10063,"CD":10064,"Ġpojazd":10065,"Ġgazu":10066,"ĠStanisÅĤawa":10067,"ĠrodzajÃ³w":10068,"LI":10069,"Ġportfe":10070,"ĠAB":10071,"ĠWydziaÅĤ":10072,"ĠgÅĤÃ³wny":10073,"Ġbrzmi":10074,"czÄħcego":10075,"Ġutrzymanie":10076,"ĠosiÄħg":10077,"Ġodku":10078,"ĠzÅĤe":10079,"ĠÅ¼yczenia":10080,"Ġkorek":10081,"ĠzabiegÃ³w":10082,"ĠkoniecznoÅĽÄĩ":10083,"ĠzbÄĻ":10084,"ĠniezbÄĻdnych":10085,"ĠCor":10086,"sny":10087,"rium":10088,"Ġregulacji":10089,"eme":10090,"ĠspokÃ³j":10091,"soft":10092,"grza":10093,"Ġkonkurencji":10094,"mÃ³wienia":10095,"Ġzagospodarowania":10096,"ĠZako":10097,"Ġbom":10098,"cznikÃ³w":10099,"waÅĤam":10100,"Ġopakowania":10101,"Ġnegocja":10102,"Ġlamp":10103,"Ġodzna":10104,"Ġistnienia":10105,"ĠParku":10106,"Ġzakwa":10107,"ĠsamorzÄħ":10108,"Ġgen":10109,"Ġubiega":10110,"ĠwrÃ³ciÄĩ":10111,"szczeniu":10112,"Ġdepre":10113,"ĠZwie":10114,"Ġpatrio":10115,"hone":10116,"ĠszkoleÅĦ":10117,"Ġkaza":10118,"ĠÅļw":10119,"ĠDyrektor":10120,"czaÅĤ":10121,"Ġwiedza":10122,"Ġtraci":10123,"ĠLudzie":10124,"Ġgmina":10125,"dziÅĤem":10126,"Ġodpowiednim":10127,"ĠWiem":10128,"Ġogar":10129,"Ġobfi":10130,"dba":10131,"Ġjasne":10132,"MP":10133,"Ġmotywa":10134,"Ġinteresuje":10135,"Ġety":10136,"Ġmierze":10137,"Ã³wka":10138,"Ġjedynym":10139,"Ġprzycisk":10140,"Ġpowiem":10141,"ĠpsÃ³w":10142,"Ġprzyzwycza":10143,"ĠuÅ¼ycia":10144,"ĠÅ¼oÅĤnierzy":10145,"Ġwnioski":10146,"Ġnieustan":10147,"Ġfascy":10148,"ĠzwiÄħzany":10149,"ĠOpa":10150,"TV":10151,"ĠBiaÅĤy":10152,"ĠsÄħdu":10153,"ĠInternecie":10154,"Ġrewela":10155,"Å¼ny":10156,"ĠBea":10157,"Ġ->":10158,"mija":10159,"Ar":10160,"Ġzaci":10161,"Ġwiatr":10162,"con":10163,"val":10164,"Ġteatra":10165,"ĠpÅĤci":10166,"ĠNiech":10167,"fera":10168,"Ġwielkiego":10169,"alnej":10170,"Å¼ach":10171,"Ġinwestor":10172,"ĠokrÄħ":10173,"ĠFu":10174,"Ġperfek":10175,"ĠPlus":10176,"ĠnajpiÄĻk":10177,"ĠmoÅ¼liwoÅĽciÄħ":10178,"Ġwykonywane":10179,"ĠochotÄĻ":10180,"Ġwyle":10181,"tana":10182,"nowiÄĩ":10183,"Ġskuteczne":10184,"ĠSpecja":10185,"raÅĦcz":10186,"Ġstworzenia":10187,"lera":10188,"ĠwyborÃ³w":10189,"ĠGrzegorz":10190,"Ġhab":10191,"Ġuwo":10192,"ĠbraÄĩ":10193,"ĠbÃ³lu":10194,"ĠenergiÄĻ":10195,"ĠusunÄħÄĩ":10196,"Ġwieloma":10197,"ĠmiÄĻsa":10198,"ĠMoja":10199,"ĠPromo":10200,"ĠJeden":10201,"ĠposiÅĤ":10202,"ĠPolo":10203,"Ġfilmie":10204,"pÅĤyw":10205,"Ġukocha":10206,"ĠBoÅ¼ej":10207,"Ġprofesjonalne":10208,"Ġnajstar":10209,"Ġeuropejskich":10210,"Ġpleca":10211,"Ġzdzi":10212,"ĠnauczyÄĩ":10213,"ĠpojÄĻ":10214,"ĠwarsztatÃ³w":10215,"gujÄħ":10216,"âĢ¦)":10217,"Ġalumini":10218,"ĠÅĤadu":10219,"Ġsztuka":10220,"Ġabsolutnie":10221,"Ġwprowadzenie":10222,"Ġponosi":10223,"Ġinternetowa":10224,"Ġzdania":10225,"Ġindywidualnie":10226,"ĠprzekonaÄĩ":10227,"jac":10228,"ĠponiÅ¼":10229,"Ġobecnej":10230,"ĠAt":10231,"Ġ800":10232,"Ġnieja":10233,"Ġpozdra":10234,"ĠzarzÄħdzanie":10235,"Ġrzuca":10236,"ĠwyjÄħtkiem":10237,"jsc":10238,"ĠwydatkÃ³w":10239,"ĠznaÄĩ":10240,"ĠodnoÅĽnie":10241,"Ġjednozna":10242,"Ġstanowisku":10243,"ĠjeÅĽÄĩ":10244,"ĠMil":10245,"ĠRada":10246,"Ġataku":10247,"Ġprzeprowadzenia":10248,"ĠzwiÄĻkszyÄĩ":10249,"Ġdzieli":10250,"Ġpewnych":10251,"ĠPru":10252,"Ġkilkunastu":10253,"Ġmatka":10254,"ĠodzieÅ¼":10255,"logicznym":10256,"Ġkolejnego":10257,"Ġgum":10258,"Ġoszu":10259,"Ġgatunku":10260,"Ġdydak":10261,"ĠPÃ³ÅĤnoc":10262,"ÅĽleÄĩ":10263,"mowego":10264,"ĠzewnÄĻtrznych":10265,"ĠrozwaÅ¼a":10266,"ĠSpecjali":10267,"niorÃ³w":10268,"Ġsnu":10269,"Ġleczeniu":10270,"ĠMaciej":10271,"wicy":10272,"Ġnienawi":10273,"lnoÅĽciÄħ":10274,"Ġskutki":10275,"ĠwaÅ¼nych":10276,"Ġnasta":10277,"ĠÅĽlÄħ":10278,"ĠbÅĤÄĻdy":10279,"ĠRozmiar":10280,"Ġlaser":10281,"fery":10282,"ĠCelem":10283,"ĠzwierzÄĻta":10284,"Ġtwierdzi":10285,"Ġfer":10286,"Ġkrew":10287,"ĠsÅĤuÅ¼yÄĩ":10288,"ĠMoÅ¼emy":10289,"Ġkolorach":10290,"Doda":10291,"logiczna":10292,"tions":10293,"ĠCel":10294,"CA":10295,"dynek":10296,"2009":10297,"rzonych":10298,"Ġ95":10299,"ĠdotÄħd":10300,"ĠbyÅĤby":10301,"Ġogromny":10302,"Ġintele":10303,"SR":10304,"Ġdio":10305,"Ġuprawnienia":10306,"ĠNarodowej":10307,"ĠTowarzystwa":10308,"czyÅĦski":10309,"ĠÂ«":10310,"wÄħtpliwie":10311,"Ġsportu":10312,"Ġdoro":10313,"ĠwdraÅ¼a":10314,"ĠpowrÃ³t":10315,"nowych":10316,"Ġwita":10317,"Ġprofilu":10318,"ĠutrzymaÄĩ":10319,"ĠoszczÄĻdnoÅĽci":10320,"Ġzapewni":10321,"tnika":10322,"ĠProdukcja":10323,"Ġstosow":10324,"ĠzapamiÄĻ":10325,"Ġprofil":10326,"lnoÅĽlÄħ":10327,"Ġpoprzednich":10328,"Ġhamu":10329,"ĠtrÄħ":10330,"ĠByÅĤa":10331,"ĠKoÅĤo":10332,"Ġobiad":10333,"czyta":10334,"Ġprawdy":10335,"ĠÅĤatwy":10336,"Ġznana":10337,"89":10338,"landia":10339,"Ġzasilania":10340,"ĠHand":10341,"</":10342,"Ġpowiado":10343,"ĠopowieÅĽci":10344,"ĠjednakÅ¼e":10345,"budow":10346,"nawiam":10347,"nety":10348,"ĠrobiÄĻ":10349,"ĠpoÅĽcie":10350,"Ġsamochodem":10351,"Ġpogoda":10352,"uli":10353,"ĠpostÄĻpowaniu":10354,"Ġjasno":10355,"Ġpraktyki":10356,"Ġzaplanowa":10357,"Ġrejo":10358,"UB":10359,"Ġpowstanie":10360,"Ġnauczyciel":10361,"ĠgrupÄĻ":10362,"69":10363,"Ġrealizowane":10364,"Ġporady":10365,"niÅ¼":10366,"Ġpartnera":10367,"ĠLondy":10368,"onka":10369,"ĠRobert":10370,"Å¼ono":10371,"rÃ³Å¼nia":10372,"ĠgatunkÃ³w":10373,"Ġkomer":10374,"Ġsektora":10375,"ĠwÅĤaÅĽciciela":10376,"Ġstoli":10377,"Ġfizycznej":10378,"aru":10379,"ĠPrzewodni":10380,"OczywiÅĽcie":10381,"Ġuchy":10382,"waliÄĩ":10383,"DA":10384,"ĠpomysÅĤÃ³w":10385,"ĠGrupy":10386,"Ġmorza":10387,"ĠGR":10388,"Ġostrze":10389,"Ġdecyzje":10390,"Ġkomentarz":10391,"ĠYou":10392,"Ġoferujemy":10393,"Ġpobyt":10394,"ĠNatura":10395,"ĠdziewiÄĻ":10396,"ĠÅĽredniej":10397,"ĠbiaÅĤo":10398,"tus":10399,"ĠdosÅĤownie":10400,"ĠpodjÄħÄĩ":10401,"ĠmaÅĤÄħ":10402,"ĠRÃ³wnieÅ¼":10403,"mieniem":10404,"Ġprawdziwy":10405,"chodziÄĩ":10406,"trzÄħc":10407,"Ġzabezpiecza":10408,"ĠwiedziaÅĤ":10409,"ĠGdzie":10410,"ĠDopiero":10411,"robiÄĩ":10412,"ĠAndrzeja":10413,"ĠAR":10414,"¹rÃ³d":10415,"lonym":10416,"Ġrzete":10417,"ÂĦ":10418,"Ġterapeu":10419,"ĠwÃ³d":10420,"siÅĤa":10421,"ĠSch":10422,"Ġdwudzie":10423,"ĠEdukacji":10424,"owujÄħ":10425,"ĠtworzyÄĩ":10426,"ĠÅĽwietne":10427,"ĠcÃ³Å¼":10428,"Ġzastosowaniu":10429,"ĠOpie":10430,"Ġstosunek":10431,"koÅĤo":10432,"lamin":10433,"Ġkolejnej":10434,"ĠniepodlegÅĤoÅĽci":10435,"Ġprzeszkadza":10436,"Ġwszelkiego":10437,"Warto":10438,"Ġwynajem":10439,"ÅĤowej":10440,"ÃŃ":10441,"Ġpielgrzy":10442,"Cz":10443,"ĠCH":10444,"Ġstrategi":10445,"NIA":10446,"Ġmaka":10447,"miernie":10448,"ĠnajbliÅ¼szych":10449,"Ġodcinku":10450,"ĠOba":10451,"Ġwystawie":10452,"ĠporÃ³wny":10453,"ĠBli":10454,"ĠRzesz":10455,"Ġder":10456,"Ġwsty":10457,"Ġkatastro":10458,"ĠwspÃ³ÅĤpracu":10459,"Ġpolicji":10460,"ĠprawidÅĤowo":10461,"Ġdodatki":10462,"Ġzabiegi":10463,"ĠuniemoÅ¼li":10464,"ĠKlub":10465,"ĠLubel":10466,"kÅĤadamy":10467,"ĠpodaÄĩ":10468,"Ġsalon":10469,"ĠwÅĤaÅĽcicieli":10470,"Ġdalszej":10471,"Ġzainteresowanych":10472,"ĠmyÅĽlenia":10473,"ĠPoÅĤudni":10474,"ĠCzerwo":10475,"ĠKonferen":10476,"tnikÃ³w":10477,"Ġnormy":10478,"pieniu":10479,"Ġkoko":10480,"jenia":10481,"Ġnastola":10482,"ĠOk":10483,"Ġzlecenia":10484,"dnim":10485,"ĠwÅĤaÅĽciwego":10486,"ĠmÅĤodzi":10487,"trzymy":10488,"Ġbezprzewo":10489,"Ġmleka":10490,"ĠÅ¼ona":10491,"Ġnietyp":10492,"wajÄħc":10493,"Ġkoleg":10494,"gÅĤy":10495,"ĠÅĤazienki":10496,"mego":10497,"Ġzdob":10498,"ĠKilka":10499,"ĠAir":10500,"Ġstomato":10501,"ĠzespoÅĤÃ³w":10502,"Ġdzisiejszych":10503,"Niestety":10504,"czytaj":10505,"ĠMistrzostwa":10506,"Ġusytu":10507,"czkÃ³w":10508,"cle":10509,"ĠPuchar":10510,"SKI":10511,"Ġwojnie":10512,"Ġkwota":10513,"ĠPierwsze":10514,"Ġnajgor":10515,"Ġhandlowych":10516,"Ġdetali":10517,"ĠodnaleÅºÄĩ":10518,"Ġciasta":10519,"Ġpliku":10520,"Ġprzetwarzanie":10521,"Ġpunkcie":10522,"trem":10523,"ĠmiesiÄħcach":10524,"Ġhandlu":10525,"ĠObywa":10526,"polskie":10527,"ĠPlay":10528,"ĠJednoczeÅĽnie":10529,"ĠjakiejÅĽ":10530,"ĠMoÅ¼liwoÅĽÄĩ":10531,"matu":10532,"ferÄĻ":10533,"Å»y":10534,"cjonuje":10535,"wagÄĻ":10536,"ĠprzyjemnoÅĽciÄħ":10537,"ĠPiÅĤ":10538,"ĠWymiary":10539,"Ġpowstaje":10540,"Ġkwi":10541,"ĠtekstÃ³w":10542,"ĠRok":10543,"ĠAk":10544,"Tra":10545,"zmy":10546,"Ġkamer":10547,"Ġzatrudnia":10548,"dzonÄħ":10549,"Ġegzaminu":10550,"Ġskra":10551,"ĠÅĽru":10552,"gowy":10553,"Ġwydarzenie":10554,"nionÄħ":10555,"Ġolbrzy":10556,"ĠÅĽcian":10557,"Ġkary":10558,"glu":10559,"Ġniepotrzeb":10560,"Ġobrazy":10561,"Ġgwarancji":10562,"ziem":10563,"ĠÅģukasz":10564,"bera":10565,"rucha":10566,"Ġprzedmioty":10567,"ĠâĢĿ":10568,"Ġaudio":10569,"ĠPrzykÅĤad":10570,"ĠRolni":10571,"Ġosobami":10572,"tkowych":10573,"ĠczÅĤonkowie":10574,"org":10575,"Ġtechnik":10576,"ĠAC":10577,"Ġbylo":10578,"Ġsercu":10579,"ĠpowÅĤo":10580,"ys":10581,"ĠpomyÅĽla":10582,"owienia":10583,"Ġdany":10584,"Ġwszystkimi":10585,"sprze":10586,"Ġran":10587,"ĠgoÅĽcie":10588,"wili":10589,"tycznymi":10590,"ĠefektÃ³w":10591,"Ġokiem":10592,"Ġpolsko":10593,"rena":10594,"ĠEwa":10595,"Ġ08":10596,"rok":10597,"ĠDÅĤugoÅĽÄĩ":10598,"WedÅĤug":10599,"goda":10600,"Ġdefi":10601,"wum":10602,"!)":10603,"ĠzasobÃ³w":10604,"jowych":10605,"Ġwspomnienia":10606,"Ġregionie":10607,"ĠTor":10608,"Ġkryty":10609,"jnik":10610,"ĠpracÄħ":10611,"ĠnagrodÄĻ":10612,"sÅĤugi":10613,"Ġparametry":10614,"Ġlaurea":10615,"Ġobszaru":10616,"cial":10617,"Ġodbioru":10618,"Ġbohatera":10619,"ĠwymieniÄĩ":10620,"Ġlampy":10621,"ĠciÅĽnienia":10622,"ĠPrawa":10623,"ĠPolskie":10624,"wce":10625,"Ġgimnazjum":10626,"Ġsystema":10627,"ĠwspaniaÅĤe":10628,"ĠgÅĤowÄħ":10629,"Ġinicjatywy":10630,"Ġodbi":10631,"Be":10632,"EO":10633,"Ġpoto":10634,"Ġtechnologia":10635,"Ġiz":10636,"Ġobserwu":10637,"ĠbÄĻdÄħc":10638,"ĠAnto":10639,"ĠNajwyÅ¼":10640,"Ġflo":10641,"63":10642,"Ġuspo":10643,"Ġswych":10644,"ĠstopieÅĦ":10645,"EZ":10646,"mir":10647,"Ġzeby":10648,"ĠnajwiÄĻkszy":10649,"ãĢ":10650,"Ġzinteg":10651,"Ġzaakcep":10652,"ĠKomite":10653,"ĠprzesyÅĤa":10654,"ĠnieprawidÅĤ":10655,"stom":10656,"ĠMÃ³j":10657,"ĠZgroma":10658,"sowaÅĤ":10659,"Ġniezbyt":10660,"ĠFinan":10661,"ĠÅļwiÄħ":10662,"ĠmasÄĻ":10663,"tary":10664,"ĠGwaran":10665,"Ġnur":10666,"dzka":10667,"Ġstruktury":10668,"ĠMart":10669,"Ġpodobnych":10670,"dnak":10671,"Ġ2019":10672,"Ġprzywi":10673,"ĠchÄĻÄĩ":10674,"Ġprzesa":10675,"ĠMaj":10676,"Ġsh":10677,"Ġskaza":10678,"ĠodbiorcÃ³w":10679,"Ġjednorodzi":10680,"Ġzabudowy":10681,"ĠÅļwiata":10682,"ĠzdolnoÅĽÄĩ":10683,"drze":10684,"ĠpodzieliÄĩ":10685,"''":10686,"bytkÃ³w":10687,"Ġnaprawy":10688,"ĠzdoÅĤa":10689,"owanÄħ":10690,"Ġgorzej":10691,"nkowy":10692,"ĠspÃ³ÅĤka":10693,"ĠÅ¼adne":10694,"gania":10695,"Jako":10696,"Nasza":10697,"dzkiej":10698,"ĠMarka":10699,"ĠkoleÅ¼an":10700,"Ġstarych":10701,"ĠKomu":10702,"Ġpewna":10703,"ĠnajwyÅ¼szym":10704,"dniÄĩ":10705,"Ad":10706,"Ġterytorium":10707,"ĠpoglÄħ":10708,"ĠnaukÄĻ":10709,"ĠSzuka":10710,"mas":10711,"ÅĤÃ³Å¼":10712,"Ġdemon":10713,"82":10714,"ĠdÅĤoni":10715,"Ġodniesieniu":10716,"nosci":10717,"zujÄħcy":10718,"Ġzestawu":10719,"Ġwyczer":10720,"87":10721,"ĠPrezydenta":10722,"Ġstrategii":10723,"ill":10724,"ĠprzedsiÄĻwziÄĻcia":10725,"ĠAgnieszka":10726,"Ġzawartych":10727,"Ġczytania":10728,"Pu":10729,"kowaÅĦ":10730,"Ġkonsekwencji":10731,"Ġzakupi":10732,"ĠPodla":10733,"Ġudowo":10734,"Ġwyborach":10735,"Ġodnaj":10736,"Ġstraty":10737,"som":10738,"Ġnajszybciej":10739,"Ġidealnym":10740,"ĠNigdy":10741,"ĠStrze":10742,"ĠpiÅĤki":10743,"nis":10744,"Ġbibli":10745,"ĠartystÃ³w":10746,"Å¼owe":10747,"Ġzapyta":10748,"ĠposzczegÃ³lne":10749,"Ġczos":10750,"Ġodej":10751,"hop":10752,"ris":10753,"ĠkrÃ³tkie":10754,"Ġoddech":10755,"Ġdomowe":10756,"welo":10757,"ĠPoda":10758,"westi":10759,"ĠmaÅĤego":10760,"ĠwychodzÄħ":10761,"Ġkwas":10762,"ĠDÄĻ":10763,"ĠMP":10764,"Ġpos":10765,"Ġczarne":10766,"ĠistniejÄħ":10767,"Ġtermina":10768,"ĠOÅĽrodka":10769,"Ġnormalnie":10770,"ĠEurope":10771,"Ġpysz":10772,"ĠRzecz":10773,"dziÅĤam":10774,"Ġboku":10775,"Ġwiny":10776,"wianie":10777,"mowanych":10778,"Ġgrana":10779,"ĠMedia":10780,"ĠokreÅĽlenia":10781,"Ġdachu":10782,"lasy":10783,"czniowie":10784,"IZ":10785,"Ġubezpieczenie":10786,"Ġmarka":10787,"ĠOgÃ³lnopol":10788,"ÑģÑĤ":10789,"Ġsceny":10790,"prÄĻ":10791,"Ġinfrastruktury":10792,"Ġporze":10793,"Ġautorstwa":10794,"wÅĤo":10795,"zacje":10796,"ĠPrezen":10797,"ĠSpÃ³ÅĤka":10798,"Å¼nie":10799,"Ġneuro":10800,"rzymy":10801,"przeciw":10802,"Ġ64":10803,"Ġobjaw":10804,"dzielni":10805,"91":10806,"Ġkamienia":10807,"ĠNiez":10808,"Ġstrza":10809,"ĠLublinie":10810,"ĠÅ¼ela":10811,"ĠkartÄĻ":10812,"Ġinternetowym":10813,"Ġplanuje":10814,"Ġdofinansowanie":10815,"Ġotwarcie":10816,"ĠzajÄĻciach":10817,"Szcze":10818,"ĠÅĽniadanie":10819,"ĠKatarzyna":10820,"Ġdata":10821,"Ġporoz":10822,"szczona":10823,"BA":10824,"Ġpodobny":10825,"Ġsej":10826,"Ġ85":10827,"ĠwalczyÄĩ":10828,"Ġnauk":10829,"ryk":10830,"Ġubezpieczeni":10831,"gosÅĤu":10832,"Ġelektrycznej":10833,"Ġfoli":10834,"ĠSoli":10835,"Ġaut":10836,"prawdopodob":10837,"ĠleÅ¼a":10838,"Ġer":10839,"Ġobywateli":10840,"Ġoprogramowanie":10841,"hat":10842,"ĠNiektÃ³re":10843,"Ġdyrektora":10844,"Zna":10845,"Ġsamochodowe":10846,"ĠrÃ³Å¼nymi":10847,"ĠurzÄĻdu":10848,"niowego":10849,"Ha":10850,"Ġseg":10851,"ĠÂ·":10852,"Ġpozo":10853,"Ġprzeznaczona":10854,"czam":10855,"stÄĻpuje":10856,"ĠstwierdziÅĤ":10857,"Ġpion":10858,"arÃ³wno":10859,"ĠPoja":10860,"Ġtoksy":10861,"Ġzapewnienia":10862,"Ġocie":10863,"Ġakt":10864,"Ġofiar":10865,"ĠzewnÄĻtrzne":10866,"ĠCzasem":10867,",,,,,,,,":10868,"sno":10869,"niejszego":10870,"ĠpodraÅ¼":10871,"ĠSmo":10872,"ĠJakub":10873,"ĠrozpoczÄĻÅĤa":10874,"Ġsklepy":10875,"ryt":10876,"Ġniewielkie":10877,"ĠbÅĤyskawi":10878,"chunek":10879,"ĠkierowcÃ³w":10880,"Ġpopo":10881,"ĠzdobyÅĤ":10882,"ĠRegulaminu":10883,"Ġdociera":10884,"Ġjakichkolwiek":10885,"ĠFilm":10886,"Ġotwarte":10887,"ĠzarzÄħdu":10888,"Ġelasty":10889,"Ġelektryczne":10890,"Ġprowadzonych":10891,"nÄĻÅĤam":10892,"Ġpostaw":10893,"Ġtzn":10894,"Ġmega":10895,"ĠWielu":10896,"rop":10897,"ĠwiÄĻkszym":10898,"ĠChÅĤo":10899,"Ġwiosen":10900,"minacji":10901,"Ġwielkiej":10902,"ĠprÄħdu":10903,"ĠDnia":10904,"ĠnajlepszÄħ":10905,"ĠProdukt":10906,"ĠzabraÄĩ":10907,"ĠinternetowÄħ":10908,"ĠpowaÅ¼nie":10909,"ĠprzekÄħ":10910,"resztÄħ":10911,"ĠpozwoliÄĩ":10912,"ĠKonstytu":10913,"ĠOne":10914,"Ġniniejszego":10915,"Ġwarzywa":10916,"Ġkontr":10917,"rii":10918,"ĠzÅĤota":10919,"Ġdostanie":10920,"92":10921,"Ġpopu":10922,"illa":10923,"ĠopowieÅĽÄĩ":10924,"Ġlegi":10925,"Ġotoczenia":10926,"ĠpÃ³ki":10927,"ĠKru":10928,"Ġodcinek":10929,"ĠÅĽwieÅ¼e":10930,"ramy":10931,"wczego":10932,"Ġnieda":10933,"Ġopodatk":10934,"lnik":10935,"Ġ41":10936,"ĠgÅĤÃ³wnego":10937,"ĠodpornoÅĽÄĩ":10938,"gÅĤÄĻbia":10939,"Å¼bie":10940,"step":10941,"Ġprzeciwie":10942,"ĠmajÄħcych":10943,"ĠrozpoczÄħÄĩ":10944,"wieniem":10945,"wans":10946,"Ġkoncie":10947,"listÃ³w":10948,".-":10949,"nkowych":10950,"Ġminuty":10951,"nior":10952,"ĠDomi":10953,"'s":10954,"ĠUbezpieczenia":10955,"ĠgroÅº":10956,"Ġczyni":10957,"Ġwymiana":10958,"ĠogÃ³lne":10959,"ĠdzieÅĤo":10960,"Ġkonstrukcja":10961,"ĠkomÃ³rki":10962,"ĠwejÅĽcie":10963,"Ġsamemu":10964,"rie":10965,"ĠaktywnoÅĽÄĩ":10966,"funk":10967,"ĠFunk":10968,"Ġzapalenie":10969,"ĠpiszÄħ":10970,"tia":10971,"Ġsiedzibie":10972,"TE":10973,"Ġatrakcyjne":10974,"Ġero":10975,"raktery":10976,"Ġdzier":10977,"knie":10978,"Ġalbum":10979,"Ġpedagogi":10980,"ĠradÄĻ":10981,"Ġwzory":10982,"ĠIs":10983,"ĠrÄĻkÄħ":10984,"Ġemisji":10985,"Ġparla":10986,"Ġwybrane":10987,"Ġzezwo":10988,"wieniu":10989,"tegoria":10990,"Forum":10991,"bru":10992,"Ġprzewidy":10993,"ĠNR":10994,"Ġdrobne":10995,"luzy":10996,"Ġszansa":10997,"72":10998,"ĠwÄĻgla":10999,"ĠDanie":11000,"biny":11001,"Ġskry":11002,"Ġefekcie":11003,"Ġfinansowej":11004,"TS":11005,"ĠMiejsce":11006,"nnoÅĽÄĩ":11007,"Ġmuzeum":11008,"Opis":11009,"ĠpoÅ¼Äħda":11010,"ĠpowierzchniÄĻ":11011,"Ġuczci":11012,"Ġtamtej":11013,"ĠupowaÅ¼":11014,"Ġgustu":11015,"ĠbiorÄħc":11016,"Ġcharakteryzuje":11017,"Ġrzy":11018,"Ġape":11019,"ĠmajÄħce":11020,"Ġstrefy":11021,"Ġzawodowej":11022,"Ġserwer":11023,"ĠbÄĻdziecie":11024,"Ġbloku":11025,"Ġkomo":11026,"mowaniem":11027,"ĠIstnieje":11028,"ĠJarosÅĤaw":11029,"ĠWska":11030,"ĠszkÅĤa":11031,"ĠzobowiÄħzany":11032,"ĠDV":11033,"zumienia":11034,"ĠPrzedszko":11035,"Ġdania":11036,"zowanej":11037,"Ġkoryta":11038,"Ġnajnowsze":11039,"ceu":11040,"CzÄĻ":11041,"ĠDoro":11042,"rÃ³wnowa":11043,"Ġjakimi":11044,"ĠSpÃ³ÅĤki":11045,"Ġpowrotem":11046,"Ġprzebiegu":11047,"jest":11048,"Ġprzyrodni":11049,"Ġsypialni":11050,"Ġobrony":11051,"ĠWymaga":11052,"ĠkomuÅĽ":11053,"ĠInformacji":11054,"ĠrozwijaÄĩ":11055,"ĠZaj":11056,"76":11057,"Ġpodane":11058,"Ġtram":11059,"Ġchoroba":11060,"Ġprzetargu":11061,";)":11062,"roda":11063,"Op":11064,"zami":11065,"Ġwaria":11066,"ĠwaÅ¼nym":11067,"Al":11068,"Ġpozdrawiam":11069,"ĠTrybu":11070,"ĠwydawaÄĩ":11071,"Ġkompletnie":11072,"Ġopcja":11073,"Ġprawnej":11074,"jÄĻzy":11075,"uj":11076,"Ġsylwe":11077,"ĠÅĽmieci":11078,"vie":11079,"ĠLublin":11080,"Ġprodukcja":11081,"Ġdarmowe":11082,"ĠmiÄĻso":11083,"ĠSzpita":11084,"Ġartykule":11085,"Ġreakcji":11086,"Ġabo":11087,"Ġproponuje":11088,"qui":11089,"ĠUV":11090,"Ġpies":11091,"Ġmoty":11092,"ĠwyjÄħtkowy":11093,"ĠÐ¿":11094,"zowanym":11095,"Ġcykl":11096,"terÃ³w":11097,"Ġodwo":11098,"dowane":11099,"stop":11100,"Ġsufi":11101,"ĠOpis":11102,"ĠSÄħdu":11103,"Ġjedyne":11104,"Ġrzeki":11105,"kaja":11106,"Ġniepoko":11107,"Ġnacze":11108,"fun":11109,"ĠwyjÄħtkowe":11110,"Ġustawienia":11111,"ĠSzyb":11112,"Ġmacierzy":11113,"Dzisiaj":11114,"her":11115,"ĠPolskich":11116,"Zgodnie":11117,"Ġhydro":11118,"Ġwymy":11119,"86":11120,"ĠÅĽwietle":11121,"can":11122,"Ġwierz":11123,"ĠTurysty":11124,"Ġwypadek":11125,"zia":11126,"ĠwiÄĻkszego":11127,"ĠodÅĽwie":11128,"Ġdotyka":11129,"Ġobchodzi":11130,"czaka":11131,"Ġnarko":11132,"SKIE":11133,"ĠCzÅĤowie":11134,"Ġzlecenie":11135,"Ġmultimedia":11136,"Ġprojekta":11137,"Ġzawodowego":11138,"ĠwojewÃ³dztwie":11139,"Ġpapieru":11140,"Ġdzielnicy":11141,"Ġsanitar":11142,"ĠnadciÅĽnie":11143,"Ġzb":11144,"ĠzdecydowaÄĩ":11145,"szajÄħ":11146,"liwoÅĽciÄħ":11147,"tujÄħc":11148,"Ġskrom":11149,"ownictwo":11150,"________":11151,"ĠplacÃ³wki":11152,"ĠzwyciÄĻz":11153,"ĠpÃ³Åºn":11154,"wieÅĦ":11155,"Ġzawodach":11156,"Ġwycofa":11157,"ĠnapiÄĻcie":11158,"Ġkomentarze":11159,"Ġkaden":11160,"Ġotwarcia":11161,"Ġszczu":11162,"Ġcukrzy":11163,"ĠprzystÄħpi":11164,"Ġprzedmiotem":11165,"ĠgÅĤÃ³wnÄħ":11166,"Ġotrzymania":11167,"Ġmotocy":11168,"ĠpostanowiÅĤ":11169,"Ġlato":11170,"ĠdoskonaÅĤy":11171,"zywane":11172,"ĠAfry":11173,"Ġrachunku":11174,"Ġunij":11175,"ĠFer":11176,"Ġwys":11177,"ĠKomisja":11178,"ĠPoniÅ¼ej":11179,"Ġdruku":11180,"ĠtrafiÅĤ":11181,"tkowy":11182,"Ġukrai":11183,"ĠsÅĤab":11184,"dge":11185,"Ġpubliczne":11186,"ĠkÄħpieli":11187,"94":11188,"Å¼aÄĩ":11189,"Ġweeken":11190,"ĠKonta":11191,"ee":11192,"Ġdeka":11193,"Ġreprezenta":11194,"intere":11195,"Ġwynikiem":11196,"Ġliteratury":11197,"ĠspÃ³ÅĤek":11198,"wiat":11199,"Ġsytuacje":11200,"ĠspÄĻdza":11201,"SKA":11202,"Ġwysokich":11203,"Ġreszta":11204,"ĠZUS":11205,"ĠAga":11206,"Ġwybierz":11207,"ĠogÃ³ÅĤ":11208,"tis":11209,"ĠkrÄĻgosÅĤu":11210,"ÅĤkÄĻ":11211,"Ġkance":11212,"fin":11213,"Ġorganizmie":11214,"stawi":11215,"Ġtenden":11216,"wiercie":11217,"Tym":11218,"ĠpojawiÅĤa":11219,"ĠprzysÅĤuguje":11220,"nocy":11221,"ĠCer":11222,"ĠUsÅĤugi":11223,"Ġgastronomi":11224,"Ġnierdze":11225,"Ġzabawki":11226,"Ġ1999":11227,"ĠCla":11228,"ĠOF":11229,"ĠAna":11230,"Ġjada":11231,"ĠElb":11232,"ĠdoprowadziÄĩ":11233,"ĠnadajÄħ":11234,"Poli":11235,"Ġbramy":11236,"Ġprzechowywania":11237,"ĠTR":11238,"fikowaÄĩ":11239,"szczonych":11240,"ĠzastosowaÄĩ":11241,"Ġprocedury":11242,"Ġosiem":11243,"Ġojczy":11244,"ĠUwaÅ¼a":11245,"Ġskorzystania":11246,"Ġante":11247,"umer":11248,"Ġidea":11249,"Ġcodziennego":11250,"ĠwyszÅĤo":11251,"ĠzwiÄħzana":11252,"Ġreferen":11253,"ĠBizne":11254,"ĠtÅĤuszczu":11255,"Ġmarzenia":11256,"Ġpogody":11257,"Ġdiete":11258,"NastÄĻp":11259,"ĠniedÅĤugo":11260,"Ġmianowicie":11261,"Ne":11262,"Ġzwolen":11263,"Ġwyprac":11264,"Ð²":11265,"Ġobecnych":11266,"onda":11267,"damia":11268,"ĠszkoÅĤach":11269,"Ġoryginalne":11270,"Ġodgrywa":11271,"nnoÅĽci":11272,"sco":11273,"letniej":11274,"ĠgÅĤÄĻboko":11275,"CO":11276,"ĠBydgoszczy":11277,"ĠSama":11278,"lat":11279,"koniecznie":11280,"Ġpiw":11281,"tuzja":11282,"ĠpoprawiÄĩ":11283,"ĠpowieÅĽÄĩ":11284,"ĠOS":11285,"boo":11286,"ĠZapraszam":11287,"ĠMS":11288,"Ġkina":11289,"Ġnauczyciela":11290,"Ġwarstwy":11291,"Ġpopa":11292,"prawdzie":11293,"Ġ!!!":11294,"Spe":11295,"Ġfunkcjonar":11296,"Pierw":11297,"Ġwykre":11298,"Ġ52":11299,"rony":11300,"Ġmax":11301,"ĠRÄĻ":11302,"Ġwspina":11303,"ĠwraÅ¼enia":11304,"ĠFestiwalu":11305,"ĠOtÃ³Å¼":11306,"Ġstr":11307,"Ġzmierza":11308,"Ġparu":11309,"Ġochrona":11310,"Ġreno":11311,"Ġsyg":11312,"dniÄĻ":11313,"Ġwyczu":11314,"gs":11315,"niejszej":11316,"Ġinwestycje":11317,"strukcja":11318,"Ġdole":11319,"ĠchciaÅĤam":11320,"Ġmieszkaniu":11321,"ĠAK":11322,"ĠCzyli":11323,"ĠludnoÅĽci":11324,"ĠoddziaÅĤu":11325,"czyÅĤam":11326,"ĠzaÅĤa":11327,"Ġterytoria":11328,"ĠduÅ¼ego":11329,"Ġtacy":11330,"Ġkolorowe":11331,"ĠmyÅĽleÄĩ":11332,"syÅĤa":11333,"PamiÄĻ":11334,"ĠnastÄĻpujÄħcych":11335,"tytu":11336,"Ġzwar":11337,"ĠgÅĤosu":11338,"staÄĩ":11339,"Ġcon":11340,"ĠCia":11341,"Ġporan":11342,"Ġstwa":11343,"ĠwyÅĽwiet":11344,"orien":11345,"Ġuspraw":11346,"Ġdwor":11347,"ĠpiÅĤkar":11348,"ĠwspÃ³":11349,"ĠGimnazjum":11350,"ĠÅ¼adnym":11351,"Ġkonkretnych":11352,"Ġpremier":11353,"IO":11354,"Ġczerw":11355,"Ġbezpiecznie":11356,"ĠNajwiÄĻk":11357,"ĠPapie":11358,"ĠstaroÅ¼y":11359,"ĠSwo":11360,"ĠnakÅĤad":11361,"Ġzbio":11362,"ĠzabrakÅĤo":11363,"ĠokreÅĽlenie":11364,"Ġtematem":11365,"tos":11366,"Ġzawody":11367,"ĠpotrzebujÄħ":11368,"Pona":11369,"Ã¤":11370,"ĠArty":11371,"lc":11372,"Ġnamio":11373,"mam":11374,"ĠwykonywaÄĩ":11375,"Ġrozumieniu":11376,"Ġwymienionych":11377,"ĠobowiÄħzki":11378,"niowa":11379,"Ġsprzed":11380,"Ġwesele":11381,"Ġmetra":11382,"ĠZachÄĻ":11383,"Ġchleb":11384,"Ġaktualne":11385,"Ġpoprawy":11386,"nianie":11387,"ĠMÄĻÅ¼czy":11388,"ting":11389,"ĠzakoÅĦczenia":11390,"Teraz":11391,"liwe":11392,"lda":11393,"stii":11394,"ĠDZ":11395,"Ġmecze":11396,"Ġplac":11397,"ĠczÄĻÅĽciowo":11398,"ĠRepubli":11399,"gÅĤ":11400,"ĠdÅºwiÄĻku":11401,"ĠwyglÄħdu":11402,"Ġnieli":11403,"basa":11404,"Ġton":11405,"ĠutworÃ³w":11406,"ness":11407,"ĠMoc":11408,"Ġzadowolona":11409,"Ġzachwyca":11410,"ĠzabawÄĻ":11411,"ĠpotencjaÅĤ":11412,"Ġprzypada":11413,"Ġpoku":11414,"Ġnowoczesny":11415,"Ġodnosi":11416,"Ġmediach":11417,"ĠNikt":11418,"ĠHal":11419,"ĠgruboÅĽci":11420,"ĠogÃ³lnopol":11421,"ĠczytelnikÃ³w":11422,"Ġyou":11423,"ĠSyl":11424,"Ġsied":11425,"Ġup":11426,"ĠGB":11427,"ĠSzczecin":11428,"Ġzato":11429,"ĠwrocÅĤa":11430,"Ġprzyjmuje":11431,"Ġprocesy":11432,"ĠodlegÅĤoÅĽÄĩ":11433,"ĠwymagajÄħcych":11434,"Ġucznia":11435,"ione":11436,"Sk":11437,"ĠAnglii":11438,"ĠSos":11439,"Ġterro":11440,"wnego":11441,"Ġzaskaku":11442,"dowany":11443,"ĠporzÄħ":11444,"cier":11445,"daje":11446,"grody":11447,"ĠsprawdÅº":11448,"skowe":11449,"ĠpracujÄħ":11450,"ĠAlbo":11451,"Ġokolic":11452,"ĠodbywajÄħ":11453,"ĠKonkursu":11454,"ĠChor":11455,"ĠpostÄĻpowanie":11456,"ĠzÅĤego":11457,"ĠdruÅ¼yna":11458,"Ġpotrzebny":11459,"ĠwprowadziÄĩ":11460,"stawienie":11461,"Ġrozbudowa":11462,"Ġfizjo":11463,"ĠodpornoÅĽci":11464,"mena":11465,"ĠNajlepiej":11466,"Ġmedycyny":11467,"ĠFar":11468,"ĠopiniÄĻ":11469,"Ponad":11470,"Ã³rka":11471,"Ġcelach":11472,"ĠKan":11473,"Ġtragi":11474,"ĠiloÅĽciÄħ":11475,"ĠwysiÅĤku":11476,"ĠpozbyÄĩ":11477,"Ġdziwne":11478,"Ġlekcji":11479,"Ġkompetencji":11480,"Ġpowinie":11481,"ĠzdjÄĻciach":11482,"Ġkoordyna":11483,"ĠâĢĺ":11484,"Ġcztero":11485,"ĠzespoÅĤem":11486,"niÄĻta":11487,"Ġfajne":11488,"Ġuczucia":11489,"ĠczekajÄħ":11490,"ben":11491,"ĠdziaÅĤaniu":11492,"Ġinfo":11493,"Ġnapra":11494,"Ġpozytywne":11495,"ĠczystoÅĽci":11496,"ĠMc":11497,"Ġlasu":11498,"ĠkrzyÅ¼":11499,"ĠelektronicznÄħ":11500,"Ġtole":11501,"Ġniemieckiego":11502,"ĠuwzglÄĻdnieniem":11503,"Ġplo":11504,"ĠpozarzÄħd":11505,"Ġ99":11506,"ĠzajmujÄħ":11507,"ĠzÅĤama":11508,"ancelar":11509,"ĠTakÅ¼e":11510,"Ġhali":11511,"dawcÄĻ":11512,"ĠhasÅĤo":11513,"ĠoÅĽwietlenie":11514,"utra":11515,"Ġekstra":11516,"Ġfragment":11517,"Ġbase":11518,"ĠpÅĤyta":11519,"Ļ¥":11520,"Ġteorii":11521,"ĠwewnÄĻtrznych":11522,"Ġtechnologie":11523,"Ġuczestnictwa":11524,"tran":11525,"ĠVol":11526,"Ġtymczas":11527,"62":11528,"Ġnisko":11529,"limpi":11530,"ĠwygÅĤa":11531,"cieÅĦ":11532,"Ġmetali":11533,"logÃ³w":11534,"Ġsos":11535,"ĠEkonomi":11536,"ĠskÅĤadni":11537,"nicze":11538,"Ġpodobno":11539,"ĠzaÅĤoÅ¼yÄĩ":11540,"Ġszale":11541,"Ġprysznic":11542,"84":11543,"ĠwewnÄĻtrzne":11544,"Ġwyborem":11545,"koro":11546,"Ġuszy":11547,"ÅĽniu":11548,"Ġadwoka":11549,"ĠnowoÅĽci":11550,"nkowa":11551,"ĠzÅĤoÅ¼y":11552,"ĠpowstaÅĤy":11553,"Ġniejedno":11554,"onych":11555,"Ġprzerwy":11556,"wkÄħ":11557,"ĠzapÅĤaciÄĩ":11558,"Ġpoczty":11559,"Ġuzysku":11560,"Ġklasa":11561,"Ġkonsoli":11562,"Ġkrymina":11563,"Ġpogrze":11564,"Ġsznu":11565,"Ġwymagane":11566,"ĠuczyÄĩ":11567,"Ġfestiwalu":11568,"powo":11569,"ĠkawaÅĤek":11570,"Ġskraj":11571,"Ġszlache":11572,"ĠkontrolÄĻ":11573,"dziny":11574,"sowaniu":11575,"ĠSS":11576,"towaÅĤy":11577,"czeki":11578,"âĢ¦.":11579,"Ġaresz":11580,"ĠspodziewaÄĩ":11581,"ĠEwange":11582,"Ġwzrasta":11583,"Ġgminie":11584,"waja":11585,"Polska":11586,"Ġ(âĢŀ":11587,"ceniem":11588,"Ġnajlepsza":11589,"Ġsocze":11590,"ĠsÅĤoÅĦce":11591,"ĠKonkurs":11592,"Ġilustra":11593,"Ġwyce":11594,"zujÄħcych":11595,"Ġducha":11596,"Ġdziwnego":11597,"wery":11598,"ĠplanÃ³w":11599,"ĠMateusz":11600,"dzienne":11601,"prawdÄĻ":11602,"500":11603,"ĠLitera":11604,"rowaÅĤ":11605,"ĠÅĤÄħczÄħ":11606,"Ġucieka":11607,"dziesiÄĻciu":11608,"box":11609,"Ġcokolwiek":11610,"ĠwÅĤaÅĽciwy":11611,"Ġklini":11612,"Ġrozpocznie":11613,"Ġeksploatacji":11614,"ÅĤom":11615,"ĠoferujÄħ":11616,"ART":11617,"ktowaÄĩ":11618,"stanie":11619,"Ġpolo":11620,"Ġwypoczynku":11621,"ĠHiszpanii":11622,"ĠÅĽredniowie":11623,"ĠPierwsza":11624,"Ġlinie":11625,"Ġszk":11626,"Ġpreferen":11627,"Ġweso":11628,"wiamy":11629,"emon":11630,"ĠodmÃ³w":11631,"ĠKupu":11632,"Ġnajcieka":11633,"Ġwydoby":11634,"fro":11635,"serw":11636,"Ġprzeze":11637,"Ġobiektyw":11638,"ĠKod":11639,"ĠStary":11640,"Åºle":11641,"Ġsterowania":11642,"ĠpomagajÄħ":11643,"Ġaspe":11644,"ĠusuniÄĻcia":11645,"Ġpowiat":11646,"ĠMnie":11647,"ĠczÅĤonek":11648,"niania":11649,"Ġtabeli":11650,"Ġciemno":11651,"ĠÎ":11652,"Ġzadzwo":11653,"ruchamia":11654,"ĠmiÄĻdzynarodowych":11655,"PO":11656,"Ġpale":11657,"ĠOznacza":11658,"ĠkilkadziesiÄħt":11659,"Å¼kÄĻ":11660,"Ġpacjent":11661,"Ġintelektual":11662,"Ġgle":11663,"Ġwymiary":11664,"Ġogo":11665,"Ġszybkiego":11666,"ĠhasÅĤem":11667,"Ġpremiera":11668,"61":11669,"ĠopiekÄĻ":11670,"ĠzwrÃ³":11671,"74":11672,"Ġniedob":11673,"Ġchary":11674,"CY":11675,"lli":11676,"Ġzagadnie":11677,"Ġspokoju":11678,"stÄĻpie":11679,"ĠWspÃ³ÅĤpra":11680,"Ġrodzinne":11681,"ĠÅ»ydÃ³w":11682,"ĠprÄħd":11683,"ĠdaÅĤo":11684,"Ġkapli":11685,"ĠCaÅĤoÅĽÄĩ":11686,"ĠmÃ³wiÄĻ":11687,"Ġkomuna":11688,"79":11689,"ĠPrezes":11690,"sfal":11691,"lskiego":11692,"Ġsilne":11693,"Ġacz":11694,"ĠmogÅĤam":11695,"Ġczasopis":11696,"Å¼egna":11697,"Ġzapom":11698,"ĠMaÅĤgorzata":11699,"Ġnawo":11700,"letniego":11701,"ĠracjÄĻ":11702,"terapia":11703,"AZ":11704,"ĠÅĽcis":11705,"ĠAustra":11706,"Ġstwarza":11707,"tuga":11708,"Ġprzyjdzie":11709,"ĠtwÃ³rczoÅĽci":11710,"ĠkredytÃ³w":11711,"ĠObo":11712,"ĠBlue":11713,"Ġspodnie":11714,"owny":11715,"Ġpaznokcie":11716,"czamy":11717,"ĠIr":11718,"Ġpop":11719,"ĠciÅĽnienie":11720,"ĠpoÅĤy":11721,"ĠObywatel":11722,"Ġdowolnym":11723,"ĠchciaÅĤby":11724,"Ġutraty":11725,"Ġprzestro":11726,"Ġfol":11727,"Ġdostrzega":11728,"Ġstartu":11729,"ĠprzemysÅĤu":11730,"ĠSprawie":11731,"ĠSzkole":11732,"fekt":11733,"tforma":11734,"ĠKate":11735,"Ġpozyski":11736,"Ġprywatne":11737,"Ġprzygotowany":11738,"dzik":11739,"ĠMszy":11740,"Ġrozmowie":11741,"ĠJÄĻzy":11742,"bit":11743,"ĠROD":11744,"Ġbaza":11745,"ĠoÅĽwietlenia":11746,"ĠWÄħ":11747,"ficja":11748,"zywanie":11749,"ĠKlubu":11750,"ding":11751,"ĠRegionalnego":11752,"Ġzasy":11753,"Å¼ajÄħ":11754,"top":11755,"Ġpodnie":11756,"Ġmedycznych":11757,"ĠPsycho":11758,"Ġkierunek":11759,"dniÄħ":11760,"MW":11761,"ĠgospodarczÄħ":11762,"Ġwypu":11763,"Ġopozy":11764,"non":11765,"Ġpolecenia":11766,"ĠodbÄĻdÄħ":11767,"tereo":11768,"Ġnabo":11769,"ĠswÄħ":11770,"Ġpotrzebujesz":11771,"ĠChar":11772,"obne":11773,"ĠzarzÄħd":11774,"Ġth":11775,"Ġwyjazdu":11776,"Ġposiadania":11777,"ĠpodkÅĤad":11778,"pÃ³ki":11779,"Ġindek":11780,"ACJA":11781,"Ġopowia":11782,"Ġinfek":11783,"wskich":11784,"Ġstosowany":11785,"Ġwydo":11786,"Ġniniejszej":11787,"ĠPlan":11788,"Ġwady":11789,"Ġtrudnych":11790,"Ġtkanki":11791,"ĠidÄħ":11792,"Ġtota":11793,"ĠÅĽciÅĽle":11794,"nerÃ³w":11795,"JesteÅĽ":11796,"ĠWielo":11797,"ĠpomogÄħ":11798,"ĠBlo":11799,"Ġzagadnienia":11800,"Ġspadek":11801,"pomina":11802,"Ġsztyw":11803,"Ġtradycyjnych":11804,"ĠtÅĤumaczy":11805,"Ġlubelskie":11806,"ĠÅĽciÄħga":11807,"Ġimpo":11808,"Ä¹Åºy":11809,"Ġosi":11810,"ĠOli":11811,"ĠNiepodlegÅĤoÅĽci":11812,"Ġgara":11813,"ĠPrzyja":11814,"ong":11815,"Ġuzyskanie":11816,"dero":11817,"ĠskrzyÅ¼":11818,"ĠwielkoÅĽÄĩ":11819,"cor":11820,"Ġwolnych":11821,"Ġpatro":11822,"Ġobszer":11823,"ĠwaÅ¼nÄħ":11824,"ĠodwiedziÄĩ":11825,"ĠhaÅĤa":11826,"Ġwpisy":11827,"Ġgrozi":11828,"Ġtrend":11829,"nus":11830,"Ġchwa":11831,"ĠterenÃ³w":11832,"Ġinterfe":11833,"ĠGospodarki":11834,"lowego":11835,"ĠNajczÄĻÅĽciej":11836,"Ġwci":11837,"tum":11838,"ÅĤyby":11839,"ĠmiÅĤoÅĽnikÃ³w":11840,"Ġpotrzebna":11841,"Ġszpitalu":11842,"Ġwalka":11843,"ĠbyliÅĽmy":11844,"Ġwiecie":11845,"IW":11846,"ĠokrÄħg":11847,"Ġnaszymi":11848,"Ġramiona":11849,"Ġprostych":11850,"Ġkamera":11851,"Ġprzeznaczonych":11852,"tech":11853,"Ġstraci":11854,"ĠÅĽrednicy":11855,"Ġkonstytu":11856,"ĠcaÅĤo":11857,"ĠZestaw":11858,"Ġprzypadek":11859,"Ġidealna":11860,"ĠVo":11861,"Ġkancelar":11862,"Ġszkody":11863,"ĠrodzinÄħ":11864,"Ġniskie":11865,"ENT":11866,"ĠVII":11867,"Ġprzys":11868,"ĠszerokoÅĽci":11869,"ĠprzyjÄĻcie":11870,"Ġnadzieje":11871,"ĠZapewnia":11872,"ĠwydajnoÅĽÄĩ":11873,"300":11874,"ĠAleksandra":11875,"Ġwydatki":11876,"mowany":11877,"Ġformularza":11878,"Ġzadowolony":11879,"Ġobliga":11880,"ĠokazaÅĤ":11881,"Pan":11882,"ĠRejon":11883,"ĠbiaÅĤka":11884,"Ġsukienki":11885,"Ġdrewno":11886,"Ge":11887,"Ġfunkcjonowanie":11888,"ĠposÅĤa":11889,"Ġmleko":11890,"ĠElÅ¼bie":11891,"wczej":11892,"ĠzastanowiÄĩ":11893,"Ġdys":11894,"Ġwykonywanie":11895,"ĠmuzykÄĻ":11896,"Ġkrzyw":11897,"Ġzawodu":11898,"Ġudzielenie":11899,"Ġzby":11900,"Ġniebo":11901,"JesteÅĽmy":11902,"ĠHistoria":11903,"Ġfinansowego":11904,"Ġkojarzy":11905,"Ġgotowy":11906,"ĠtÄĻtni":11907,"ÅĽwiÄĻt":11908,"Ġwydaniu":11909,"Ġkolega":11910,"ĠstwierdziÄĩ":11911,"Ġherbaty":11912,"Ġefektu":11913,"sung":11914,"Ġdysko":11915,"Ġdewelo":11916,"ĠprzyszedÅĤ":11917,"ĠpielÄĻgnia":11918,"ĠIloÅĽÄĩ":11919,"ĠtwÃ³j":11920,"ĠwiodÄħ":11921,"ĠAdama":11922,"Ġdeba":11923,"Ġciu":11924,"nnik":11925,"Ġczynniki":11926,"Ġryby":11927,"ĠWer":11928,"szelkie":11929,"ĠobszarÃ³w":11930,"ĠCzasami":11931,"Ġnasy":11932,"Ġpul":11933,"Ġcechu":11934,"Ġniepod":11935,"ĠwÅĤÃ³k":11936,"ĠTadeusz":11937,"ĠBiel":11938,"rekty":11939,"ĠwrzeÅĽniu":11940,"ĠMarii":11941,"Ġduszy":11942,"Ġsetki":11943,"szary":11944,"Ġaparat":11945,"ĠrodzinÄĻ":11946,"Ġbok":11947,"Ġstres":11948,"ÅĤoÅ¼yÄĩ":11949,"ĠwystÄħ":11950,"ĠweÅº":11951,"van":11952,"Ġdziecia":11953,"Ġbenzy":11954,"prowadzenie":11955,"ĠwyciÄħga":11956,"Ġpracodawcy":11957,"wionych":11958,"Ġposzukiwania":11959,"stosowanie":11960,"ĠprestiÅ¼":11961,"ĠFundacja":11962,"Ġzwia":11963,"ĠoddaÄĩ":11964,"lowana":11965,"mowaniu":11966,"Ġgwiaz":11967,"Bia":11968,"Ġzwy":11969,"Ġkosmi":11970,"kademia":11971,"Ġsprawnie":11972,"yer":11973,"ĠzespoÅĤy":11974,"ĠkoÅĽcio":11975,"Â¹":11976,"liar":11977,"tacjÄħ":11978,"letnia":11979,"Ġwyzwanie":11980,"kujÄĻ":11981,"ĠznajomoÅĽci":11982,"ĠÅĤÃ³Å¼ka":11983,"ĠkrÃ³la":11984,"Å¼an":11985,"ĠjÄĻzykiem":11986,"Ġulubionych":11987,"ĠCO":11988,"Ry":11989,"Ġokolice":11990,"Ġkoper":11991,"Ġcierp":11992,"bryka":11993,"ĠszczegÃ³ÅĤÃ³w":11994,"Ġlider":11995,"ĠNajpierw":11996,"Ġmalowni":11997,"ĠPomor":11998,"ĠrozpoczÄĻcia":11999,"niego":12000,"Ġzablo":12001,"Ġszkolnego":12002,"ĠwspÃ³ÅĤpraca":12003,"ÅĽpie":12004,"dych":12005,"ĠwalkÄĻ":12006,"komunika":12007,"Ġrezerwa":12008,"Ġbaz":12009,"Ġjedyna":12010,"terapeu":12011,"ĠspoÅĤecznego":12012,"Ġnaturalnie":12013,"Ġkalendarz":12014,"ĠOferta":12015,"Ġuni":12016,"uu":12017,"Ġzabija":12018,"Ġpowiedzia":12019,"ĠprzesyÅĤki":12020,"Ġekranu":12021,"Przez":12022,"Ġprotoko":12023,"Ġdebiu":12024,"Ġreklamowe":12025,"Ġraka":12026,"ĠzaoszczÄĻ":12027,"ĠwolÄĻ":12028,"ĠnoÅĽ":12029,"ĠPÅĤa":12030,"book":12031,"ĠParla":12032,"Ġzwrot":12033,"ĠZdecy":12034,"Ġlekkie":12035,"Ġogrodzie":12036,"Ġ1998":12037,"ĠzawieraÄĩ":12038,"ĠBlack":12039,"Szko":12040,"cheo":12041,"Ġ$":12042,"Ġstopniowo":12043,"tÅĤo":12044,"ĠBiuro":12045,"cono":12046,"Ġposzukuje":12047,"ĠprÃ³buje":12048,"WE":12049,"ĠPRO":12050,"bre":12051,"ĠÅļlÄħska":12052,"Ġrozmowa":12053,"Sp":12054,"ĠstraÅ¼a":12055,"ĠogÅĤa":12056,"stoku":12057,"ciÄħgu":12058,"ĠobowiÄħzuje":12059,"Ġcom":12060,"NIK":12061,"Ġlinia":12062,"Organi":12063,"gowaÄĩ":12064,"ye":12065,"his":12066,"93":12067,"Ġwakacji":12068,"ĠzaÅĤÄħcznik":12069,"Ġpasz":12070,"Ġpisania":12071,"Ġprost":12072,"mium":12073,"ĠczÅĤonkiem":12074,"Ġekranie":12075,"ĠpodjÄĻcia":12076,"tulu":12077,"rali":12078,"Ġstrefie":12079,"mawiaÄĩ":12080,"Ġkonwer":12081,"kto":12082,"=\"":12083,"towanego":12084,"ĠtÅĤumaczenia":12085,"Ġangielski":12086,"ĠznalazÅĤy":12087,"Ġman":12088,"Ġrocznie":12089,"nalizacji":12090,"ĠpoÅĤowÄĻ":12091,"ĠprzykÅĤadem":12092,"tkowej":12093,"ĠnastÄĻpnego":12094,"Ġocena":12095,"Ġletnie":12096,"Ġziar":12097,"Ġotwarty":12098,"Ġswym":12099,"via":12100,"ĠOstatnio":12101,"ĠJoanna":12102,"gin":12103,"Ġuwielbiam":12104,"ĠPN":12105,"dowaÅĤ":12106,"ĠBud":12107,"CZY":12108,"ĠOsie":12109,"nkowej":12110,"***":12111,".....":12112,"73":12113,"Ġcio":12114,"tness":12115,"ĠzaczÄĻÅĤy":12116,"ĠCzeka":12117,"ĠgorÄħco":12118,"Ġwola":12119,"promi":12120,"Ġrzym":12121,"Ġbramki":12122,"ĠtytuÅĤem":12123,"ĠchroniÄħ":12124,"Ġzamieszcza":12125,"Ġ54":12126,"Ġchle":12127,"Ġzobaczymy":12128,"Ġwad":12129,"Ġidenty":12130,"Ġtesty":12131,"Ġkape":12132,"stans":12133,"Ġzawodnicy":12134,"polskiego":12135,"udo":12136,"ĠOD":12137,"ĠNajwaÅ¼":12138,"ĠpiÄĻtrze":12139,"Ġrealizacja":12140,"Ġoczami":12141,"ĠpodstawÄħ":12142,"ĠCZ":12143,"owaliÅĽmy":12144,"Ġdesign":12145,"Ġzaple":12146,"ĠdÅĤuÅ¼szy":12147,"ĠÅļwiÄĻta":12148,"ĠGeo":12149,"ĠAugu":12150,"ĠAma":12151,"ĠSpotkanie":12152,"Ġlokalizacja":12153,"cel":12154,"?!":12155,"Ġidentyfika":12156,"ĠprzychodÃ³w":12157,"Ġ1939":12158,"ĠponiedziaÅĤ":12159,"dzin":12160,"Ġserialu":12161,"zywaÅĤ":12162,"ĠuznaÄĩ":12163,"Jednak":12164,"ĠdoskonaÅĤÄħ":12165,"ĠwyrÃ³wna":12166,"Ġocenie":12167,"Ġszkolnym":12168,"moÅ¼e":12169,"Ġzainteresowaniem":12170,"tive":12171,"ĠNowego":12172,"ĠmajÄħtku":12173,"szono":12174,"ĠOle":12175,"Ġopisuje":12176,"ĠprzedstawiÄĩ":12177,"ĠDÄħbr":12178,"zmÃ³w":12179,"owniki":12180,"nowski":12181,"ierÄĻ":12182,"Ġszampo":12183,"Ġwst":12184,"Ġpodnosi":12185,"ĠpoinformowaÅĤ":12186,"Ġkontynua":12187,"ĠobojÄĻ":12188,"???":12189,"Ġbaterii":12190,"ĠtworzÄħc":12191,"ĠzadÅĤu":12192,"ĠwyjÅĽcie":12193,"Ġdokonania":12194,"ĠsamorzÄħdu":12195,"ĠpostawiÄĩ":12196,"ĠZaba":12197,"ĠubiegÅĤym":12198,"Ġsensie":12199,"Ġaroma":12200,"Ġgranic":12201,"ĠTob":12202,"ĠrÃ³Å¼nica":12203,"Ġniekiedy":12204,"ĠwÄħtpienia":12205,"Ġudaje":12206,"ĠWorld":12207,"ĠLam":12208,"Ġuwar":12209,"legro":12210,"ĠtaÅĽ":12211,"Ġwap":12212,"ĠwÅĤaÅĽciwe":12213,"ĠrÃ³Å¼niÄħ":12214,"Ġakcje":12215,"ĠbezpÅĤatne":12216,"Trze":12217,"owna":12218,"ĠRÃ³":12219,"Ġplanie":12220,"Ġwpada":12221,"ĠAS":12222,"ĠwolnoÅĽÄĩ":12223,"pust":12224,"Ġszerokie":12225,"Ġ56":12226,"ĠSerdecznie":12227,"Ġpatrona":12228,"ĠkrÃ³lew":12229,"fen":12230,"szkÃ³w":12231,"Ġrachunek":12232,"chaÅĤ":12233,"Ġmiejskiej":12234,"Ġdocenia":12235,"Ġtoale":12236,"logicznie":12237,"Ġprowadzona":12238,"ĠdodatkÃ³w":12239,"Ġrusza":12240,"lator":12241,"siad":12242,"ĠspÄĻdziÄĩ":12243,"stora":12244,"ell":12245,"Ġnoclegi":12246,"Ġjeli":12247,"szonej":12248,"gniÄĻcia":12249,"ĠbutÃ³w":12250,"Ġogrodu":12251,"Ġzawarcia":12252,"Ġobrotu":12253,"rot":12254,"ĠszczegÃ³lnÄħ":12255,"PiÄĻk":12256,"ĠPolitechni":12257,"ĠKorzysta":12258,"ĠPrzemy":12259,"pane":12260,"ĠNajbardziej":12261,"Ġugo":12262,"Ġzgodne":12263,"ĠrzeczywistoÅĽÄĩ":12264,"Ġlatem":12265,"ĠorganizacjÄĻ":12266,"ndar":12267,"Ġspro":12268,"owce":12269,"Ġmarzy":12270,"ÅĤowego":12271,"Ġgospodarstwa":12272,"2008":12273,"Ġkonsultacji":12274,"Ġtani":12275,"ĠSkarb":12276,"ĠOK":12277,"ĠparametrÃ³w":12278,"Ġhydra":12279,"ĠchciaÅĤabym":12280,"ĠTurniej":12281,"ĠTrudno":12282,"Ġstole":12283,"ĠRoku":12284,"Ġkonkretne":12285,"ĠWaÅ¼ne":12286,"Ġpodopie":12287,"pul":12288,"ĠpomaraÅĦcz":12289,"Ġedukacyjnych":12290,"Ġfinansowania":12291,"eu":12292,"czykÃ³w":12293,"Ġnumeru":12294,"larz":12295,"Ġdrzwia":12296,"ĠpoÅĤowa":12297,"ĠwspomnieÄĩ":12298,"unt":12299,"znÄħ":12300,"Ġsmar":12301,"eksy":12302,"ĠÅĽwietna":12303,"ĠVer":12304,"Ġcien":12305,"ĠmaÅĤÅ¼":12306,"ĠformÄħ":12307,"xt":12308,"tyny":12309,"ĠAM":12310,"ĠMajÄħ":12311,"81":12312,"ĠpolskÄħ":12313,"ĠznaczÄħco":12314,"ĠNorwe":12315,"ĠprzyjÄħÄĩ":12316,"Ġpato":12317,"ĠprzekÅĤada":12318,"ĠekspertÃ³w":12319,"dzieliÅĽmy":12320,"Ġewolu":12321,"miÅĤ":12322,"muni":12323,"ĠChri":12324,"ĠNu":12325,"Ġistnia":12326,"dziÄħ":12327,"Ġpieczenia":12328,"Ġwidzimy":12329,"Ġzdrowy":12330,"ĠskÃ³rza":12331,"ĠpÅĤytki":12332,"ĠKÄĻ":12333,"Ġformularz":12334,"ĠnieszczÄĻ":12335,"cezji":12336,"ĠStraÅ¼y":12337,"ĠszerokoÅĽÄĩ":12338,"ĠdotyczÄħcej":12339,"ĠBarto":12340,"Ġmarketingu":12341,"ĠhasÅĤa":12342,"inga":12343,"wielbiam":12344,"ĠWspo":12345,"ĠatmosferÄĻ":12346,"gaÅ¼u":12347,"komo":12348,"Ġrepor":12349,"Ġczci":12350,"cyjnoÅĽci":12351,"ĠAnge":12352,"Ġplik":12353,"sÅĤuga":12354,"ĠwziÄĻli":12355,"szyn":12356,"Ġmanu":12357,"Ġwarian":12358,"ĠJednakÅ¼e":12359,"ĠRekla":12360,"Ġrozgrywa":12361,"ĠpÅĤaszczy":12362,"Ġarchitektoni":12363,"czysz":12364,"ĠokreÅĽlony":12365,"letnim":12366,"Ġwan":12367,"Ġtemperaturze":12368,"ĠMana":12369,"Ġlea":12370,"Ġgenia":12371,"imy":12372,"Ġseks":12373,"ĠsÅĤody":12374,"rzami":12375,"Ġfotografia":12376,"noty":12377,"cyna":12378,"ĠumiejÄĻtnoÅĽÄĩ":12379,"ĠLan":12380,"ĠDr":12381,"Ġauten":12382,"Ġ110":12383,"zowaÅĤ":12384,"Ġurlop":12385,"Ġtrzecim":12386,"prawdopodobniej":12387,"Ġfunduszy":12388,"71":12389,"Ġprobo":12390,"Ġprzerwa":12391,"ĠwidziaÅĤem":12392,"ĠJaki":12393,"Ġzabezpieczenie":12394,"Ġanaliza":12395,"ĠBibli":12396,"daniem":12397,"rÃ³ciÅĤ":12398,"ĠodpowiedzieÄĩ":12399,"ĠopiekÄħ":12400,"ĠBurmistrza":12401,"Ġinwest":12402,"gowania":12403,"ĠnadchodzÄħ":12404,"ksztaÅĤcÄħ":12405,"ĠSzczecinie":12406,"wetki":12407,"Ġmecha":12408,"ĠPÃ³Åºniej":12409,"Ġkontak":12410,"Ġdemo":12411,"Ġuzdr":12412,"ĠÂ¿":12413,"Ġel":12414,"ĠBen":12415,"ĠBri":12416,"Ġlakier":12417,"ĠocenÄĻ":12418,"owani":12419,"ĠznakÃ³w":12420,"ĠWojs":12421,"ĠTwojÄħ":12422,"gy":12423,"ĠmÅĤodego":12424,"ÅŁ":12425,"Ġenergi":12426,"Ġprzejrzy":12427,"Ġaspek":12428,"Ġpakiet":12429,"Ġdrogie":12430,"Ġpokolenia":12431,"racjÄħ":12432,"ĠStÄħd":12433,"ĠziemiÄĻ":12434,"Ġetc":12435,"ĠzagroÅ¼enie":12436,"nent":12437,"mujÄĻ":12438,"Ġtrzydzie":12439,"mion":12440,"Ġspora":12441,"dlu":12442,"Ġwzrok":12443,"rzchnia":12444,"Å¼liwe":12445,"Ġmorder":12446,"ĠUÅ¼ytkownika":12447,"ĠMogÄħ":12448,"Ġdotacji":12449,"Ġnazwiska":12450,"Pole":12451,"ĠPau":12452,"ĠpopularnoÅĽciÄħ":12453,"ĠKM":12454,"Odpowie":12455,"ĠpokazujÄħ":12456,"rne":12457,"Ġwbrew":12458,"Ġrozczar":12459,"ĠJanusz":12460,"Obecnie":12461,"graniczenia":12462,"jeÅºdzie":12463,"Ġgnie":12464,"ĠobsÅĤudze":12465,"ĠtroszkÄĻ":12466,"inÄĻ":12467,"ming":12468,"Ġgwiazdy":12469,"ĠprzyszÅĤym":12470,"Ġodzwiercie":12471,"Ġpusty":12472,"âĨ":12473,"ĠzaczÄĻÅĤo":12474,"Ġdojazd":12475,"Ġzapewnienie":12476,"niczych":12477,"ĠÅĤazienka":12478,"ĠpoprawÄĻ":12479,"Ġwitamin":12480,"unkiem":12481,"ĠsporzÄħ":12482,"Ġwyszukiwania":12483,"Ġzamku":12484,"Ġobecny":12485,"Ġnajlepszej":12486,"Ġdot":12487,"Ġstruktura":12488,"Ġbiznesowych":12489,"ĠPaÅĤa":12490,"%)":12491,"For":12492,"ĠbÅĤogosÅĤa":12493,"Ġprzeciwnie":12494,"Ġzapytania":12495,"Ġotoczeniu":12496,"Ġ--":12497,"Ġzagwaran":12498,"Ġdziale":12499,"Ġstresu":12500,"Ġpoprzedniego":12501,"Ġwyzwania":12502,"Ġkwestie":12503,"kup":12504,"ĠPrak":12505,"ĠSek":12506,"ĠDwa":12507,"Ġzacze":12508,"Ġosobisty":12509,"ĠDziennik":12510,"Ġczarno":12511,"szeÄĩ":12512,"Ġdalsze":12513,"ĠzwyciÄĻstwo":12514,"Ġznika":12515,"EW":12516,"przed":12517,"Ġschu":12518,"Ġwybory":12519,"Ġswoi":12520,"ĠPW":12521,"Ġegzo":12522,"ĠZamawiajÄħcy":12523,"nÄħÅĤem":12524,"derem":12525,"ĠpowoÅĤania":12526,"ĠrzÄĻdu":12527,"ĠÅ¼adna":12528,"ĠGdyni":12529,"Ġjesli":12530,"Ġdystan":12531,"ĠstawÃ³w":12532,"ĠchodziÄĩ":12533,"bÅĤo":12534,"Ġmatera":12535,"ĠBole":12536,"ĠdÄĻ":12537,"ĠSpi":12538,"ĠodzieÅ¼y":12539,"Ġjubile":12540,"Ġpowierzchnia":12541,"PA":12542,"versi":12543,"Ġsalonie":12544,"ĠprzeciwieÅĦstwie":12545,"Ġout":12546,"ĠLin":12547,"szewski":12548,"Kar":12549,"Ġpapiero":12550,"IF":12551,"ĠDziÄĻkujÄĻ":12552,"Ġwu":12553,"ĠakcjÄĻ":12554,"ĠgÅĤosowania":12555,"prawÄĻ":12556,"ĠkorzystajÄħ":12557,"ĠzasiÄĻgu":12558,"ĠakcesoriÃ³w":12559,"Ġpokaz":12560,"Ġtroche":12561,"Ġost":12562,"ĠWysokoÅĽÄĩ":12563,"niaÄĩ":12564,"ĠpowodujÄħ":12565,"ĠZA":12566,"ĠMiejski":12567,"Ġlokalnej":12568,"Ġdobrowo":12569,"Äħb":12570,"Ġrewi":12571,"Ġkalku":12572,"ĠbyÄ¹":12573,"Ġprowi":12574,"kujÄħcych":12575,"ĠzÅĤoÅ¼one":12576,"Ġzaro":12577,"Å¼by":12578,"nefi":12579,"Pie":12580,"niÅĤo":12581,"Ġligi":12582,"ĠÅĽciekÃ³w":12583,"RO":12584,"Ġnieprzyjem":12585,"biÅĤ":12586,"ima":12587,"Ġwyobraz":12588,"Ġprzedmiot":12589,"Ġrozlicza":12590,"niczy":12591,"Ġkariery":12592,"ĠdolegliwoÅĽci":12593,"ĠwybieraÄĩ":12594,"Ġatmosfera":12595,"Ġkate":12596,"ĠOgro":12597,"ĠPT":12598,"Ġgalerii":12599,"ney":12600,"ĠZresztÄħ":12601,"ĠznajomoÅĽÄĩ":12602,"Ġsuch":12603,"towanej":12604,"sÃ³b":12605,"own":12606,"san":12607,"Ġschroni":12608,"czyka":12609,"Ġkrwa":12610,"Ġdrogach":12611,"dnione":12612,"nery":12613,"ĠSma":12614,"ĠmÄĻÅ¼czyzny":12615,"Ġprzemocy":12616,"ĠsprÄĻÅ¼y":12617,"szach":12618,"Ġpoczy":12619,"Ġ02":12620,"ĠpodkreÅĽliÄĩ":12621,"Ġorto":12622,"ĠnajwyÅ¼szÄħ":12623,"Ġnowi":12624,"rtki":12625,"Szuka":12626,"Ġpolecamy":12627,"kuj":12628,"Ġliter":12629,"tujÄħce":12630,"Ġzabudowa":12631,"Ġwali":12632,"Ġfio":12633,"Ġfiska":12634,"FOR":12635,"ĠchciaÅĤem":12636,"chÅĤania":12637,"ĠmiÄĻÅĽnie":12638,"Ġgimnazja":12639,"ĠniewÄħtpliwie":12640,"wymi":12641,"press":12642,"soria":12643,"wiono":12644,"Ġprzypadkiem":12645,"Ġwaga":12646,"Ġkarta":12647,"nowej":12648,"ĠwyobraÅ¼a":12649,"ĠÅ»eby":12650,"Ġhonor":12651,"ĠspÅĤy":12652,"ĠPRZ":12653,"ĠProblem":12654,"Ġ58":12655,"Ġpozycja":12656,"ĠotrzymaÅĤa":12657,"ĠSerwis":12658,"ĠoÅĽwiadczenia":12659,"lany":12660,"Ġasy":12661,"Ġ130":12662,"Ġpok":12663,"mom":12664,"krÄĻca":12665,"ĠCaÅĤy":12666,"ware":12667,"ĠzmieniaÄĩ":12668,"ĠPublicznej":12669,"ĠzwiÄħzkÃ³w":12670,"ĠpowÃ³d":12671,"Ġpowiecie":12672,"ĠXVI":12673,"Ġatrakcje":12674,"Ġciele":12675,"czajÄħc":12676,"Ġmapy":12677,"Ãĥ":12678,"ĠStefa":12679,"ĠReali":12680,"ĠniemoÅ¼liwe":12681,"bert":12682,"Ġsztach":12683,"syjne":12684,"ĠpiÄĻknych":12685,"Ġmanipu":12686,"Rze":12687,"Ġwypowiada":12688,"ĠrÄĻkach":12689,"ĠDecy":12690,"Ġ160":12691,"Euro":12692,"Ġpopularnych":12693,"ĠKwia":12694,"Ġnaturalnym":12695,"Ġokie":12696,"ĠniezwÅĤo":12697,"Ġlektury":12698,"Ġdrama":12699,"ĠWrocÅĤawia":12700,"Ġstymu":12701,"Ġkoresponden":12702,"sum":12703,"Ġlakie":12704,"Ġmodlitwy":12705,"Ġhomo":12706,"Ġkwalifikacji":12707,"lana":12708,"stach":12709,"ĠwÄĻgl":12710,"ĠpiÄĻknÄħ":12711,"Ġtradycyjne":12712,"ĠznalazÅĤa":12713,"ĠMinisterstwa":12714,"Ġuruchamia":12715,"cznikiem":12716,"wÃ³z":12717,"ĠSkÅĤad":12718,"ĠdotrzeÄĩ":12719,"minium":12720,"mka":12721,"godny":12722,"tnymi":12723,"ĠoÅĽwiadczenie":12724,"liÄĻ":12725,"Ġtelewizo":12726,"ĠwziÄħÅĤ":12727,"kan":12728,"EX":12729,"ĠorganÃ³w":12730,"Ġurodziny":12731,"cid":12732,"ĠUl":12733,"ĠÅĽcianie":12734,"Ġnaprzeciw":12735,"Ġasfal":12736,"ĠPle":12737,"lenty":12738,"Ġkonkretnego":12739,"Ġbudzi":12740,"Ġwyeli":12741,"Ġwitryny":12742,"Ġkadry":12743,"Ġsubstancje":12744,"Ġmeb":12745,"Ġodpada":12746,"ĠPoÅ¼ar":12747,"ĠwrÃ³":12748,"dzÄħcy":12749,"ĠskutecznoÅĽÄĩ":12750,"ĠDoku":12751,"Ġdokonuje":12752,"Ġstereo":12753,"dniejsze":12754,"Ġreligii":12755,"OÅļCI":12756,"Ġinstytucje":12757,"Ġszary":12758,"ĠobrazÃ³w":12759,"Gru":12760,"Ġstrasz":12761,"ĠciepÅĤe":12762,"ĠosobowoÅĽci":12763,"stok":12764,"ĠzaangaÅ¼owanie":12765,"lonÄħ":12766,"sud":12767,"Ġniezapomnia":12768,"ĠstaÅĤych":12769,"ĠÅĽwiadczenie":12770,"Ġkan":12771,"dnionych":12772,"Ġrefor":12773,"ĠInwesty":12774,"span":12775,"ĠkapitaÅĤu":12776,"Ġwarszawa":12777,"ĠPCV":12778,"mel":12779,"ĠpomysÅĤu":12780,"Ġtereny":12781,"ĠpozwolÄħ":12782,"ĠStudio":12783,"Ġbilety":12784,"bus":12785,"rei":12786,"ĠZbigniew":12787,"ĠsygnaÅĤ":12788,"Ġkatalogu":12789,"ĠSztuki":12790,"ĠmÄĻÅ¼czyÅºni":12791,"Ġ700":12792,"lujÄħ":12793,"ĠszÃ³":12794,"Ġprojektowania":12795,"ĠmakijaÅ¼":12796,"Tagi":12797,"rzono":12798,"Ġpodatek":12799,"ĠUSD":12800,"ĠpracowaÅĤ":12801,"minarium":12802,"skluzy":12803,"IST":12804,"GÅĤÃ³w":12805,"ĠÅĽrednich":12806,"Ġhybry":12807,"Ġsakra":12808,"Ġustawa":12809,"talia":12810,"ĠpudeÅĤ":12811,"Ġimpreza":12812,"Ġprofesor":12813,"ĠInte":12814,"Ġposiadanie":12815,"Ġgrona":12816,"Ġspie":12817,"ĠDyrektora":12818,"uge":12819,"Ġniesamowicie":12820,"Ġucho":12821,"ĠSportu":12822,"Ġpodesz":12823,"Ġspecjalny":12824,"prawiedli":12825,"jawsko":12826,"Ġegze":12827,"ĠprÄĻdkoÅĽÄĩ":12828,"Ġstarannie":12829,"ĠZamiast":12830,"Ġstylizacji":12831,"ĠzakÅĤÃ³":12832,"Ġnikomu":12833,"ĠzajÄħÄĩ":12834,"Ġboli":12835,"Ġpolityka":12836,"Ġww":12837,"Ġszukasz":12838,"Ġelementami":12839,"rona":12840,"ĠNierucho":12841,"Ġï¿½":12842,"ĠdobÄĻ":12843,"Ġorganizacje":12844,"ĠsprÃ³bu":12845,"Jeszcze":12846,"Ġutwory":12847,"Ġare":12848,"Ġmowy":12849,"Ġniesko":12850,"ĠporadziÄĩ":12851,"Ġwlas":12852,"ĠOSP":12853,"Ġzimno":12854,"Ġsala":12855,"Ġoferowanych":12856,"Ġkomputerze":12857,"Ġbyle":12858,"Ġpowietrz":12859,"ĠbroÅĦ":12860,"ĠNauczycie":12861,"Ġhistorie":12862,"ĠpodÄħ":12863,"Ġmaju":12864,"ĠjakoÅĽciÄħ":12865,"mus":12866,"ĠprÄĻdko":12867,"Ġprofilakty":12868,"new":12869,"Ġdomowego":12870,"Ġniemiecki":12871,"owujemy":12872,"Ġ900":12873,"ĠpoÅĤÄħczyÄĩ":12874,"szyÅĤ":12875,"Ġ1990":12876,"Ġwybudowa":12877,"ĠTri":12878,"Ġkamieni":12879,"insta":12880,"Ġrejonie":12881,"zator":12882,"Åºnik":12883,"Ġpomia":12884,"Ġwymu":12885,"berg":12886,"Ġmetalu":12887,"ĠPoznania":12888,"ĠdojÅĽÄĩ":12889,"ĠpartnerÃ³w":12890,"Ġklawi":12891,"Ġokno":12892,"Ð¾Ð²":12893,"ĠKsiÄħÅ¼ka":12894,"ĠÅ¹rÃ³d":12895,"Ġlokalne":12896,"czyki":12897,"ĠtwÃ³rcy":12898,"Ġrezerwacji":12899,"CZNE":12900,"Ġpiz":12901,"ÅĤÄħczenie":12902,"ĠID":12903,"Ġogrzewania":12904,"kcesoria":12905,"ĠUkrainy":12906,"Ġado":12907,"Ġzalety":12908,"Ġszli":12909,"tany":12910,"Ġobecne":12911,"TM":12912,"ĠpÅĤynÄħ":12913,"Ġdeter":12914,"Cen":12915,"Ġznalezio":12916,"informa":12917,"zaleÅ¼nie":12918,"ĠXXI":12919,"kular":12920,"ĠpÅĤaci":12921,"ĠpoÅĤoÅ¼one":12922,"ĠGmina":12923,"ĠbawiÄĩ":12924,"Ġarchitektury":12925,"Ġpotraw":12926,"Ġoficjalnie":12927,"ĠpoczÄħtkowo":12928,"Ġniesta":12929,"Ġfel":12930,"Ġobcych":12931,"ĠOB":12932,"szawa":12933,"Ġkonsysten":12934,"Ġrzut":12935,"ĠStanowi":12936,"ĠfaÅĤszy":12937,"ĠdodaÅĤ":12938,"biec":12939,"Oferujemy":12940,"Ġszar":12941,"Ġosza":12942,"Si":12943,"Ġtrage":12944,"Ġguzi":12945,"ĠzaÅĽwiad":12946,"Åºniej":12947,"Ġmelo":12948,"Ġnaukowe":12949,"ĠSprzedaÅ¼":12950,"ĠzdarzeÅĦ":12951,"Ġpoga":12952,"Ġ51":12953,"ĠpeÅĤnomoc":12954,"dkÃ³w":12955,"kw":12956,"ĠprzedsiÄĻbiorcy":12957,"Ġorganizowane":12958,"Ġklawia":12959,"Ġbycia":12960,"Ġred":12961,"dzajÄħc":12962,"Ġfote":12963,"ĠdbaÄĩ":12964,"ffe":12965,"Ġzainwest":12966,"Ġ1945":12967,"ĠFotogra":12968,"PP":12969,"mej":12970,"wieni":12971,"Ġpowraca":12972,"ĠzapÅĤaty":12973,"Ġangielskim":12974,"WW":12975,"lica":12976,"ÅĤkowi":12977,"Ġczerwony":12978,"Por":12979,"ZarzÄħdzenie":12980,"kiewicza":12981,"Ġstadio":12982,"wis":12983,"ĠprodukcjÄĻ":12984,"ĠMicrosoft":12985,"niane":12986,"ĠdziaÅĤo":12987,"ĠOgÅĤoszenia":12988,"Ġzgra":12989,"ĠÃ³wczes":12990,"ĠtestÃ³w":12991,"ĠpiÄĩ":12992,"skop":12993,"Ġdelikatne":12994,"Ġatak":12995,"Ġkamery":12996,"ĠÄĨ":12997,"wica":12998,"dex":12999,"ĠmÅĤodo":13000,"ĠkÅĤam":13001,"ĠudaÄĩ":13002,"ĠMosk":13003,"ĠbyÅĤaby":13004,"ĠApple":13005,"czom":13006,"Ġczele":13007,"ĠwspÃ³ÅĤczesnych":13008,"ĠjÄĻzykÃ³w":13009,"miesiÄĻ":13010,"Ġfur":13011,"ĠSzkoda":13012,"ĠsporzÄħdza":13013,"ĠzimÄħ":13014,"ĠÅļwiet":13015,"raÄĩ":13016,"Ġmorze":13017,"Ġkomentarzy":13018,"ĠdochodÃ³w":13019,"Ġplatformy":13020,"ĠdÅĤugotrwa":13021,"ĠsiÅĤÄħ":13022,"Ġniesie":13023,"ktÃ³re":13024,"ĠmarzeÅĦ":13025,"bara":13026,"wanym":13027,"ĠzÄĻby":13028,"ĠszeÅĽciu":13029,"Ġspory":13030,"ĠskÅĤadaÄĩ":13031,"ĠNasi":13032,"Å¼nÄħ":13033,"Ġdomach":13034,"Kur":13035,"ĠplacÃ³wek":13036,"Ġspore":13037,"âĢĿ)":13038,"ĠpragnÄħ":13039,"Ġnadzor":13040,"ĠchÄĻci":13041,"Ġdrzewo":13042,"Ġutrzymuje":13043,"onach":13044,"tuÅĤ":13045,"ĠtwÃ³rcÃ³w":13046,"PN":13047,"Ġprojektem":13048,"ĠbiaÅĤym":13049,"ĠzapomnieÄĩ":13050,"tkowym":13051,"ĠtrzymaÄĩ":13052,"TER":13053,"ĠuprawnieÅĦ":13054,"Ġpaliw":13055,"Ġkieszeni":13056,"bal":13057,"wskie":13058,"ENIA":13059,"ĠwspÃ³lnej":13060,"Ġmanda":13061,"SM":13062,"ĠâĻ¥":13063,"Ġmiliar":13064,"Ġkomor":13065,"Ð½Ð¸":13066,"Ġnota":13067,"nowana":13068,"mentar":13069,"Ġproblemami":13070,"Ġbezpieczny":13071,"pkÄĻ":13072,"ĠbiaÅĤa":13073,"ĠsprawiedliwoÅĽci":13074,"lacjÄĻ":13075,"ĠposÅĤugi":13076,"dowanych":13077,"Ġprzestrzennego":13078,"ĠrÃ³Å¼a":13079,"zury":13080,"Ñĩ":13081,"ĠFrancu":13082,"ĠKomunika":13083,"ĠpoczÄĻ":13084,"Ġfun":13085,"ĠzgÅĤasza":13086,"Ġposy":13087,"ĠGala":13088,"Ġoprocen":13089,"ĠjesteÅĽcie":13090,"Ġkoncepcji":13091,"Ġwith":13092,"Ġlektu":13093,"gine":13094,"Ġrzad":13095,"ĠpoÅĤÄħczone":13096,"ĠkonsumentÃ³w":13097,"ĠXVIII":13098,"ĠPropo":13099,"ĠNar":13100,"ĠMeto":13101,"Ġaktywnie":13102,"ĠprawdziwÄħ":13103,"ĠTermin":13104,"chodzÄħc":13105,"Ġpolitycznych":13106,"Ġagencji":13107,"Â²":13108,"ĠstÃ³ÅĤ":13109,"ĠFry":13110,"Ġdecydu":13111,"Ġwpi":13112,"polski":13113,"tkowa":13114,"duÅ¼y":13115,"ĠMiejskiego":13116,"towaÅĤo":13117,"RY":13118,"mann":13119,"ĠÅ»o":13120,"ĠskrzydÅĤa":13121,"ĠcÃ³rka":13122,"Ġkierowca":13123,"ĠFestiwal":13124,"Ġnieustannie":13125,"ĠsÅĤowem":13126,"ĠpowaÅ¼ne":13127,"Ġwymiarach":13128,"Ġelektrycznych":13129,"Ġpunktem":13130,"Ġmocne":13131,"ION":13132,"ĠBadania":13133,"Ġczerwcu":13134,"stian":13135,"ĠOw":13136,"Ġ66":13137,"ĠOddziaÅĤ":13138,"ĠuczÄĻ":13139,"ĠzajÄħÅĤ":13140,"ĠØ":13141,"Ġjaz":13142,"ĠkupowaÄĩ":13143,"jazdu":13144,"Ġpodstawa":13145,"ĠobjawÃ³w":13146,"ĠbagaÅ¼":13147,"ĠSha":13148,"Ġpoez":13149,"Ġzega":13150,"ĠuczestniczyÄĩ":13151,"ĠWykonawca":13152,"ĠPoland":13153,"kaÅ¼":13154,"Ġbel":13155,"Mia":13156,"trzenia":13157,"ĠpoczuÄĩ":13158,"gom":13159,"ĠSkoro":13160,"Ġostatnia":13161,"Ġreprezentacji":13162,"zumia":13163,"Ġwychowania":13164,"Ġkontrower":13165,"Ġzorien":13166,"Ġtrzeciej":13167,"Ġnowotwo":13168,"Ġmiastem":13169,"ĠEgi":13170,"tw":13171,"Ġnarzeka":13172,"Ġoparte":13173,"Ġtworzywa":13174,"dzamy":13175,"Ġodpowiedzialny":13176,"Ġ53":13177,"Ġupra":13178,"Ġczyste":13179,"Ġlepszego":13180,"ĠpoÅĤÄħczeÅĦ":13181,"Ġdamskie":13182,"Ġskutku":13183,"sign":13184,"sis":13185,"ĠpiÅĤkÄĻ":13186,"dol":13187,"CC":13188,"ĠWydaje":13189,"Ġanio":13190,"Ġpewnej":13191,"Å¡":13192,"ĠwagÄĻ":13193,"Ġdodajemy":13194,"gnacji":13195,"Ġutrudnia":13196,"Ġskupi":13197,"ĠwÄħtroby":13198,"Ġvideo":13199,"ĠwspaniaÅĤy":13200,"ĠOtwar":13201,"ĠkorzystajÄħc":13202,"Ġdoktor":13203,"ĠMen":13204,"Ġsal":13205,"specjali":13206,"Ġ1989":13207,"Ġporno":13208,"Ġlewo":13209,"Fil":13210,"WO":13211,"ĠokaÅ¼e":13212,"Ġnawy":13213,"niÄĻciem":13214,"gÃ³ÅĤy":13215,"ĠnaczyÅĦ":13216,"ĠprawidÅĤowego":13217,"pole":13218,"ĠwynikajÄħcych":13219,"ĠpomysÅĤem":13220,"sul":13221,"Ġ59":13222,"Ofer":13223,"ĠDavi":13224,"ana":13225,"ĠON":13226,"Ġkomin":13227,"XX":13228,"Ġfajny":13229,"kowaÅĤa":13230,"ĠIsto":13231,"Ġetapu":13232,"Ġurze":13233,"Ġspecjalnego":13234,"ĠTU":13235,"ĠusÅĤugÄĻ":13236,"Ġbliskich":13237,"TU":13238,"ille":13239,"ĠRed":13240,"lans":13241,"gÃ³d":13242,"Ġzaufania":13243,"Ġulic":13244,"Ġ>>":13245,"ĠKle":13246,"Ġfali":13247,"ĠzabÃ³j":13248,"mÃ³wienie":13249,"Ġokru":13250,"âĢĭ":13251,"Ġtrudniej":13252,"dane":13253,"Ġprawdziwa":13254,"Ġsok":13255,"ĠMulti":13256,"Ġupro":13257,"opa":13258,"ĠJulia":13259,"Ġposzukiwaniu":13260,"ĠopcjÄĻ":13261,"Ġtrenera":13262,"ĠMasz":13263,"ĠnajniÅ¼":13264,"bary":13265,"Ġekspres":13266,"ĠwizytÃ³w":13267,"ĠtoÅ¼samoÅĽci":13268,"bran":13269,"ĠTere":13270,"Ġarku":13271,"Ġstarego":13272,"ĠwyjaÅĽ":13273,"Ġwynagrodzenie":13274,"ĠGdaÅĦska":13275,"mali":13276,"dziach":13277,"Ġtransforma":13278,"ĠPozostaÅĤe":13279,"Ġpoznania":13280,"ĠprzeglÄħdarki":13281,"uma":13282,"ĠOjca":13283,"Ġdzisiejszym":13284,"Ġfizyczne":13285,"czyliÅĽmy":13286,"ĠRadio":13287,"Ġestety":13288,"Ġtop":13289,"ĠpiÄĻknym":13290,"ĠprzekazaÄĩ":13291,"Ġkategoriach":13292,"Ġrodzicami":13293,"ura":13294,"ĠprzeciwdziaÅĤa":13295,"Ġoptymi":13296,"chanie":13297,"Ġ07":13298,"Ġautostra":13299,"ĠKL":13300,"Ġfunkcjonuje":13301,"alnÄħ":13302,"ĠÅ¼el":13303,"grÃ³d":13304,"ĠXL":13305,"ĠpeÅĤnego":13306,"ĠwewnÄĻtrznej":13307,"ĠZawiera":13308,"Ġopuszcza":13309,"Ġnaczynia":13310,"Ġpopy":13311,"lane":13312,"ï¼":13313,"szonym":13314,"ĠwytwÃ³r":13315,"gera":13316,"Ġfarmaceu":13317,"Ġzamian":13318,"Ġleku":13319,"Ġwybrany":13320,"ĠPomimo":13321,"ĠAD":13322,"seudo":13323,"ĠbankÃ³w":13324,"Ġgard":13325,"ĠStuden":13326,"Ġktos":13327,"Mamy":13328,"Ġzakupie":13329,"kana":13330,"Ġpose":13331,"nelu":13332,"Ġprzyzwo":13333,"tyczy":13334,"ĠMieszkanie":13335,"ĠzabytkÃ³w":13336,"ĠwyposaÅ¼ona":13337,"ĠuÅ¼ywam":13338,"ĠsiÅĤa":13339,"Ġniekoniecznie":13340,"ĠUmowy":13341,"rania":13342,"ĠzobowiÄħzaÅĦ":13343,"ĠobrzÄĻ":13344,"Ġzarob":13345,"ĠrÃ³Å¼nice":13346,"ĠPen":13347,"ĠDucha":13348,"ĠfinansÃ³w":13349,"ĠtrwaÅĤe":13350,"nedÅ¼e":13351,"ĠWybierz":13352,"Ġrucho":13353,"Ġintui":13354,"cri":13355,"Ġfazie":13356,"Ġgronie":13357,"Ġwymienione":13358,"Ġkombi":13359,"Ġcholestero":13360,"ĠdÅĤugim":13361,"Ġfunkcjonu":13362,"SA":13363,"Ġmapie":13364,"Ġnadzoru":13365,"ĠwysyÅĤki":13366,"ĠuÅ¼ytkownicy":13367,"ĠZatem":13368,"nÃĦ":13369,"Ġpis":13370,"ĠÅ¼arÃ³w":13371,"Ġentuzja":13372,"rÃ³wki":13373,"Ġdobiera":13374,"Ġwiecej":13375,"cÄħc":13376,"Ġgranicach":13377,"ĠByÅĤy":13378,"ĠzÅĤu":13379,"ĠwÅĤasnoÅĽÄĩ":13380,"dnika":13381,"rodÄħ":13382,"ĠzakÅĤadu":13383,"lkÄĻ":13384,"ĠzakupiÄĩ":13385,"Ġwersje":13386,"rzan":13387,"Ġministra":13388,"ĠwyÅ¼szych":13389,"Ġuniwersyte":13390,"ult":13391,"ĠuÅ¼ywania":13392,"Nasze":13393,"Ġkapu":13394,"ĠluÅº":13395,"ĠkolegÃ³w":13396,"Ġnawiga":13397,"å¤©":13398,"Ġrozumia":13399,"Ġdorob":13400,"Ġmater":13401,"ĠTÅĤu":13402,"ĠSMS":13403,"ĠPozwala":13404,"ĠTVP":13405,"Ġaplikacja":13406,"Ġtorebki":13407,"ĠPrzedmio":13408,"ĠdoskonaÅĤym":13409,"ĠodrobinÄĻ":13410,"Ġzakwater":13411,"ĠksiÄĻÅ¼y":13412,"Ġopracowania":13413,"Ġliczbie":13414,"Ġnomina":13415,"ĠMora":13416,"Ġwybuch":13417,"ĠpojawiÄĩ":13418,"Ġsamochodowych":13419,"diu":13420,"Ġalkohol":13421,"Ġmetabo":13422,"ĠNadz":13423,"Ġodnawia":13424,"Ġbawi":13425,"chowie":13426,"ĠHol":13427,"rowanych":13428,"logiÄħ":13429,"gr":13430,"Å¼nym":13431,"lingu":13432,"Ġbuk":13433,"Ġkontu":13434,"gim":13435,"Ġkodu":13436,"ĠNajÅĽwiÄĻt":13437,"ban":13438,"ĠPrezesa":13439,"Ġpocztowy":13440,"ĠTowarzystwo":13441,"ĠUniwersytecie":13442,"czniku":13443,"Ġdalszych":13444,"Ġ62":13445,"Ġpoprawnie":13446,"ĠzrÃ³wnowa":13447,"ĠRazem":13448,"Ġprzydatne":13449,"Ġstrzela":13450,"SÄħ":13451,"Ġkryteria":13452,"Ġrekrutacji":13453,"Ġkilogra":13454,"ĠwytÅĤuma":13455,"Ġspu":13456,"Ġsukienka":13457,"ĠNiektÃ³rzy":13458,"ĠpodziaÅĤ":13459,"ĠweÅĤ":13460,"ĠSen":13461,"ĠotworzyÄĩ":13462,"Ġgardero":13463,"Ġprzypisa":13464,"stkÄħ":13465,"iat":13466,"cowe":13467,"Ġrobimy":13468,"Ġpodanie":13469,"tic":13470,"ĠBiaÅĤoru":13471,"Ġrozpowszech":13472,"szoÅĽci":13473,"Ġpoprzednim":13474,"kury":13475,"Program":13476,"Ġboles":13477,"Ġcar":13478,"Ġdotyku":13479,"ĠzachowaÅĦ":13480,"Ġnajlepszego":13481,"Ġ]":13482,"ĠgÅĤowa":13483,"Ġtowarzystwie":13484,"ĠumieÅĽciÄĩ":13485,"Ġsekcji":13486,"zosta":13487,"anali":13488,"ĠnajbliÅ¼szym":13489,"ĠuÅ¼yciem":13490,"Ġnadzwyczaj":13491,"ryzon":13492,"Ġwyga":13493,"nujÄħce":13494,"ĠLip":13495,"ĠÅĤyÅ¼e":13496,"Ġbudynki":13497,"ero":13498,"ĠsÃ³l":13499,"ĠPewnie":13500,"Ġpiwo":13501,"bom":13502,"ĠpatrzeÄĩ":13503,"Ġminutach":13504,"Ġ1991":13505,"iaÅĤam":13506,"Ġtematyce":13507,"VI":13508,"Ð¼":13509,"owar":13510,"kta":13511,"nowanych":13512,"Ġtane":13513,"dzÄħcych":13514,"ĠpewnÄħ":13515,"Ġmas":13516,"Ġkoni":13517,"ĠuÅ¼ywany":13518,"ĠpomyÅĽleÄĩ":13519,"ĠautorÃ³w":13520,"Ġstaram":13521,"Ġpody":13522,"ĠwydajnoÅĽci":13523,"Ġnabiera":13524,"cra":13525,"piÄĻcie":13526,"ĠCity":13527,"ĠZasta":13528,"ĠXXX":13529,"Ġpowrocie":13530,"Ġdeszczu":13531,"ĠumoÅ¼liwiajÄħ":13532,"ĠMikoÅĤaj":13533,"ĠKON":13534,"ĠoÅ¼y":13535,"Ġhal":13536,"siÅĤek":13537,"Ġwykonanych":13538,"ĠmakijaÅ¼u":13539,"ĠRafaÅĤ":13540,"pozna":13541,"ĠMinisterstwo":13542,"owisko":13543,"Ġniz":13544,"graf":13545,"ĠMichaÅĤa":13546,"ĠzjeÅĽÄĩ":13547,"ĠPozy":13548,"Ġorganizuje":13549,"Ġstatus":13550,"Ġbaj":13551,"ĠWio":13552,"ĠBoÅ¼y":13553,"Ġcykli":13554,"Ġstal":13555,"Ġobserwacji":13556,"ĠzostajÄħ":13557,"mara":13558,"Ġbrata":13559,"Ġsili":13560,"ĠskalÄĻ":13561,"Ġbrzucha":13562,"ĠPrzeciw":13563,"Ġprowadzonej":13564,"Ġzapisu":13565,"ĠgÅĤoÅĽno":13566,"ĠprzemysÅĤowych":13567,"Ġwege":13568,"Ġzama":13569,"niÅĤy":13570,"ĠpomyÅĽ":13571,"Ġdre":13572,"niczne":13573,"ĠÅĤadowa":13574,"Ġpomieszczeniu":13575,"ĠczÄĻstotliwoÅĽci":13576,"ĠpowstajÄħ":13577,"ÅĦczo":13578,"Ġorgan":13579,"Ġpodziem":13580,"ĠomÃ³w":13581,"Ġsztucznych":13582,"YST":13583,"Ġracjona":13584,"ĠBiaÅĤym":13585,"Ġwbudowa":13586,"Ġakcen":13587,"Ġtworzeniu":13588,"ĠMistrz":13589,"jni":13590,"Ġczekam":13591,"Ġdiecie":13592,"Ġnajnowszych":13593,"Ġhoteli":13594,"Ġdalszym":13595,"Ġmgr":13596,"ĠWielki":13597,"ĠbÄĻdÄħcych":13598,"Ġnigdzie":13599,"rzwi":13600,"Ġkali":13601,"Ġoddycha":13602,"ĠPatry":13603,"Ġwyba":13604,"Ġsuchy":13605,"ĠRodzaj":13606,"dniopomor":13607,"ĠubezpieczeÅĦ":13608,"ĠszkoÅĤÄĻ":13609,"ĠKlasy":13610,"ĠwynikajÄħce":13611,"Ġniezmie":13612,"GE":13613,"ĠwspÃ³ÅĤczesnej":13614,"Ġkiedykolwiek":13615,"skute":13616,"UCH":13617,"ĠpasjÄħ":13618,"Ġszyi":13619,"ĠÐ²":13620,"Ġultra":13621,"ĠwzorÃ³w":13622,"==":13623,"ĠPun":13624,"Ġwyprowa":13625,"ĠMax":13626,"fir":13627,"AND":13628,"ĠPodstawowa":13629,"ĠRena":13630,"Ġhan":13631,"fony":13632,"Ġ140":13633,"ĠprywatnoÅĽci":13634,"Ġdelega":13635,"ĠdruÅ¼yn":13636,"ĠoczekiwaÅĦ":13637,"ĠFan":13638,"ĠUniwersytet":13639,"Dlaczego":13640,"KsiÄħÅ¼ka":13641,"Ġtkaniny":13642,"rzonego":13643,"skutek":13644,"IAÅģ":13645,"Ġewidencji":13646,"Ġnawierzchni":13647,"ĠodwaÅ¼":13648,"Ġzielone":13649,"ters":13650,"Ġdrogowego":13651,"ĠPowi":13652,"Ġstawki":13653,"Ġrozleg":13654,"ĠPiÅĤsud":13655,"ĠdzierÅ¼a":13656,"Ġformacie":13657,"ĠoÅĤ":13658,"Ġcodziennej":13659,"Ġswobodnie":13660,"ĠFlo":13661,"kujÄħc":13662,"Ġzapachu":13663,"ĠokreÅĽlonym":13664,"ĠzakrÄĻ":13665,"Ġszkolny":13666,"ĠtematÃ³w":13667,"cielami":13668,"Ġulep":13669,"å½":13670,"kony":13671,"lowanych":13672,"Ġrent":13673,"ress":13674,"ĠTek":13675,"czÄħca":13676,"Ġmale":13677,"Ġlekki":13678,"czerwo":13679,"Ġmno":13680,"Ġprzewiduje":13681,"ĠÅĤÃ³dzkie":13682,"ĠKodeksu":13683,"kredy":13684,"liÅĤa":13685,"tnicy":13686,"Ġpobo":13687,"Ġzaczer":13688,"ĠSzu":13689,"ers":13690,"Ġkawiar":13691,"ĠJedna":13692,"ĠwidziaÅĤ":13693,"szczyÄĩ":13694,"obby":13695,"Ġmniejszych":13696,"Ġwizyta":13697,"Ġznamy":13698,"ĠwskazujÄħ":13699,"Ġbogate":13700,"czymi":13701,"Ġznaki":13702,"Ġwokali":13703,"ĠOna":13704,"Ġistotnych":13705,"ĠdroÅ¼d":13706,"towie":13707,"ĠokreÅĽlonej":13708,"IEL":13709,"ĠLiceum":13710,"ĠKrajowej":13711,"Ban":13712,"Ġczarnym":13713,"ĠKredy":13714,"Ġrodzinnych":13715,"ĠrÃ³wnoczeÅĽnie":13716,"ĠpiÄĻkno":13717,"Ġ//":13718,"ĠGlo":13719,"Ġrokiem":13720,"ĠdostaÅĤ":13721,"Ġniesamowite":13722,"ĠPRL":13723,"Ġanek":13724,"ĠpozostajÄħ":13725,"Ġobycza":13726,"tywny":13727,"Sprzedam":13728,"ĠwchÅĤania":13729,"Ġprzenosi":13730,"Ġuzbro":13731,"Ġdomaga":13732,"ĠÅ¼ony":13733,"ĠFoto":13734,"ĠprzewaÅ¼nie":13735,"Wszystko":13736,"Ġludzkiego":13737,"sik":13738,"Ġregulaminu":13739,"remo":13740,"gimna":13741,"Ġpodania":13742,"ĠWczeÅĽniej":13743,"kazaÅĤo":13744,"Ġspowodowane":13745,"ĠbÄĻdÄħce":13746,"ĠjedynÄħ":13747,"psy":13748,"ĠpociÄħg":13749,"Ġkciu":13750,"morty":13751,"Ġtraf":13752,"Ġdesig":13753,"ĠskÅĤadu":13754,"Ġuwadze":13755,"Ġniepew":13756,"ĠprzenoÅĽ":13757,"siness":13758,"Ġotrzymali":13759,"Ġoryginalny":13760,"sin":13761,"ĠKolo":13762,"ĠwierzÄħ":13763,"ĠStanach":13764,"Ġlesie":13765,"ung":13766,"ĠWasze":13767,"ĠElblÄħ":13768,"wczym":13769,"Ġoder":13770,"9999":13771,"Ġpobrania":13772,"ĠOgÃ³lno":13773,"conej":13774,"ĠSM":13775,"ĠSzwajcar":13776,"div":13777,"ref":13778,"ĠnajtaÅĦ":13779,"Ġrocznicy":13780,"Ġopakowanie":13781,"Ġturystycznych":13782,"tajcie":13783,"naugu":13784,"ĠKancelar":13785,"ĠhistoriÄħ":13786,"Ġidei":13787,"roba":13788,"ĠznajdujÄħcych":13789,"Ġmycia":13790,"roid":13791,"ĠWÃ³wczas":13792,"Ġmechanizm":13793,"ĠJagiel":13794,"Ġsesja":13795,"Ġczerwone":13796,"ĠEN":13797,"ĠpodziwiaÄĩ":13798,"à¤":13799,"ĠPomoc":13800,"Ġwypoczynek":13801,"jÄħcemu":13802,"ĠpÃ³Åºno":13803,"ĠprzyjemnoÅĽci":13804,"ĠpÅĤywa":13805,"ĠprzeprowadziÄĩ":13806,"Ġnieobec":13807,"ĠAL":13808,"ĠTE":13809,"Ġznakomicie":13810,"ĠnÃ³g":13811,"ĠKrÃ³le":13812,"stal":13813,"Ġjez":13814,"Ġkok":13815,"Ġwybrze":13816,"ĠodnoszÄħ":13817,"lecie":13818,"Ġodm":13819,"tyzm":13820,"ĠwziÄĻÅĤo":13821,"Ġstabili":13822,"ĠÅĽniegu":13823,"ĠniewaÅ¼":13824,"sky":13825,"Ġintry":13826,"tycy":13827,"ĠPDF":13828,"Ġzo":13829,"ĠPolskÄħ":13830,"ĠRaj":13831,"kleja":13832,"Ġwskazane":13833,"alnego":13834,"tujÄħcy":13835,"ĠchwilÄħ":13836,"Ġzmniejszenie":13837,"ĠczoÅĤ":13838,"Ġradia":13839,"Ġpozycje":13840,"Ġniedawna":13841,"ĠSejmu":13842,"ĠmiÄĻdzynarodowej":13843,"ndyna":13844,"tona":13845,"ĠsprawiÄĩ":13846,"ĠEdy":13847,"Ġnaturalnej":13848,"ĠEm":13849,"Ġadresu":13850,"Ġkomplet":13851,"Ġbiblioteki":13852,"ĠpoÅĤoÅ¼ona":13853,"ĠLw":13854,"ĠKapita":13855,"ĠogÅĤasza":13856,"Ġewange":13857,"ĠzaznaczyÄĩ":13858,"Ġprzywo":13859,"Å¼owy":13860,"Ġmisji":13861,"Ġminimali":13862,"ĠtrwaÅĤy":13863,"ĠchÅĤopcÃ³w":13864,"Ġ1994":13865,"ĠCheÅĤ":13866,"ĠISO":13867,"sche":13868,"ĠzÅĤoÅĽli":13869,"likwi":13870,"ĠJerzego":13871,"tytuÅĤowa":13872,"Ġjakiekolwiek":13873,"Ġcof":13874,"leka":13875,"ĠszerokÄħ":13876,"Ġ72":13877,"Ġrana":13878,"Ġri":13879,"Ġmazowieckie":13880,"Ġchcecie":13881,"dztwie":13882,"ĠMB":13883,"Ġuznania":13884,"ĠWÃ³jta":13885,"ĠmieszczÄħ":13886,"ĠKazimierz":13887,"Ġfron":13888,"Ġtabletki":13889,"Ġskoja":13890,"Ġdek":13891,"Ġparki":13892,"ÅĽliz":13893,"ĠprzygodÄĻ":13894,"ĠpeÅĤniÄħ":13895,"Ġprosi":13896,"alnym":13897,"ING":13898,"ĠStru":13899,"Ġzielony":13900,"ĠtÄĻsk":13901,"Ġzwyczajnie":13902,"Ġpomiaru":13903,"Ġneutra":13904,"Ġstref":13905,"Ġpolie":13906,"Ġspoczy":13907,"ĠZakres":13908,"ĠÅĽcieÅ¼ki":13909,"Ġzawiado":13910,"ĠznajÄħ":13911,"ĠspÃ³dni":13912,"polska":13913,"Ġpodar":13914,"Ġegzamin":13915,"ĠliÅĽci":13916,"ĠgÃ³rach":13917,"ĠpÃ³ÅĤki":13918,"Ġostrzega":13919,"Ġwspomnie":13920,"Ġwidowi":13921,"ĠzwiÄħzki":13922,"Sie":13923,"nimy":13924,"Ġgrudniu":13925,"ĠpowstaÅĤo":13926,"Pow":13927,"ĠmogÅĤem":13928,"ĠbezwzglÄĻ":13929,"ĠznalazÅĤem":13930,"mil":13931,"ĠczÅĤonka":13932,"ĠNF":13933,"ĠposiÅĤkÃ³w":13934,"jeÅĽli":13935,"cyjnoÅĽÄĩ":13936,"Ġefektem":13937,"ĠtrafiÄĩ":13938,"ĠzamÃ³wiÄĩ":13939,"Ġkombina":13940,"sal":13941,"Ġsateli":13942,"ĠdopÅĤa":13943,"Ġprofesjonalnych":13944,"Ġzespole":13945,"ĠSÄĻ":13946,"ĠwpÅĤywajÄħ":13947,"ĠTobÄħ":13948,"Ġogromnym":13949,"Ġnadziei":13950,"ĠJaponii":13951,"Ġnormalne":13952,"Ġpogod":13953,"Ġkroki":13954,"Kto":13955,"ĠwÃ³j":13956,"bela":13957,"kowanej":13958,"Ġmiejscowo":13959,"ĠrÃ³wnoleg":13960,"ĠWyniki":13961,"Ġsuche":13962,"zmai":13963,"Å¼eni":13964,"Ġedukacyjne":13965,"ĠjakÅ¼e":13966,"ĠÅĽlubu":13967,"ĠButy":13968,"ĠprzejÄĻ":13969,"wro":13970,"rzÄĻt":13971,"ĠchcÄħc":13972,"kum":13973,"ĠrÃ³wna":13974,"Ġpodmioty":13975,"czyÅĦskiego":13976,"Ġofiary":13977,"ĠskutkÃ³w":13978,"Ġpozostanie":13979,"Ġsex":13980,"Ġosobistego":13981,"Ġpompy":13982,"ĠMoim":13983,"ĠdziaÅĤce":13984,"ĠzaletÄħ":13985,"Ġ{":13986,"ĠnastÄĻpnym":13987,"ĠDona":13988,"ĠspaÄĩ":13989,
[...]
